#version: 0.2 - Trained by `huggingface/tokenizers`
¦ ¾
à ¦¾
¦ °
à ¦°
§ ĩ
à §ĩ
§ į
à §į
¦ ¿
à ¦¿
¦ ¨
à ¦¨
¦ ķ
à ¦ķ
¦ ¬
à ¦¬
¦ ¯
à ¦¯
¦ ¤
à ¦¤
¦ ¸
à ¦¸
¦ ®
à ¦®
¦ ²
à ¦²
¦ ª
à ¦ª
¦ ¼
à ¦¼
¦ ¦
à ¦¦
§ ģ
à §ģ
Ġ à¦ķ
Ġ à¦¸
Ġ à¦¬
¦ ¹
à ¦¹
¦ Ł
à ¦Ł
¦ ľ
à ¦ľ
Ġ à¦ª
§ ĭ
à §ĭ
à ¥
¦ ¶
à ¦¶
à¥ ¤
¦ Ĺ
à ¦Ĺ
¦ Ĩ
à ¦Ĩ
¦ ĩ
à ¦ĩ
¦ ı
à ¦ı
Ġ à¦Ĩ
§ Ģ
à §Ģ
¦ Ľ
à ¦Ľ
Ġ à¦®
Ġ à¦ı
¦ ļ
à ¦ļ
Ġ à¦¨
Ġ à¦¹
¦ ¡
à ¦¡
à¦¼ à§ĩ
Ġ à¦¦
¦ ·
à ¦·
¦ Ń
à ¦Ń
¦ ¥
à ¦¥
¦ §
à ¦§
Ġà¦ķ à¦°
¦ ĵ
à ¦ĵ
Ġ à¦¤
¦ ĸ
à ¦ĸ
¦ ħ
à ¦ħ
Ġ à¦ħ
à¦¼ à¦¾
Ġ à¦ľ
¦ Ĥ
à ¦Ĥ
¦ ī
à ¦ī
Ġ à¦°
¦ £
à ¦£
Ġ à¦¶
Ġ à¦¯
¦ «
à ¦«
Ġ à¦Ĺ
Ġ à¦ļ
§ §
à §§
à§ĩ à¥¤
Ġ à¦ī
Ġ à¦ĵ
§ ¦
à §¦
Ġ à¦Ń
§ ¨
à §¨
Ġà¦¹ à¦¯
Ġà¦ª à¦°
â Ģ
Ġà¦ı à¦ķ
Ġ à¦¥
Ġ à¦²
Ġà¦¸ à¦®
Ġ à¦«
¦ ł
à ¦ł
Ġ à¦ĩ
§ Ĥ
à §Ĥ
§ ĥ
à §ĥ
Ġ à¦ĸ
à¦° à¦¤
Ġ à¦Ľ
Ġà¦Ĩ à¦®
¦ Ļ
à ¦Ļ
Ġà¦ħ à¦¨
Ġà¦¬ à¦²
à§§ à
à§§à §
Ġ à§¨
¦ ģ
à ¦ģ
Ġ à¦Ł
¦ ĥ
à ¦ĥ
¦ ĺ
à ¦ĺ
à¦° à¦ķ
Ġà¦ľ à¦¨
à¦ĵ à¦¯
à¦¾ à¦Ĥ
à¦° à¦£
Ġ (
Ġ à¦¡
Ġà¦ı à¦¬
à¦¬ à¦°
Ġà¦Ĩ à¦°
à¦¾ à¥¤
à¦ľ à¦¨
à¦® à¦¨
Ġ âĢ
Ġà¦ı à¦ĩ
à¦ª à¦°
. .
Ġ à¦§
¦ ŀ
à ¦ŀ
Ġ à¦ĺ
à¦¼ à¥¤
à¦ª à¦¨
à¦¾ à¦ģ
âĢ Ļ
§ °
à §°
§ ©
à §©
à¦¼ à¦¿
Ġà¦ıà¦ķ à¦Ł
à§ĩ ,
à¦¿ à¥¤
Ġ a
§ «
à §«
Ġà§¨ à§¦
§ Ī
à §Ī
à¦¤ à¦°
§ ª
à §ª
i n
à¦¬ à¦¨
Ġ à¥¤
Ġ à§§à§
Ġà¦ī à¦ª
Ġà¦¹ à¦¬
à¦¬ à¦¸
§ Į
à §Į
Ġ à§§
à¦ĸ à¦¨
Ġà¦Ĩ à¦²
à¦° à¦®
Ġ t
Ġà¦Ĩ à¦¸
Ġà¦ķà¦° à¦¤
Ġà¦® à¦¨
Ġà¦ı à¦°
à¦ķ à¦°
à¦¶ à¦¨
ĠâĢ ĺ
Ġà¦Ĩ à¦Ĺ
à¦¿ à¦Ĥ
§ İ
à §İ
e r
à¦ĩ à¦¨
à¦¾ ,
Ġ s
à¦° à¦¬
o n
§ ¬
à §¬
Ġà¦Ĩ à¦¬
à¦ª à¦¤
§ Ń
à §Ń
a n
Ġà¦¸ à¦¬
Ġ 2
Ġà¦¸à¦® à¦¯
Ġà¦¹ à¦²
Ġà¦ķ à¦®
à¦° à¦¸
Ġà¦® à¦§
Ġà¦ħ à¦Ń
Ġ p
§ ®
à §®
¦ Ŀ
à ¦Ŀ
Ġ b
r e
§ ¯
à §¯
Ġà¦Ĩ à¦ªà¦¨
à¦² à¦¨
Ġà¦§ à¦°
Ġà§¨à§¦ à§§à§
Ġà¦ī à¦¦
à¦ļ à¦¨
Ù İ
à¦² à¦ķ
à¦· à¦£
Ġà¦ª à¦¡
Ġà¦Ĩ à¦¨
Ġà¦¹ à¦¤
Ġà¦ı à¦¸
Ġ c
a t
Ġà¦ķ à¦¥
Ġà¦ļ à¦²
à¦ī à¦¨
Ġ à§©
à¦Ľ à¦°
à¦¸ à¦²
Ġà¦¸ à¦Ļ
à¦¿ ,
e n
Ġ 1
¦ ¢
à ¦¢
à¦¼ à§ĭ
à¦Ł à¦¨
à¦ķ à¦²
a r
Ġ m
à¦¦ à¦¨
Ġ -
à¦° à¦¦
Ġ :
Ġà¦¬ à¦°
à¦¹ à¦®
Ġà¦¸ à¦¹
Ġà¦¬ à¦Ľà¦°
à¦¤ à¦¨
o m
e s
à¦¼ ,
à¦· à¦¯
à¦° à¦¹
.. .
à¦ĩ à¦²
Ġà¦¸ à¦°à¦ķ
o r
à¦¬ à¦²
à¦¯ à¦¬
Ġà¦ħ à¦°
à¦² à¦¯
à¦¦ à¦°
Ġà¦Ĩ à¦Ľ
Ġ à¦¢
Ġ h
à¦¦ à¦ķ
à¦° à¦¯
Ġà¦¬ à¦¨
Ġà¦ħ à¦¬
0 1
i s
à¦° à¦§
a l
Ġà¦® à¦¤
à¦¥ à¦®
à¦° à¦¶
Ġ n
Ġà¦® à¦¹
Ġà¦¸ à¦°
à¦¨ à¦¤
à¦¯ à¦ķ
à¦¼ à§Ģ
Ġ d
i t
Ġà¦¤ à¦¬
Ġà¦ı à¦Ł
à¦® à¦¤
à¦® à¦²
Ġà¦¹ à¦ļ
l e
Ġà¦¦ à¦²
Ġt h
à¦¯ à¦®
à¦² à¦¤
Ġà¦ı à¦ĸà¦¨
Ġà¦ħ à¦¸
Ġ à§«
Ġà¦Ĩ à¦ľ
Ġ f
à¦ķ à¦Ł
à¦° à¦¨
à¦¤ à¦¬
Ġà¦Ĩà¦® à¦°
Ġà¦ı à¦²
Ġà¦ĵ à¦¯
Ġ à§ª
Ġà¦ķà¦° à¦Ľ
Ġà¦ħ à¦§
Ġ w
à¦¸ à¦¬
à¦¯ à¦¬à¦¸
Ġà¦ĩ à¦¨
o u
Ġà¦° à¦¯
à¦¹ à¦¤
à¦¤ à¦®
à¦ª à¦ķ
à¦° à¦¥à¦®
à¦¯ à¦¨
e d
Ġà¦¸ à¦Ń
Ġà¦Ĺ à¦¤
Ġà¦¸ à¦¨
à§¨ à§¦
Ġà¦īà¦ª à¦ľ
Ġ Ø
à¦Ĺ à¦°
à¦ĩ à¦ķ
Ġà¦¨ à¦¯
Ġà¦Ĩ à¦ķ
Ġà¦ĩ à¦¸à¦²
à¦Ł à¦ķ
Ġà¦ķà¦° à¦¬
à¦ĩ à¦Ł
à¦Ĺ à¦¤
Ġà¦ı à¦®à¦¨
Ġ2 01
à¦· à¦ķ
i c
à¦¸ à¦¹
à¦² à¦¬
Ġà§§ à§¦
Ù Ħ
à¦¸ à¦¨
Ġà¦ħ à¦¤
Ġà¦ķ à¦²
à¦ı à¦¨
Ġà¦ĺ à¦Łà¦¨
Ġà¦¨ à¦¤
l a
Ġà¦ħ à¦¬à¦¸
Ġà¦Ĩ à¦¦
à¦¸ à¦®
s t
à¦¬ à¦¬
à ¤
à¦ķ à¦¤
Ġà¦¬ à¦¡
Ġà¦ī à¦¤
à¦¦ à¦¸
Ġ à§¬
Ġà¦¹ à¦ĵà¦¯
Ġà¦Ĩ à¦¶
e w
à¦® à¦°
à¦¯à¦¬ à¦¹
Ġ o
à¦¹ à¦°
Ġà¦ķà¦° à¦²
Ġà¦¯ à¦¦
Ġ à¦ł
à¦¾ -
à¦° à¦ļ
Ġà¦ī à¦¨
à¦ı à¦¸
Ġà¦ħ à¦ªà¦°
à§¦ à§¦
à¦ı à¦®
à§ĭ à¥¤
Ġà¦Ĩ à¦¯
à¦¨ à¦¬
à§İ à¦¸
0 0
Ġà§§à§ ¯
à¦ĩ à¦°
Ġ à§Ń
à¦° à¦ª
à¦¬ à¦ķ
Ġth e
à¦® à¦ķ
à¦¨ à¦¯
Ġà¦ı à¦¤
Ġ à¦Ŀ
in g
à¦¸ à¦ª
Ġà¦° à¦¹à¦®
Ġà¦¤ à¦¥
Ġà¦« à¦²
Ġà¦¸ à¦ķ
Ġà¦ħ à¦ª
à¦ĸ à¦¤
à¦Ĺ à¦ŀ
Ġ in
à¦ĩ à¦¯
Ġà¦ī à¦ł
Ġ à§¦
Ġà¦¸ à¦¦à¦¸
Ġà¦ĵ à¦ĩ
Ġà¦ĩ à¦¤
a d
Ġ à§®
à¦° à¦²
à¦¤ à¦ķ
à¦ķ à¦¬
à§ģ à¦ģ
Ġà¦¬ à¦¸
Ġà¦Ĩ à¦ĩà¦¨
i d
Ġà¦ª à¦¦
Ġà¦ĩ à¦īà¦¨
à¦¨ à¦ķ
Ġà¦° à¦ķ
à¦ķ à¦¦
Ġà¦ī à¦ļ
Ġ g
Ġà¦Ľ à¦¬
à¦§ à¦¨
Ġà¦² à¦ķ
à¦¨ à¦¨
en t
à¦¨ à¦®à¦¨
à¦® à¦¸
à¦ī à¦ľ
Ġà¦ķ à¦¯
à¦® à¦¦
i on
l o
Ù Ĳ
ĠâĢ ĵ
âĢ Ŀ
Ġà¦Ĩ à¦ĵà¦¯
Ġ à§¯
à§Ģ ,
Ġà¦Ĩà¦° à¦ĵ
à¦° à¦Ń
à¦¨ à¦Ł
i l
à¦¶ à¦ķ
Ġà§¨à§¦à§§à§ ¯
ew s
t h
à¦ļ à¦²
Ġ /
Ġà¦¤ à¦ĸà¦¨
Ø §
Ġ Ù
à¦® à¦¬
Ġà¦¶ à¦¤
à§Ģ à¥¤
Ġa n
à¦ĩ à¦¸
ĠâĢ ľ
Ġà¦¶ à¦°
à¦ıà¦¨ à¦ª
Ġà¦ıà¦ķ à¦ľà¦¨
¦ Ī
à ¦Ī
a m
à¦¹ à¦²
à¦® à¦¯
à¦¸ à¦°
Ġà¦Ĺ à¦£
Ġà¦ī à¦ªà¦°
Ġà¦ī à¦²
à¦¹ à¦¸
Ġà¦ħ à¦«
Ġà¦¸à¦® à¦¸
Ù Ĵ
à¦¬ à¦ª
Ġ "
an g
à¦°à¦¹ à¦£
à¦° à¦ĵ
r o
Ġ k
c om
Ġ j
a y
Ġà¦Ĩ à¦¤
Ġà§§ à§¨
e t
à¦ł à¦¨
Ġà¦ķ à¦¬
Ġo f
à¦¿ -
à¦® à¦ķà¦°
Ġ v
i m
Ġt o
Ġà¦Ĩ à¦ª
Ġà¦ı à¦¨
a s
c h
Ġ re
à¦Ĺ à¦²
Ġ 0
Ġà¦ı à¦®
à¦ī à¦Ł
Ġà¦¬ à¦ķ
Ġà¦ħ à¦ķ
Ġà¦ĸ à¦¬à¦°
Ġà¦ĺ à¦Ł
Ġ u
à¦Ł à¦°
Ġà§§ à§§
Ġà¦ľ à¦®
à¦· à¦¤
à¦¨ à¦¸
Ġ l
e x
Ġà¦īà¦ª à¦¸
à¦ĸ à¦²
Ġà¦¬à¦² à¦²
à¦¸ à¦ķ
Ġà¦Ĩ à¦¹à¦®
¦ Ĳ
à ¦Ĳ
Ġ '
à¦ª à¦¦
Ġà¦¸ à¦¤
Ġà¦ª à¦ķ
Ù ı
Ġ 3
à¦Ł à¦Ĺ
à¦¯ à¦¤
c t
à¦Ń à¦¬
Ġà¦ľ à¦¯
Ġà¦¯ à¦ĸà¦¨
e l
Ġ à¦Ĳ
Ġà¦¸ à¦ķà¦²
Ġ on
à¦¥ à¦¨
Ġà¦ª à¦¥
Ġà§§à§ «
Ġ i
à¦Ľ à¦¨
Ġà¦ĩ à¦ī
à¦« à¦¤
à¦¾ à¦ĥ
Ġ ...
Ġà¦¬ à¦¹
à¦« à¦²
Ġà¦Ĺ à¦²
Ġà¦ĺ à¦°
à¦§ à¦¬
Ù Ĩ
Ġà¦ı à¦¦
à¦¿ )
Ġà¦ıà¦¸ à¦¬
à¦· à¦¦
Ġà¦¦ à¦°
Ġà¦¬ à¦¯
Ġà§§à§ ª
§ ±
à §±
Ġà§¨à§¦à§§à§ ®
à¦¨ à¦¦
Ġ à¦Ī
u r
Ġà¦ı à¦ĸ
à¦¸ à¦¦
Ġ [
Ġà¦ı à¦Ĺ
Ġà¦ĵ à¦ªà¦°
à¦¼ à§ģ
Ġà¦ļ à¦Ł
à§ĩ à¦ģ
Ġà¦Ĩ à¦Łà¦ķ
à¦¿ à¦ĥ
Ġan d
a g
.. ..
Ġ ,
à¦° à¦Ł
Ġà¦ī à§İ
Ġ Â
o l
à¦° à¦ĩ
e m
Ġà¦ıà¦ķ à¦ĩ
Ġà¦§à¦° à¦¨
à¦Ĩ à¦ĩ
Ġà¦Ĩ à¦ĩ
à§ĩ ?
à§ĭ à¦ģ
à¦¬ à¦¤
Ġà¦Ĺ à¦¡
à§ĭ ,
à¦Ĺ à¦£
r a
- -
Ġà¦¦ à¦ķ
Ġà¦Ĩ à¦¹
Ġà¦Ń à¦°
à¦¦ à¦²
Ġà¦¬ à¦Ļ
à¦· à¦®à¦¤
à¦° à¦«
Ġà§¨à§¦ à§¨à§¦
Ġà¦¶ à¦¹à¦°
à¦ķ à¦¨
Ġà¦¶ à¦¨
Ġà¦° à¦¬
à§ĭ .
à¦ı à¦°
Ġa t
u n
Ù Ĭ
o t
à¦ľ à¦°
Ġ y
à¦¨ à¦ĵ
Ġà¦ı à¦ª
ang la
à¦¬ à¦¹
à¦² à¦Ĺ
u l
à¦¯ à¦¦
Ġà§§à§ ®
Ġà¦« à¦°
à¦« à¦°
i g
Ġà¦ħà¦¬ à¦¶
Ġà¦® à¦Ļ
Ġà¦¶ à¦ķ
à¦¨ à¦°
à¦ĩ à¦¬
Ġà¦ı à¦Ľ
à¦¼à¦¾ ,
Ġà¦¹ à¦ķ
i v
Ù ħ
Ġà¦ĩ à¦¯
) ,
à¦° à¦Ĺ
Ġ â
) ;
Ġà¦Ń à¦¯
Ġà¦ħ à¦¥
m ent
Ġà¦ķ à¦ĸà¦¨
Ġà¦¨ à¦Ń
i r
à¦¼à§ĩ à¥¤
Ġn ews
Ġà§§à§ ¬
Ġà§§à§ ©
Ġà¦ľ à¦°
à¦Ĩ à¦®
Ġà¦ķ à¦¨
à¦Ĺ à¦łà¦¨
Ġà¦¸ à¦ļ
Ġà¦ķ à¦¤
à¦ł à¦ķ
u t
Ġà¦¸à¦¬ à¦ļ
à¦Ĺ à¦®
à¦Ĺ à¦¨
Ġà¦Ĩà¦² à¦®
Ġà¦¬à¦² à¦¤
Ġà¦¨ à¦¬
Ù ĩ
à¦ľ à¦¯
Ġà¦¨ à¦®
à¦ļ à¦¯
Ġ 4
) à¥¤
ĠØ §
Ġà¦ıà¦° à¦ªà¦°
o w
Ġà§¨à§¦à§§à§ Ń
à§§à§ ¯
à¦ĩ à¦ľ
) .
à¦ķ à¦¸
à§ĩ -
à¦Ĺ à¦²à¦¬
Ġà§¨ à§ª
à¦ķ à¦Ń
? ?
2 0
Ġà¦¸ à¦¡
à¦¯ à¦°
Ġà¦¬à¦² à¦Ľ
h t
à¦¾ âĢĻ
Ġà¦Ĺ à¦°
s e
Ġà§© à§¦
Ġà¦¨ à¦¦
Ġà§§à§ Ń
à¦Ĺ à¦¬à¦¨
à¦ľ à¦¸
Ġb angla
à¦¬ à¦¶
à§ĭ à¦ĥ
v i
Ġ e
Ġà¦ľ à¦²
à¦¨ à¦®
Ù ĳ
Ġà¦¸à¦¹ à¦ľ
Ġà¦¹ à¦¨
Ġà¦® à¦°
Ġà¦ķ à§°
à¦° à¦ªà¦°
Ġ 5
Ġà§¨à§¦ à§¦
à¦°à¦ķ à¦²
à¦¤ à¦¤
à¦¬ à¦¦
à¦ĩ à¦¡
Ġà§¨ à§«
h a
2 4
à¦ĩ à¦®
Ġà¦Ĩà¦¸ à¦²
u b
om e
Ġà¦ļà¦² à¦Ľ
Ġà¦Ī à¦¦
à¦¿ âĢĻ
Ġà¦® à¦¸
à¦ľ à¦®
Ġà¦ľ à¦¬
Ġà¦ª à¦¤
à¦¤ à¦²
at e
à¦ª à¦Ł
à§§ à§¨
Ġa r
à¦ī à¦²
Ġà¦Ĩà¦¸ à¦Ľ
à¦ķ à¦®
Ġs t
à¦ľ à¦§
Ġ r
Ġà¦ħ à¦Ĺ
ĠØ§ ÙĦ
à¦°à¦® à¦£
Ġ is
à§ģ ,
Ġà¦ħà¦¨ à¦²
Ġ =
ou r
Ġà¦¤ à¦°
es t
à§ģ âĢĻ
à¦¯ à¦¸
à¦¦ à¦ª
Ġà¦Ĺ à¦¬
à¦ļ à¦ķ
Ġ à§į
ex t
Ġà¦Ĩà¦Ĺ à¦¸
à¦§ à¦¤
c e
Ġà¦¯ à¦¤
Ġà¦ª à¦¶
u s
Ġà¦Ĩà¦¸ à¦¨
i a
Ġà¦ª à¦£
à§§ à§¦
à¦¯ à¦ĩ
Ġà¦ªà¦° à¦¬à¦°
à¦Ĩ à¦°
à¦ĩ à¦¤
à§İ à¦ķ
Ġà¦® à¦ľ
Ġp re
à¦² à¦®
à¦ľà¦¨ à¦ķ
Ġà¦¸ à¦¦à¦°
Ġc om
Ġà¦ħ à¦²
Ġà¦¸ à¦ª
ĠÂ »
o o
i k
/ /
à¦¶ à¦²
à¦° à¦ľ
Ġ201 9
Ġà¦ĩ à¦®
! !
t p
Ġà¦ľ à¦¡
Ġm o
à¦¾ .
à¦ĺ à¦°
Ġà¦Ĩ à¦¹à¦¤
Ø ±
Ġc h
Ġà¦ļ à¦°
à¦² à¦¸
à¦ķ à¦ķ
l y
Ġà§¨ à§¨
at ion
Ġ2 0
Ġà¦¸à¦¹ à¦¯
à¦ĩ à¦Ń
à¦° à¦Ľ
Ġà¦¶ à¦¹
Ġà¦¤ à¦¦à¦¨
à¦¯ à¦¯
Ġà§¨ à§§
Ġà¦Ĩà¦¬ à¦¦
à¦· à¦®
à§Į à¦ģ
Ġà¦ī à¦ĩà¦ķ
Ġà¦ĵ à¦ł
à¦ķ à¦ľà¦¨
Ġà¦¦ à¦¶
à¦¸ à¦Ł
a p
Ġà¦ª à¦¯
t er
b er
: //
Ġà¦¶ à¦¬
t ic
Ġà¦Ĩ à¦§
Ġà¦Ľ à¦¡
à¦¹ à¦¬
is h
à¦¶ à¦Ĺ
à§§ à§§
Ġ/ /
ou s
Ġ 6
à¦° à¦°
Ġà¦ĩ à¦¸
à¦ķ à¦°à¦£
Ġà¦¯ à¦¥
Ġà¦Ĩ à¦«
en g
Ġà¦§ à¦¨
Ġà¦ľà¦¨ à¦ª
c k
à¦¼à¦¾ à¥¤
Ġà¦ķ à¦ł
Ġà§¨ à§©
in d
Ġp o
à¦® à¦Ĺ
Ġf or
Ġà¦Ĩà¦ª à¦¡
à¦¥ à¦²
Ġà¦ı à¦¡
à¦ī à¦¦
Ġ +
à¦¨ à¦Ĺà¦°
¦ ĭ
à¦® à¦ª
à ¦ĭ
a k
Ġà¦ª à¦²
à¦ª à¦¸
à¦¬ à¦¯
Ġà¦ķ à¦ķ
à¦¤ à¦¦
à¦® à¦§
à¦ĩ à¦«
Ġh ome
à¦² à¦ª
Ġa m
i p
Ùİ Ùĳ
Ġà¦¸à¦® à¦°
Ġp m
Ġs e
a b
Ġà¦ĵ à¦°
à¦¤ à¦°à¦£
Ù Ī
Ġà¦Ĺà¦¤ à¦ķ
s s
Ġà¦ıà¦ķ à¦¦
à¥¤ âĢĻ
Ġa l
à¦£ à¦¤
à¦¸ à¦Ń
Ġà§¨à§¦à§§à§ ¬
à¦ı à¦²
à¦¶ à¦Ł
à¦¯ à¦ª
à¦° à¦ªà¦¤
à¦ľ à¦²
Ġà¦ħ à¦ŀ
à¦ª à¦¡
Ø ¨
Ġ1 0
v e
i f
Ġà¦ĺ à¦¨
Ġ à¦ĭ
Ġâ Ĩ
Ġd e
Ġà¦ĺ à¦£
à¦¯ à¦ķà¦°
âĢ ĺ
Ġb y
is t
es h
Ġ à¤
Ġà¦Ĺ à¦łà¦¨
Ġà¦¬ à¦ĩ
Ġà¦® à¦¯
tic le
à¦Ł à¦¸
à¦¨ à¦Ĺ
à¦ı à¦ĩ
1 8
er s
Ġà¦ĩ à¦²
à§§à§ ®
o p
in e
à¦ľ à¦¶
à¦¹ à¦¨
à¦ī à¦¡
Ġà¦ľà¦¨ à¦Ĺà¦£
à¦ı à¦«
à¦® à¦ļ
Ġà¦ħà¦¥ à¦¬
2 01
à¦ī à¦°
Ġà¦Ĩà¦ľ à¦ķ
à¦¶ à¦°
w w
à¦¬ à¦ĩ
Ġà¦ļà¦² à¦¤
Ġà§¨ à§¬
à¦ĺ à¦Łà¦¨
Ġà¦®à¦¸ à¦ľ
Ġà¦Ĩà¦¨ à¦¨
Ġ 7
à§§à§ Ń
à¦ĸ à¦ķ
à§ĩ à¦ĥ
à¦Ł à¦®
Ġ201 8
Ġà¦ľ à¦Ļ
à¦ĸ à¦¬
à¦² à¦Ł
Ġà¦īà§İ à¦ª
âĢ Ķ
Ġs h
à¦² à¦Ń
à¦°à¦ķ à¦®
vi ous
à§ĩà¥¤ âĢĻ
u m
à¦Ł à¦²
Ġb e
ĠÙ Ī
à ´
à¦¥ à¦ķ
à¦¦ à¦¶
an d
à¦ľ à¦ª
à¦¯ à¦¤à¦®
Ġ 8
à¦Ĩ à¦¨
Ġ .
Ġà¦ļà¦² à¦ļ
Ġà¦ĩ à¦ļ
Ġà§« à§¦
Ġ 9
à§ģ à¦ĥ
Ġà¦Ĩà¦¸ à¦¬
à¦¿ ?
Ġà¦¨ à¦ľà¦°
à¦ĵ à¦²
Ġn ext
Ġà¦Ĩà¦¸ à¦¤
Ġpre vious
Ġà¦Ń à¦¬à¦¨
Ġà¦¡ à¦²
Ġà§¨ à§Ń
Ġà¦ı à¦Ń
Ġw h
Ġà§¨ à§®
Ġà¦īà¦ª à¦²à¦ķ
à¦ļ à¦°
à¦ª à¦£
Ġà¦Ĺ à¦Ń
e b
it h
âĢ ĵ
Ġ $
à¦ľ à¦¤
à¦¼ à§į
à¦Ł à¦¬à¦²
Ġà¦Ĩ à¦ļ
à¦¯ à¦¥
à§ĩ âĢĻ
à¦ľ à¦ķ
Ġà¦¦ à¦°à¦ķ
Ġ à¦·
Ġà¦ļ à¦ķ
à¦« à¦Ł
1 0
à¦°à¦¸ à¦Ļ
im e
à¦ķ à¦¶
Ø ¯
Ġar ticle
Ġp ro
ar t
Ġà¦ķ à¦²à¦ķ
Ġ à§°
Ġà¦¨ à¦Ĺà¦°
Ġà¦¸ à¦ł
à§§à§ «
à§Ģ -
2 5
à§ģ à¥¤
Ġà¦Ĩà¦¹à¦® à¦¦
à¦¹ à¦ķ
Ġà¦¬ à¦¦à¦²
a il
Ġà¦® à¦¡
Ġà¦¸à¦¹ à¦ķ
Ġà¦°à¦ķ à¦®
lo g
à¦ľ à¦¬
à¦¸ à¦ļ
à¦§ à¦°
Ġà¦ıà¦ĸà¦¨ à¦ĵ
à¦° à¦ĸ
à¦¸ à¦°à¦ķ
à¦¾ !
Ġ201 7
à§ĩ !
Ġà¦Ĩà¦° à¦¬
Ġà¦ħ à¦®
Ġ it
Ġà¦Ľ à¦¯
Ġà¦ĩ à¦°
à§¨ à§ª
q u
Ġ le
à¦Ĩ à¦²
d esh
Ġh t
Ġpo st
Ġ1 2
Ġà¦ª à¦¦à¦ķ
à¦¾ ?
Ġ *
à¦² à¦¦
Ġà¦ĩà¦ī à¦°
Ġà¦ıà¦® à¦ª
Ø ³
Ġ }
Ġà¦Ĩ à¦¡
Ġa p
l ish
à¦ª à¦²
o v
à¦¨ à¦²
Ġà¦Ĩ à§°
à¦¡ à¦¨
Ø ª
Ġ >
Ġà¦īà¦ª à¦ķ
Ġ x
à¦¶ à¦¬
Ġ ?
Ġu p
Ġà¦² à¦¡
Ġà¦ĸ à¦°à¦ļ
à§§à§ ¬
Ġà§¨ à§¯
Ġà¦ª à¦Ľà¦¨
Ġy ou
à¦§ à¦ķ
Ġcom ment
à¦¸ à¦¤
Ġà¦ħ à¦Ļ
( '
à¦Ŀ à¦¤
à¦ª à¦¥
Ġà¥¤ à¥¤
Ġà¦īà§İ à¦¸à¦¬
à¦ĵ à¦¤
Ġà¦ķ à¦·
on t
à¦¨ à¦Ń
à¦ī à¦ķ
à¦°à¦¦ à¦°
Ġ #
Ġà¦ıà¦®à¦¨ à¦ķ
Ġà¦ħ à¦ľ
Ġ1 1
a in
Ġà¦ª à§°
à¦ľ à¦Ł
Ġà¦ıà¦ķ à¦¬
Ġht tp
à¦ļ à¦Ł
Ġ la
à¦· à¦°
à¦Ĺ à¦¬
à¦ĸ à¦Ľ
Ġà¦ĭ à¦£
ĠØ ¹
à¦Ĺ à¦¦
Ġà¦Ń à¦¬
à¦¯ à¦®à¦¨
o s
em ber
d ay
à¦Ĺ à¦¡
Ġà¦Ĳ à¦¤
à¦ĩ à¦ª
Ġa g
Ġ20 20
Ġà¦¤ à¦¤
à¦ĩ à¦¦
Ġà¦ķ à¦£
à§© à§¦
ar y
1 1
à¦¤ à¦Ń
à¦ĸ à¦°
à¦¶ à¦¤
à¦¾ )
à¦¿ .
or t
à§§à§ ª
à§§à§ ©
Ġà¦ı à¦¶
Ġà¦ī à§İà¦¸
-- --
à¦ŀ à¦¤
Ġà¦° à¦¸
r i
o b
Ġà¦¦ à¦«
Ġà¦ĩ à¦ŀ
à¦· à¦¨
à¦¬à¦¹ à¦¨
eng al
Ġà§¨à§¦à§§à§ «
à§« à§¦
Ġà¦° à¦Ļ
Ġ1 9
Ġà¦ļ à¦¨
Ġv i
id e
ou t
à¦Ĺ à¦ķ
u st
Ø ¹
b d
à¦² à¦²
Ġà§ª à§¦
es s
Ġà¦¸ à¦«à¦°
à§ģ -
à¦° à¦ľà¦¨
Ġà¦Ĳ à¦ķ
Ġà¦® à¦ŀ
Ġà¦Ĩ à¦Ł
Ġà¦¸à¦° à¦¬à¦°
à¦¡ à¦²
Ġà¦ĵ à¦Ń
à§° à¦¤
âĢĻ à¥¤
à¦£ à¦®
Ġà¦¹ à¦ł
Ġw ith
à¦Ń à¦¯
Ġà¦ħ à¦¶
Ġà¦ª à¦ŀ
à¦Ł à¦¤
à¦ī à¦¬
à¦ıà¦¸ à¦¸
Ġà¦ľà¦¨ à¦ķ
Ġà¦¦ à¦ĸà¦²
Ġà¦ļ à¦¤
à¦ı à¦ķ
Ġ !
Ġb d
n t
à¦¼ à¦ĥ
Ġà¦Ĩ à¦ĩà¦¸
à¦® à¦ľ
r it
l ine
Ġà¦ıà¦ķ à¦®
à¦¦ à¦¯
à¦¼ -
à¦ĩ à¦¹
n ews
Ġà¦ĩà¦¨ à¦¸
à¦° à¦Ĩà¦¨
Ġp ub
à¦® à¦¹
à¦¸ à¦¡
à¦¸à¦² à¦®
à¦² à¦°
ag e
Ġà¦Ĺ à¦°à¦®
à§¨ à§«
1 2
ct ion
à¦² à¦Ľ
Ġà§§à§¯ à§Ń
Ġà¦ħà¦¥ à¦ļ
à§ĭ -
iv e
à¦¼à§ĩ ,
à¦° à¦®à¦¨
à§İà¦¸ à¦ķ
Ġa s
Ġà¦ıà¦¸ à¦®à¦¯
à¥ ¥
Ġà¦¸ à¦¤à¦°
an t
à¦Ĺ à¦ľ
Ġà¦ī à¦¡
ig ht
à¦ĵ à¦¨
à§ĩ .
Ġp r
Ġà¦¦à¦¶ à¦®
à¦¨ à¦ĩ
o d
à¦¬ à¦Ľà¦°
Ġà¦¬à¦² à¦¬
n d
Ġà¦¸ à¦«à¦²
Ġà¦¸ à¦ŀ
à¦® à¦¡
Ġà¦¤ à¦²
Ġà¦ķ à¦ª
u p
Ġà¦¸à¦® à¦¨
Ġ lo
Ġà¦¨ à¦¨
Ġf r
à¦ķ à¦Ĺ
à¦Ń à¦°
Ġà¦ª à¦¬
Ġà¦Ĩà¦ĩà¦¨ à¦ľ
Ġ1 5
il l
p h
à¦ķ à¦¶à¦¨
à¦ª à¦·
à¦¦ à¦®
u g
Ġà§© à§§
Ġ2 4
Ġh e
à¦ĵ à¦°
v er
à¦ĩ à¦Ľ
Ġà¦ħà¦¸ à¦®
à¦£ à¦¬
Ġà§§à§¯ à§¯
Ġbangla desh
u d
u re
Ġi f
Ġb engal
ĠâĨ ĳ
à¦¬ à¦¬à¦°
à§¦à§¦ à§¦
à¦· à¦ľ
Ù ĥ
Ġpub lish
Ġn ew
à¦¨ à¦¹
Ġà¦¯ à¦¨
a ve
à¦¹ à¦°à¦£
at ed
à¦¤ à¦ª
Ġth is
à¦¥ à¦°
à§¨ à§§
à¦ĩ à¦ī
a h
Ġà¦ĵ à¦·
1 9
ĠØ £
Ġà¦Ĩ à¦¦à¦°
ĠÙ ħ
à¦ħ à¦¨
à¦¨ à¦¬à¦¨
à§ĩ )
à¦£ à¦¨
à¦¸ à¦Ļ
Ġ201 6
à¦¨ à¦¡
* *
Ġà¦¬à¦Ľà¦° à¦ĸ
Ġ à¥¥
Ġà§¨à§¦à§§à§ ª
Ġm ar
Ġth at
à¦Ł à¦ª
à¦² à¦ľ
à¦¹ à¦ľ
o re
it y
à¦¦ à¦Ł
Ġa d
à§¨ à§¨
à§ĩ ...
s h
à¦°à¦¸ à¦Ń
er e
à¦ŀ à¦ª
à ®
à¦ķ à¦Ľ
p e
Ġà¦Ĩ à¦ĺ
Ġà¦ĸ à¦¨
Ġà¦Ĺà¦£ à¦®
Ø§ ÙĦ
Ġà¦¹ à¦¸
à§¨ à§¬
Ġà¦ľà¦¨ à¦¸
Ġà¦ĵ à¦¸
Ġà¦Ĩ à¦ķà¦°
1 7
à¦¦ à¦¦
à¦¼ ?
ic k
Ġ &
Ġà¦ıà¦ĩ à¦ļ
on e
x x
Ù ī
l d
à¦¬ à¦§
Ġre ad
.... ....
à¦īà¦¨ à¦²
Ġà¦ĵ à¦ª
Ġà¦Ĩ à¦ĵà¦¤
Ġà¦Ĺ à¦¨
à¦¡ à¦¸
ĠØ ¨
à¦¸à¦® à¦¯
Ġà¦¬ à¦¸à¦¬
à¦·à¦ķ à¦¦
à¦Ł à¦Ł
Ġà¦ĩ à¦¬à¦¨
p t
i es
Ġà¦ī à¦Ńà¦¯
Ġmo re
on g
à¦Ł à¦¬
Ġà¦ı à¦¯
à¦¨ à¦ľ
à¦² à¦«
Ġd o
à¦® à¦¶
( "
Ġà§§à§¦ à§¦
à¦¡ à¦ķ
Ġà¦ĩà¦ī à¦ª
Ġà¦ī à¦ľ
Ġà¦ļ à¦°à¦®
à¦® à¦Ł
Ġà¦¸ à¦«
Ġà¦ĵ à¦¬
i al
Ġin d
à¤ ¾
Ġà¦¬ à¦ľ
Ġà¦ı à¦ľ
' s
Ġà¦° à¦¶
Ġ1 8
3 0
Ġag o
à¦¨ à¦ª
i z
à¦¼ à¦Ĥ
Ġ1 4
ay s
à¦¬ à¦ľà¦¨
Ġà¦§ à¦°à¦£
Ġà¦Ĩà¦® à¦²
à§¦ à§¯
à§¨ à§©
ĠÙ ģ
Ġà¦ī à¦ķ
à¦°à¦¸ à¦¨
Ġ1 6
s c
à§ª à§¦
à¦ĩ à¦Ĺ
à¦ĺ à¦¨
1 5
à¦ª à¦®
Ø ©
à¦¿ !
Ġà¦ħ à¦Ł
r u
Ù Ĥ
Ġà¦Ĩà¦® à¦¦
à¦¨ à¦¶
Ġj an
à¦£ à¦Ĺà¦ŀ
Ġà¦¨ à¦°
à¦ĺ à¦¦
Ġà¦īà¦ª à¦¦
Ġa re
e e
Ġ: :
Ġ )
Ġà¦ħ à¦¦
Ġà¦ķà¦ĸà¦¨ à¦ĵ
à§¦ à§Ń
Ġà¦Ĩà¦¶ à¦Ļ
en d
1 4
ar d
à¦® à¦°à¦£
Ġà¦¯ à¦¶
à¦ī à¦¸
a c
Ġup d
0 4
à¦°à¦¸ à¦¹
Ġà¦® à¦®à¦¤
Ġ1 3
à§¦ à§®
Ø Ń
Ġà¦ı à¦«
Ġa b
Ġ or
ic e
à¦ıà¦ĩ à¦ļ
Ġà¦ħà¦¬ à¦¦
Ġà¦īà¦¦ à¦¯
s p
?? ??
à§¨ à§Ń
à¥ į
à¦¥ à¦¤
1 6
Ġu s
ht tp
à¦Ł à¦«
Ġà¦īà¦ł à¦²
Ġm e
à¦¼à¦¾ -
oo k
à§¦ à§«
0 9
à¦ļ à¦¤
Ġà¦ī à¦ªà¦¨
at a
à¦Ł à¦ĵà¦¯
or y
0 6
ĠâĢ ¢
Ġm ay
Ġ ra
Ġ1 7
s o
Ġà¦¹à¦¯ à¦°à¦¤
à§¨ à§®
à§¦ à§§
Ġà¦¸à¦¬ à¦ķ
à¦ķ à¦ª
Ġm y
i le
Ġà¦¨ à¦·
am e
Ġà¦² à¦¨
à§¦ à§¬
Ġà¦Ĩà¦¬ à¦¹
Ġà¦ı à¦ıà¦®
à¦¬ à¦®
Ġon line
Ġà¦Ĩ à¦īà¦Ł
0 5
Ġ ex
à¦®à¦¨ à¦¸
à¦¦ à¦£
Ġà¦ĩ à¦¬
Ġà¦¹ à¦°
i b
Ġs o
g et
Ġà¦ı à¦ľà¦¨
à¦Ľ à¦¡
Ġà¦ĵ à¦¦
Ġà¦¹ à¦ľ
Ġ {
lo ad
à¦¬ à¦°à¦£
00 0
ĠØ§ÙĦ ÙĦ
Ġà¦ļà¦² à¦¬
i an
Ġà§¨à§¦à§§à§ ©
Ġv ar
Ġà¦ľ à¦Ł
Ġfr om
Ġà¦ªà¦° à¦°
Ġm in
Ġpublish ed
Ġà¦Ŀ à¦¡
à¦Ń à¦ķ
à¦ķ à¦¡
à¦¡ à¦¬
a z
Ġà§© à§«
à§¦ à§©
a re
Ġà¦¶ à¦«
Ġre p
à¦¬à¦² à¦®
à¦¬ à¦ľ
Ġw or
c on
Ġà¦ķà¦¤ à¦Ł
à§© à§«
Ġà¦ĵ à¦ľà¦¨
1 3
à¦¡ à¦Ń
Ġn ot
à¦ı à¦¬
Ġà¦¬ à¦Ĺ
à§¦ à§ª
Ġà¦Ĩà¦¨ à¦¤
à§¦ à§¨
Ġà¦Ĩà¦ļ à¦°à¦£
Ġà¦¸ à¦¦
al l
2 6
Ġà§¦ à§¯
0 7
à¦¨à¦¬ à¦¬à¦¨
à¦°à¦£ à¦¤
t r
in k
Ġ à§¦à§¦
ĠâĢ Ķ
à¦¸ à¦¸
à¦² à¦Ļ
Ġu n
o y
à¦¹ à¦«
0 8
à¦¿ à¦ģ
Ġà¦ħà¦¸ à¦¹
Ġà¦īà¦ª à¦¯
Ġà¦° à¦¹
Ġà¦Ĩ à¦Ļ
Ġcomment s
à¦° à¦¬à¦°
Ġ2 5
à¦¤ à¦«
Ġà¦¦ à¦¶à¦ķ
Ġà¦¦à¦° à¦ľ
à¦¥ à¦Ĺ
à¦¬ à¦£
§ ³
à §³
Ġà§¬ à§¦
à¦Ĩ à¦ª
00 3
Ġ z
Ġbengal i
Ø Į
" à¥¤
Ġà¦ĩ à¦®à¦°
Ġà¦® à¦¦
à¦° à¦Ĺà¦¤
0 3
it e
Ġà¦īà¦ł à¦¤
à¥¤ âĢĿ
Ġof f
Ġvi ews
à¦® à¦£
ww w
à¦¨ à¦ļ
Ġà¦īà¦ª à¦¹
a ch
à¦Ĩ à¦ªà¦¨
Ġt e
Ġà¦Ĺà¦£ à¦¤à¦¨
à§ĭ ?
Ġà§¨à§¦ à§§à§¨
Ġà¦ª à¦Ł
à¦· à¦ķà¦°
Ġc on
à§ª à§«
à§ĩ ;
f f
a v
Ġde c
Ġà¦« à¦ĸà¦°
Ġà¦Ń à¦ķ
o k
Ġj ul
Ġà¦ı à¦°à¦ķà¦®
Ġà¦Ĩ à¦ĸ
Ġà¦¦à¦² à¦Ł
0 2
à¦Ĺ à¦Ľ
Ġà¦Ĩà¦¤ à¦Ļ
à¦ļ à¦®
( );
à§¨ à§¯
à¦¼à§Ģ ,
our s
à§° à¦£
a st
Ġà¦ĩ à¦ķà¦¬
ow n
Ġà¦Ĩà¦¹ à¦¬
Ġà§§à§¯ à§®
r y
Ġà¦° à¦«
_ _
Ġà¦¸ à¦¬à¦¸
Ġà¦Ĩà¦¸ à¦°
à¦ī à¦®
à¦ľ à¦Ĺ
ail y
an th
à¦® à¦¹à¦¤
Ġà¦ª à¦ł
Ġà¦¸à¦¬à¦¸ à¦®à¦¯
Ù ģ
à¦ķ à¦ļ
2 3
Ġà¦ĩ à¦¸à¦°
Ġà¦ıà¦° à¦ĩ
à¤ °
à¦ĩ à¦®à¦¸
à¦Ľ à¦¦
à¦¾à¦ĥ )
Ġs p
Ġà¦« à¦Ł
Ġà§¦ à§®
Ġal l
" ,
à¦¿à¥¤ âĢĻ
Ġà§¦ à§§
p m
à¦¯ à¦Ł
à¦° à¦Ĺà¦ŀ
g e
à¦¾à¥¤ âĢĻ
2 7
or n
b e
Ġà¦° à¦ļà¦¨
à¦¤ à¦ľ
à¦¨ à¦¸à¦¹
Ġy our
at h
¦ Ĭ
à ¦Ĭ
à¦ķ à¦¯
Ġà¦Ĩà¦« à¦Ĺ
à¦¶ à¦ª
t e
Ġj un
âĢ ¡
Ġ2 3
m l
Ġà¦ķà¦® à¦²
Ġà¦® à¦¶
Ġà¦ķà¦° à¦ª
) {
à¦°à¦¥à¦® à¦¬
à¦¤ à¦Ł
Ġn ov
c l
Ġà¦ĩ à¦Ń
à¦ĵ à¦¸
g le
an k
à¦¾ ...
Ġà¦¡ à¦Ł
Ġm on
à¦¬ à¦Ń
Ġ ro
Ġw as
à¦¯ à¦Ĺ
à¦¸ à¦«
i e
âĢĻ ,
Ġà¦ī à¦°
Ġà¦²à¦ķ à¦¡
2 8
Ġ im
Ġà¦Ī à¦¶
ĠÙ Ĭ
à¦Ńà¦¬ à¦¤
Ġ ;
Ġc an
à¦Ł à¦¸à¦®
à¦¬ à¦Ł
à¦² à¦¶
h rit
Ġà¦ķà¦® à¦ª
¦ Ķ
à ¦Ķ
à§° à§°
Ġap r
à¦¸ à¦°à¦£
Ġà¦ıà¦° à¦¶
Ġà¦¸ à¦«à¦Ł
el l
Ġà¦« à¦¸à¦²
Ġà§Ń à§¦
ed ia
Ġp h
Ġpost ed
Ġà¦ħà¦¨ à¦¨
à¦¬ à¦¡
Ġà¦° à¦¹à¦¸
Ġon e
Ġà¦ª à¦¨
in t
à¦¸ à¦¦à¦¸
Ġs ha
Ġà§¦ à§¨
Ġà¦ªà¦° à¦ĵ
a ck
Ġà§¨à§¦ à§§à§§
à¦¬ à¦¤à¦¨
Ġà¦ĩ à¦«à¦¤
à¦¦ à¦¬
Ġà¦Ĺ à¦ł
Ġà¦¨ à¦ľ
p l
à¦¦ à¦¤
Ġà¦¦ à¦®à¦¨
à¦¤à¦¨ à¦¤
Ġà¦ļà¦² à¦®
Ġn o
à¦® à¦Ĺà¦ŀ
Ġd aily
Ġà§¦ à§Ń
à¦¬ à¦Ĺà¦ŀ
Ġ201 5
Ġà¦ħ à¦¬à¦°
à¦Ł à¦°à¦¸
Ġà¦ħ à¦¯
Ġà¦« à¦°à¦®
à¦Ĩ à¦®à¦°
Ġà¦ķ à¦¨à¦¸
Ġ à¦Ķ
a ce
Ġt r
Ġà§¦ à§¬
Ġà¦¦ à¦®
à§ª à§Ń
à§© à§®
à§« à§«
Ġà¦®à¦¹ à¦²
Ġà¦ħà¦¬ à¦¹
ou nt
Ġ ÙĦ
re ss
Ġà¦Ĩà¦¶ à¦°
âĢĻ -
2 9
à¦Ł à¦¦
h e
Ġà¦ļ à¦®
à¦¹ à¦¯
à¦¶ à¦«
... ]
Ġà§¦ à§©
Ġà¦¸ à¦ľ
an s
Ġà¦¦ à¦ª
' ).
Ġà¦ī à¦ĩà¦¨
Ġà¦® à¦£
Ġà§® à§¦
Ġo ct
Ġà§© à§¬
ð Ł
à¦ľ à¦¦
Ġà§¦ à§«
à§ª à§®
= =
a i
Ġà¦¨ à¦¡
à¦¯à¦¬ à¦§
Ġà¦ī à¦®
Ġà¦ıà¦ķ à¦ķ
Ġà¦Ĩà¦ĩ à¦¡
Ġà§ª à§«
Ġ @
ik e
Ġà¦² à¦®
Ġà¦Ĩà¦²à¦® à¦Ĺ
t o
Ġà¦ļ à¦¡
à§© à§Ń
Ġà¦· à¦¡
Ġ$ (
à¦Ĺ à¦ł
Ġd ate
Ġs a
à§ª à§§
à¦ĺ à¦Ł
à§Ģ âĢĻ
à§© à§¬
Ġà¦ıà¦®à¦¨ à¦Ł
à§© à§¨
or g
à¦° à¦¬à¦¨
à¦®à¦¬ à¦Ļ
Ġd is
à¦ħ à¦°
Ġl at
à¦Ī à¦¦
Ġ2 2
Ġà¦² à¦ľ
Ġ <
Ġà§¦ à§ª
oo d
à¦¶ à¦¯
Ġà§¨à§¦ à§§à§¦
à¦² à¦ĵà¦¯
Ġà¦Ł à¦¨
Ġà¦° à¦ª
Ġ[ ...]
à¦Łà¦ķ à¦®
Ġà¦ķ à¦¬à¦°
à§© à§§
Ġà¦® à¦°à¦¦
ol d
à¦¼ !
Ġt ag
Ġ3 0
Ġà¦« à¦ľà¦²
Ġà¦ľ à¦Ĺà¦¤
as h
Ġm an
Ġà¦Ĩà¦ĩ à¦ª
Ġla st
Ġà¦Ĩà¦® à¦¨
4 4
Ġà§© à§Ń
Ġ2 1
Ġf eb
ap er
c c
Ø ¬
à¦ĸ à¦¯
à¦¨ à¦ľà¦¨
Ġa ug
Ġà¦¸à¦«à¦Ł à¦ĵà¦¯
Ġw e
Ġh ave
à¦Ľ à¦¤
à§© à§¯
Ġà¦ĩ à¦Ł
Ġs y
Ġ qu
p o
Ġà¦¨ à¦ĵ
à¦ī à¦¯
hrit ime
f or
à¦ħ à¦ªà¦°
Ġà¦° à¦®à¦ľ
ĠÙ Ĥ
Ġk al
ir st
m s
Ġà¦®à¦¤ à¦¬
à§© à§©
en s
à§° à¦ķ
http s
i re
Ġà§© à§¨
à µ
lo w
re e
Ġà¦ªà¦° à¦®
Ġhttp s
b n
Ġ à¦Ĭ
Ġà¦ľà¦¨ à¦¤
à¦¥ à¦¬à¦Ľà¦°
3 6
à¦¶ à¦®
Ð °
à¦¿à¦Ĥ ,
à¦¥ à¦®à¦¨
m in
à¦® à¦®
à¦¤ à¦ĩ
à¦¯ à¦ĵ
Ġà¦¸à¦¬ à¦ľ
à¦Ĺ à¦Ĺ
à§Ģ ?
à§ĩà¥¤ âĢĿ
à¦¡ à¦®
à¦¾ /
à¦ķ à¦ĩ
ur l
Ġà§§à§¯ à§¬
as e
Ø £
à¦« à¦¸
k h
Ġà¦« à¦¯
à¦¶ à¦ĩ
Ġà¦¬ à¦ĩà¦¯
ĠâĨ Ĵ
à§ª à§¯
th er
Ġ2 6
5 0
Ġà¦ĩ à¦¹
Ġà¦® à§İà¦¸
a j
m an
la m
à§ª à§¬
2 2
Ø µ
à¦ª à¦¯
ĠâĢ Ļ
Ã ł
Ġà¦ĵ à¦¸à¦®
à¦¬ à¦ļ
b angla
à¦¾ '
Ġà¦ķ à¦¡
ĠÂ «
à¦°à¦£ à¦¯
Ġ2 8
Ġ2 7
u e
it le
à¦Ŀ à¦¡
Ġà¦¦ à¦²à¦ķ
anth o
Ġc o
Ġà¦ĵ à¦ķ
Ġà¦Ĩ à¦ŀ
3 3
à¥¤ à¥¤
ut es
a f
Ġà¦² à¦Ĺ
à§Ģ à¦ĥ
Ġà¦§ à¦°à¦¤
th is
Ġn e
Ġà¦ªà¦¦ à¦¤
à¦ª à¦Ĺ
ĠØ§ÙĦÙĦ Ùĩ
à§© à§ª
im es
à¦°à¦¦ à¦²
Ġv ide
er t
à§« à§¨
Ġupd ated
Ġà¦¬ à¦Ł
Ġs c
à¦¨ à¦ªà¦¤
Ġà¦ªà¦° à¦ĩ
Ġà¦¬à¦¸ à¦¤
Ġd own
à§ª à§¨
à¦¾ ;
à¦¼à¦¾ à¦Ĥ
à¦¬ à¦Ľ
ĠâĢĺ âĢĺ
Ġw ill
à§İ à¦ª
Ġà§¨à§¦à§¦ à§¯
à§« à§¬
à¦°à¦¹ à¦¨
à¦¾ à§ĩ
à§¨à§¦ à§§à§¯
Ġà§© à§®
Ġb ut
à§« à§Ń
âĢĿ à¥¤
d f
r am
Ġà§ª à§®
à¦ļ à¦¬
à¦« à¦¨
à¦£ à¦ķ
Ġà¦ıà¦ķ à¦¸à¦Ļ
à¦ıà¦® à¦ª
Ġjul y
à¦ĥ )
à§« à§®
Ġà¦ļ à¦®à¦ķ
Ġc ont
à§¨à§¦ à§§à§®
!! !!
à¦Ľ à¦¬
Ġà¦¬ à¦ĩà¦Ł
d er
ht ml
Ġà¦® à¦²
4 5
à¦¯ à¦Łà¦¨
Ġ2 00
u y
9 9
ab le
un ction
Ġà¦Ĩ à¦¬à¦°
à¦¼à¦¿ ,
à¦¨à¦¬ à¦¤
Ġh as
à¦ı à¦Ł
à¦ī à¦¤
Ġà¦ħà¦¬ à¦ķ
Ġà¦ķà¦¨ à¦«
Ġà§¯ à§¦
4 8
f t
Ġà¦° à¦ĩà¦²
u ary
. )
à¦Ĺ à¦¸
er k
Ġà¦ļà¦® à§İà¦ķ
Ġà¦¡ à¦Łà¦ķà¦®
à¦® à¦Ľ
a ct
Ġà¦¶ à¦Ļ
Ġà¦¶ à¦ªà¦¥
n o
t ion
à§ª à§ª
Ġà¦¶ à¦¯
Ġà¦¸à¦° à¦ŀ
Ġt w
ul t
à¤ ¿
à¦°à¦¬ à¦²
a a
Ġà¦ľ à¦¹
Ġs ex
à¥¤ [
Ġà¦īà¦ł à¦Ľ
Ġà¦Ĩ à¦¹à¦¸
Ù į
ou ld
à ¸
Ġà¦ķ à¦Ł
c ont
à¦¤ à§°
Ġh ours
à§« à§¯
à¦§ à¦®
Ġf irst
ha k
Ġlat est
Ġà¦¤à¦ĸà¦¨ à¦ĩ
Ġà¦¹ à¦ĩà¦¤
3 5
Ġ201 4
Ø °
Ġà¦ĩ à¦īà¦Ł
à¦ª à¦ļ
à¦¶ à¦¸
Ġà¦¤ à§İà¦ķ
an ce
Ġ2 9
Ġà§« à§¦à§¦
Â ¦
à¦° à¦¥
Ġà¦īà¦ª à¦Ń
Ġs ays
2 1
Ġind ia
Ġjan uary
à¦Ĺ à¦Ł
le ct
à§ª à§©
à¦°à¦§ à¦°
à¦°à¦ļ à¦²
à¦¼ à§Ĥ
Ġà¦¬ à¦ŀ
8 7
à¦ĩà¦¦ à¦¹
à¦ī à¦ª
à¦ī à¦ĩ
o g
Ġà¦Ĩà¦² à¦¹
Ġà¦ĩ à¦ķ
Ġà¦ħ à¦¡
b ook
al ly
à¦¥ à¦¬
Ġà¦¨ à¦Ĺ
à¦° à¦·
à¦® à¦°à¦¤
ĠâĢ Ŀ
à¦¨ à¦¶à¦¨
Ġmar ch
Ġin ter
Ġapr il
Ġrep ly
à¦ĸ à¦¬à¦°
d e
à¦Ł à¦«à¦°
à¦¯ à¦Ń
Ġà¦ıà¦ķ à¦¤
à¦¾. )
à¦Ĩ à¦¬
à¦ħ à¦Ń
4 0
Ġà¦Ĩ à¦ªà¦¤
l l
à¦¿ ...
à¦ķ à§°
Ġà¦² à¦Ļ
Ġà¦ķà¦² à¦®
Ġà¦ĩ à¦ľ
à¤ ¨
Ġà¦¨ à¦Ĺà¦¦
à§« à§ª
" ).
Ġà¦ħ à¦¹
' );
---- ----
c u
w ik
Ġw eb
Ġà§© à§¯
Ġb ang
Ġjun e
à¦ĩà¦¨ à¦¬
à¦¡ à¦ª
Ø «
à¦· à¦Ł
à¦Ĩ à¦°à¦¸
Ġà§© à§©
à¦¶ à¦¦
ig n
Ġnov ember
3 7
Ġ ed
Ġà¦ķà¦° à¦£
3 9
le ment
Ġcom p
à¦ı à¦ķà¦Ł
.... ..
Ġà¦¸à¦® à¦¬
à¦² à¦ļ
Ġà¦ľà¦¨ à¦Ĺ
ub e
à§« à§©
er y
Ġ 01
Ġà¦¶ à¦°à¦£
" :
Ġà¦¬à¦¹ à¦¨
à¦² à¦®à¦¨
à¦§ à¦Ń
Ġà¦Ŀ à¦°
la y
Ġdec ember
ak e
e ar
Ġà¦² à¦ŀ
ĠØ Ń
Ġà¦¦ à¦¤
à¦¦ à¦°à¦¬
v al
4 7
p ro
ĠØ ¥
à¦ľ à¦Ń
iv es
à¦Ľ à¦²
Ġà¦¤ à¦®
à¦¦ à¦«
Ġ201 3
Ġà¦ıà¦¸ à¦ıà¦®
3 8
4 6
ru ary
Ġà¦¸à¦® à¦Ĺ
à§Ģ )
Ġà¦² à¦¬à¦£
Ġà¦¹ à¦ĩà¦¯
âĢ ľ
Ġà¦ªà¦° à¦ªà¦°
l an
Ġà¦¸à¦« à¦²à¦¤
o ber
à§« à§§
à¦¯ à¦Łà¦ķ
Ġà¦ħà¦ª à¦¸
Ġà¦¦ à¦¯
à¥ ĩ
à¦ķ à¦¥
à¦¤à¦¬ à¦¤
à¦· à¦§
5 5
ic h
c o
Ġb log
à¦ĩ à¦ĵ
Ġà¦īà¦ª à¦²à¦¬
à¦Ĩ à¦ľ
r ip
à¦¶ à¦ķà¦°
am p
à¦²à¦¨ à¦ķ
t itle
à¦ª à¦¶
à¦Ń à¦¨
ind ow
Ġk h
Ġà¦¨ à¦ķà¦¶
it s
Ġp ar
à¦¼à¦¿ à¥¤
Ġà¦ĵ à¦°à¦«
à¦¨ à¦Ľ
' ,
e ct
ĠØ ±
ÙĬ Ùĩ
Ġà¦¸à¦¨ à¦¦
à¦¬ à¦Ļ
à¦¤à¦ķ à¦°à¦£
à¦¦à¦° à¦¬à¦¨
) :
Ġà¦ıà¦ķ à¦°
Ġfeb ruary
b y
Ġà¦¬ à¦¦
Ġp e
Ġà¦Ĩ à¦ĩà¦Ł
Ġà§¨à§¦à§¦ à§®
Ġà¦ĵ à¦®à¦°
Ġà¦Ĩà¦ĩà¦¨ à¦¶
il d
Ġaug ust
à¦ī à¦ĩà¦¯
ph p
Ġà¦ĩà¦¨ à¦«
Ġ ðŁ
Ġoct ober
Ġdown load
Ġd es
Ġà§© à§ª
Ġà¦Ĺà¦£ à¦¤
à§¨à§¦ à§§à§Ń
Ġg et
à§ģ '
en ce
à¦² à¦Ĺà¦ŀ
if t
p s
ro w
at tr
Ġà¦Ń à¦Ļ
ou nd
à¦· à¦Ń
Ġà¦Ĩà¦ĩ à¦ıà¦¸
3 00
à¦¨ à§°
Ġab out
Ġ ????
à¦ĩ à¦ľà¦¨
à¦¥ à¦ª
u ck
à¦¹à¦¬ à¦§
Ġà¦¸à¦® à¦ķ
Ġà¦Ĭ à¦°
à¦Ĩ à¦¤
à¦¿ /
Ġà¦ħà¦¬à¦¸ à¦°
à¦ĩà¦² à¦Ł
à§¨à§¦ à§§à§¨
erk antho
Ġà¦¤ à¦¹à¦¬
à¦ıà¦¸ à¦ĩ
pt ember
Ġà¦¦à¦« à¦¤à¦°
4 9
Ø§ Ø
Ġà¦¤ à¦¨
à¦¸ à¦Ĺ
à¦¯ à¦ľ
à ¯
à¦¦ à¦Ĺ
Ġ en
Ġp age
Ġà¦ķ à¦ļ
Ġà¦ħà¦ª à¦¹à¦°à¦£
p er
Ġà¦ıà¦ķà¦¦ à¦®
6 5
Ġà¦ª à¦ľ
Ġà¦īà¦ª à¦ķà¦°à¦£
Ġwh at
Ġl ike
Ġ 00
w id
Ġà¦ıà¦ķ à¦¸
Ġ201 2
Ġkal erkantho
à¦ļ à¦¡
à¦ĵ à¦¡
Ġà§§à§¯à§Ń à§§
Ġ em
Ġà¦īà¦ł à¦¬
Ġà§ª à§Ń
oo gle
à¦Ł à¦Ľ
Ġ Ð
à¤ Ĥ
Ġà¦¯à¦¤ à¦Ł
Ġà¦ĸ à¦²
ĠÂ ·
Ġse ptember
ÙĲ Ùĳ
Ġh er
à¦¬ à§°
à¦°à¦¬ à¦£à¦¤
à¦ķà¦¸ à¦Ń
= "
à¦ĩ à¦¸à¦¬
à¦ľ à¦Ĺà¦ŀ
Ġà¦ıà¦¸ à¦ıà¦¸à¦¸
Ġà¦¸à¦¬ à¦ĩ
Ġ Ì
à¦° à¦¡
h s
k s
Ġc l
à¦ĩ à¦ļ
th e
Ġà¦° à¦¨
à¦ī à¦ļ
Ġà¦ıà¦¤ à¦Ł
h i
, ,
à§ĭ à¦Ĥ
Ġar ch
à§ĭ âĢĻ
à¦ĩ à¦¶
Â »
Ġà¦ķà¦® à¦ªà¦ķ
à¦ī à¦¶à¦¨
Ġà¦ĩà¦ī à¦¸
Ø§ ÙĨ
Ġà¦¶ à¦¤à¦ķ
à¦¿ '
Ġà¦ıà¦ķ à¦¥
Ġà¦ıà¦ķ à¦¸à¦®à¦¯
ou g
Ġà¦ķ à¦«
Ã ±
Ġà¦ħ à¦¬à¦²à¦®
cu ment
à¦¼ .
Ġà¦Ķ à¦·à¦§
Ġà¦² à¦¤
l ang
it ion
Ġà¦ľ à¦²à¦¬
à¦¸à¦® à¦°
Ġà¦¨à¦ĵ à¦Ĺ
Ġà§ª à§¬
à¦£ à¦Ń
à¦ª à¦¬
Ġà¦Ĩà¦ľ à¦ĵ
Ġà§ª à§¯
p aper
Ñ ģ
à¦°à¦ªà¦° à¦ĵ
Ġà¦¬ à§°
ĠØ¹ ÙĦ
Ġm u
ation al
p r
à¦¼ âĢĻ
m ar
Ġà¦ĩ à¦Ļ
à¦¤ à¦¦à¦¨
t w
Ġà¦ľ à¦Ĺà¦¨
à¦¾à¦ģ ,
à¦¦à¦« à¦¤à¦°
à¦¹ à§İ
Ġà¦¹ à¦ĩà¦²
ic al
Ġà¦¤ à¦°à¦«
Ġ out
d s
à¦¸ à¦ĵà¦¯
à¦ĵ à¦®
Ġb o
( )
n er
à¦¬à¦¨ à¦¯
Ġà§ª à§¨
p ort
Ġà¦Ĩà¦¶ à¦ª
Ġà¦¸ à¦²
à¦¬ à¦¦à¦²
Ġc ount
Ġà¦¨ à¦ķ
i o
Ġà¦Ī à¦®
Ġà§© à§¦à§¦
ic s
Ġ- -
in s
ĠâĢ º
à¦² à¦ĺ
n et
Ġà¦ħ à¦ļ
à¦¨ à¦¸à¦®
Ġs er
Ġ \
Ġà¦¡ à¦ķ
Ð ¾
à¦ķ à¦ľ
" +
5 7
à¦¬ à¦Ĺ
à¦¯ à§İ
à¦° à¦ĵà¦¯
5 6
3 4
** **
a u
as s
5 8
à¦ıà¦¸ à¦ª
Ġà¦® à¦ķ
Ġà¦ĩà¦¨ à¦ļ
à¦¯ à¦«
à¦Ł à¦Ń
à¦¸ à¦ķà¦²
à¦ľ à¦Ľ
à¦ı à¦¸à¦¬
Ġh is
l at
Ġp er
à¦¨à¦¤ à¦®
d u
Ġà§« à§«
à¦ıà¦¨ à¦ľ
à¦¤ à¦¶
Ġà¦ĵ à¦²
Ġsha re
Ġ eng
à§¯ à§¯
ĠØ ª
Ġà¦¦à¦² à¦Ĺ
à¦Ĩ à¦Ĺ
Ġt ime
ind ex
à¦ĸ à¦ª
' ;
Ġà¦ĸ à¦¤
Â °
Ġà¦ħ à¦·
à¦² à¦¸à¦¹
Ġsh e
à¦£ à¦¦
à¦Ń à¦¬à¦¨
Ġà¦ħ à¦¬à¦¨
à¥ Ģ
Ġà¦ª à¦¤à¦¨
Ġan y
Ġk n
Ġg r
à¦® à¦£à¦¬
ip edia
Ġà¦ıà¦¤ à¦¦
à¦°à¦¸ à¦°
Ġà¦¸ à¦¸
Ġà¦° à¦«à¦¤
Ġà§« à§Ń
à¦Ĺ à¦ĩ
Ġst ory
5 9
Ġà¦° à¦®
Ġà¦ıà¦¸ à¦Ĩà¦ĩ
for m
Ġà¦ĵ à¦ĸ
Ġà¦¸à¦® à¦Ŀ
Ġà¦« à¦¤
Ġj ust
Ġà¦Ĩà¦¨ à¦¸
Ġà¦Ĺ à¦®
Ø ®
Ġà¦Ł à¦®
Ġà¦Ń à¦¦
re n
à¦¬à¦² à¦¤
Ġà¦¬ à¦¸à¦¨
c ial
à¦Ĺ à¦ª
Ġà¦ī à¦ĩà¦²
Ġto day
m ain
Ñ Ģ
à¦¡ à¦Ł
à¦ª à§°
Ġà§Ń à§«
à¦¤ à¦Ĺ
ÙĦ Ùħ
à§ĭ !
ol k
la ss
(' .
Ġvide o
Ġà¦« à¦ķ
Ġmin utes
Ġwh o
Ġà¦ħà¦ª à¦¶à¦¨
Ġà§ª à§§
Ġà¦ī à¦·
à¦¼ ;
Ġ1 00
à§İà¦ª à¦°à¦¤
à¦ĵ à¦¦
à¦ķ à¦Ĩà¦ª
ace book
3 1
Ġte ch
à¦¹ à¦ķà¦¦
ĠØ µ
it t
Ġb r
à¦ħ à¦¤
à¦² à¦¥
Ġà¦ĩà¦ī à¦ıà¦¨
à¦² à¦ĩ
à¦Ĩ à¦ĩà¦¸
Ġà¦ıà¦ĩ à¦¸à¦¬
à¦Ń à¦Ļ
Ġ Î
Ġà¦®à¦¨ à¦¸
à¦¿) à¥¤
ate g
lo ck
à¦¨ à¦ľà¦Ł
Ġs up
n a
p x
la h
Ġ0 9
ag ra
Ġf e
' '
à °
y a
ul l
Ġp orn
Ġ0 5
Ġà¦ıà¦®à¦¨ à¦ĩ
Ġà¦ıà¦ķ à¦¦à¦²
Ġà¦ĵ à¦¡
Ġs u
à¦® à¦ĵ
à¦¯à¦¬ à¦¦
!! !
à¦® à¦Ļ
Ġà¦¤ à¦¦
Ġre s
Ġà¦ħà¦ªà¦° à¦¦
Ġmon th
Ġc r
c y
à¦Ĥ -
Ġg o
h ar
se hritime
Ø§ Ø¨
Ġw indow
7 8
Ġc ol
Ġupd ate
Ġà¦¸à¦ķ à¦²à¦ķ
Ġà¦ªà¦° à¦¦
is s
Ġà§« à§¬
à¦¤ à¦ļ
Ġa ss
à¦£ à¦°
Ġà¦īà¦ª à¦¸à¦°
Ġà¦ľà¦¨ à¦¨
th or
b o
ĠâĨ Ĳ
à¦ĵ à¦Ł
Ġà¦ĩà¦¨ à¦ľ
Ġthe y
à¦¯ à¦¹
à¦Ĩà¦ĩ à¦¡
a x
- %
est er
Ġà¦ľ à¦¸
Ġg en
Ð ¸
it ter
Ġà§ª à§©
Ġà¦Ľ à¦ķ
Ġb ook
Ġà¦¯ à¦®
Ġà¦Ĩà¦ķ à¦¬à¦°
Ġà¦ĵ à¦Ł
3 2
à¦¼à¥¤ âĢĻ
Ù ĭ
Ġà¦Ĩà¦Ĺ à¦®à¦¨
ÙĦ Ùī
Ġle ave
Ġw ww
Ġd hak
Ð µ
", "
à¦ħ à¦¬
ov er
Ġà¦ıà¦ĸà¦¨ à¦ĩ
Ġà¦ī à¦ĩ
ap p
j p
à¦¿à¦Ĥ à¥¤
Ġ0 8
Ġà§ª à§ª
re at
ot i
Ġp ol
à¦· à¦¸
à¦² à¦ĸ
Ġw ee
Ġà¦¹ à¦ĩ
Ġà¦Ĺà¦£ à¦¹à¦¤
f unction
Ġa f
in a
Ġà¦Ĩ à¦Ń
Ġ0 2
à¦° à¦°à¦«
Ġt imes
Ġà¦¸ à§İ
Ġà¦¹ à¦°à¦¤
à¦°à¦« à¦°à¦®
Ġà¦¨ à¦¥
Ġà¦¨ à¦°à¦®
ĠÙ ĥ
ĠØ¹ÙĦ ÙĬÙĩ
n e
at ch
Ġà§Ń à§§
it ed
Ġà¦¦ à¦£
Ø ´
o c
ind ia
à¦£ à¦«
à¦¤ à¦¸
à¦¡ à¦°
Ġà¦Ĺà¦Ń à¦°
le d
Ġad d
n ext
l h
à§ĩ à¦Ĥ
à¦ªà¦Ł à¦ª
à¦ıà¦¸ à¦Ĩà¦ĩ
t s
Ġà§¬ à§«
Ġà¦Ń à¦Ł
ing s
Ġw rit
à¦¦ à¦ªà¦¤
à¦¯ à¦¶
Ġy ear
Ġà¦Ĺà¦£ à¦ª
à¦Ĺà¦¤ à¦Ń
Ġh ow
ak ing
àµ į
ÙĦ Ø§
cont ent
Ġà¦Ĺ à¦Ļ
à¦· à¦ª
à¦¹ à§°
wik ipedia
Ġarch ives
Ġin st
Ġ0 6
Ġn ow
olk ata
in ter
à§İ à¦ªà¦°
à¦°à¦¹à¦£ à¦¯
m e
Ġ à´
\ "
Ø ¶
à¦ĵ à¦¬
à¦ĵ à¦ķ
Ġ0 7
Ġs ome
Ġcom m
Ø³ ÙĦÙħ
ar ch
Ġà¦ĩ à¦¦
so le
à¦¶ à¦ķà¦¦
à§Ĥ à¦ģ
Ġ201 1
Ġà¦¶ à¦ª
Ġwor ld
ar ticle
Ġà¦¨ à¦ķà¦²
ĠÂ ©
Ġs un
Ġ our
Ġà§« à§¨
Ġâ Ĺ
Ġà¦¬ à¦¦à¦°
Ġf ree
à¦ıà¦¸ à¦ıà¦«
Ġs ub
lh et
w e
h am
201 8
id in
op le
Ġà¦ıà¦¨ à¦ľ
Ġà¦ıà¦ĩ à¦Ł
t ime
à¦ħ à¦ķ
Ġà¦§ à¦¸
w or
Ġà¦§à¦° à¦²
à¦² à¦ĵ
à¦¼ )
à¦Ī à¦®
Ġ Ã
à¦ħ à¦ª
à¦ŀ à¦°
Ġà¦ľ à¦ľ
Ġà¦Ĩà¦ª à¦²
lan ews
at ure
Ġà¦Ĺ à¦ľ
if e
Ġà¦¤ à§İà¦ªà¦°à¦¤
Ġ0 3
à¦² à¦Łà¦¨
f ind
à§¬ à§¦
à¦ļà¦¨ à¦ķ
8 0
Ġp ort
r hs
Ġà¦Ĩà¦ľ à¦®
à¦¾ ]
Ġà¦¬à¦° à¦Ĺ
Ġsa id
ul ar
old id
Ġf ig
Ġtag s
Ġis t
Ġà¦°à¦¹à¦® à¦¤
ro ll
Ġà¦¸ à¦¶à¦¸
Ġà¦ĭ à¦¤
] [
9 5
à¦°à¦¹à¦£ à¦ķ
Ġà§« à§®
Ġà¦Ł à¦ª
Ġà§¨à§¦à§¦ à§Ń
Ġà¦ªà¦° à¦ķ
à¦ĸ à¦£
Ġ ent
vi ew
à§ģ à¦Ĥ
Ġis lam
Ġà¦Ĩ à¦ĸà¦¤
Ġ0 4
ĠÙĪ Ø³ÙĦÙħ
Ġà¦¹ à¦Ł
Ġà¦¬ à¦¸à¦²
Ġb uy
Ġ} );
ĠØ ³
à¦® à¦ŀ
à¦¬à¦ķ à¦ķ
p re
Ġp art
à¦ī à¦¥
Ġà¦¹ à¦ĩà¦¬
Ġl i
9 7
al e
Ġ id
ad ing
Ġà¦¬ à¦ī
à¦® à¦ĺà¦Ł
Ġk olkata
b le
........ ........
Ġx xx
u al
Ġà¦ķ à¦¬à¦²
Ġà¦¨à¦ľ à¦°à¦¦
Ġb re
à¦¦à¦¨ à¦ķ
Ġ3 1
ad e
Ġà¦ĸ à¦£
Ġd ays
Ġà¦ĩà¦¨ à¦ķ
à¦¿ ;
Ġà¦ķ à¦¨à¦Ł
Ġà¦¨ à¦°à¦¸
lo c
i er
__ __
Ð º
à¦· à¦Ĺ
à¦¼à§Ģ à¥¤
à¦Ī à¦¨
an i
à¦ĩà¦¸ à¦Ļ
m ed
Ġa u
âĢ ²
Å ĵ
Ġà¦Ł à¦ķ
Ġà¦Ľ à¦¨
à¤ ķ
Ġa cc
6 0
p ress
f er
t ext
Ù Į
Ġà¦ħà¦ª à¦®
à§ĩ âĢĶ
Ġh el
à¦¹ à¦ķà¦°
6 7
ro y
Ġ q
à¦ĥ :
201 9
Ġà¦¨ à¦ĩ
Ġà¦Ĩà¦ľ à¦¹
Ġà¦ĵ à¦¨
ĠÎ ¿
à§Ģ !
à¦Ĩ à¦ĩà¦¨
) -
Ġa ct
m o
Ġà¦ªà¦° à¦¸
Ġe v
à§¨à§¦ à§§à§¬
à¦¿à¦Ĥ -
or s
Ġà¦ĵ à¦®
Ġbang lanews
e lement
Ġà¦ħà¦¬à¦¨ à¦¤
Ġre l
Ġpe ople
à¦² à¦¹
m y
Ġà¦Ń à¦°à¦¸
à¦ĥ -
Ġnews paper
.. ...
à¦¬à¦¸ à¦®
Ġà§¬ à§ª
4 3
Ġà¦¬à¦° à¦ĸ
Ġà¦ħà¦ª à¦¬
à¦£ à¦ª
y le
Ġà¦ħà¦¤ à¦ıà¦¬
201 7
à¦° à¦Ļ
Ġà§§à§« à§¦
Ġu r
à¦¬à¦¨ à¦ķ
Ġà§« à§¯
Ġà¦· à¦·
Ġà¦¬ à¦¶
à¦°à¦ļ à¦£
à¦ª à¦ª
ester day
à¦ħ à¦¸
Ġà¦ĩ à¦īà¦ľ
f o
om oy
4 2
à¦Ĺ à§°
Ġkn ow
Ġà¦Ĩ à¦ĩà¦¯
Ġy esterday
à¦§ à¦Ł
Ġà§Ń à§¨
à¦¶ à¦ĵ
Ġh ere
ation s
l es
Ġmo b
b p
à¦°à¦¦ à¦¤
à¦¨ à¦«
Ġà¦¸à¦¬ à¦Ĺ
Ġdo cument
Ġre c
on d
Ġà¦ĺà¦Ł à¦Ľ
Ġà§§ à§¨à§¦
ir l
wid th
4 1
' t
Ġh o
à¦£ à¦¯
à§¨à§¦ à§¨à§¦
à¦°à¦¤ à¦ķ
Ġà¦Ĩà¦Ł à¦Ł
iz e
à¦°à¦¹ à¦°
Ġs at
Ġth ere
Ġà¦ī à¦¹
Ġà§¬ à§®
u k
Ġà§« à§§
re d
à¦ĵ à¦Ń
Ġà¦² à¦¸
Ġbd st
à¦® à§°
à¦Ĩ à¦īà¦Ł
Ġà¦ľà¦¨à¦Ĺà¦£ à¦ķ
à¦¬ à¦¦à¦¨
a w
on line
à¦¬ à¦ªà¦¨
b el
Ġd r
Ø ²
Ġà¦¥ à¦ķ
le ase
s ha
us h
à¦® à¦ĩ
Ġl ink
à§ĩ '
p ur
at ing
Ġà¦Ń à¦Ĺ
à¦¤ à¦°à¦ķ
1 00
à¦ķ à¦«
Ġe ver
cl ick
bangla desh
Ġà¦Ĺà¦£ à¦¸
Ġj ob
à¦¾ âĢĿ
à¦°à¦ļ à¦°
d ata
Ġà¤ ķ
à¦Ĩà¦ĩ à¦ª
à¦ĵ à¦ª
à§¨à§¦ à§§à§§
ic t
Ġg oogle
Ñ Ĥ
t a
Ġà¦ľà¦¨ à¦ķà¦¨
à¦¦ à§°
à§± à¦¸
ar m
à¦ļ à¦¶
à¦°à¦¨ à¦Ĺà¦°
Ġs et
Ġà§¬ à§Ń
Ġt ra
Ġà¦ĩ à¦¸à¦®
b s
( ){
à¦ĩ à¦ĵà¦¯
Ġa v
à¦¶ à¦ĸ
Ġà¦ķà¦® à¦¬
à¦ł à¦¤
à¦Ĥ ,
ig h
Ġch e
ip s
à¦Ĩ à¦¦
Ġdhak a
Ġà¦ĺà¦Ł à¦²
à¦°à¦ķ à¦°
Ġà¦ĺ à¦¡
à¦ĸ à¦®
à¦¾à¥¤ âĢĿ
Ġà¦Ĩà¦° à¦®
z e
Ġà¦§ à§°
à¦¸ à¦ĵ
re f
Ġà§¬ à§¬
à¦Ŀ à¦ĸ
à¦ķ à¦ĵ
à¦¡ à¦Ĺ
à¦²à¦ª à¦®
Ġà§« à§ª
Ġà¦¦ à¦°à¦¬
Ġch oti
à¦°à¦® à¦§
f ul
à¦¶ à¦ľ
Ġà¦ī à¦Ĺ
re nt
à¦¬à¦ķ à¦¦
Ġs ong
à¦· à¦ĩ
Ġ à¦ĥ
= '
sc rip
Ġ" "
Ġs pe
Ġà¦¸à¦¹ à¦ķà¦°
Ùı Ùĳ
à¦¶à¦¨ à¦ķ
5 4
à¦Ŀ à¦²
à¦ª à¦ľ
à¦Ń à¦¸
} }
Ġ" +
à¦Ĺ à¦ĵ
Ð ½
Ġg u
Ġà¦ĩà¦ī à¦ıà¦¸
an n
à¦¼ ...
Ġà¦Ĺà¦£ à¦¨
Ġv is
Ġà¦¢ à¦²
8 8
à¦Ļ à¦ļ
Ġà¦Ĩà¦ĩ à¦«
Ġà¦ı à¦®à¦¬
Û Į
k e
Ġvi agra
t y
on s
Ġà¦ĩ à¦ľà¦¤
à¦¤ à¦ĵ
à¦ı à¦ĸà¦¨
ÙĬ ÙĨ
a ut
art ime
ik roy
Ġà¦° à¦ĵà¦¨
Ġà¦ī à¦¸
5 2
Ġà¦¸ à¦°à¦¦
i x
Ġà¦° à¦ŀ
5 3
Ġà¦ıà¦¡ à¦Ń
Ġmob ile
Ġse hritime
Ġà¦ª à¦ª
Ġà¦¬ à¦ĩà¦®
Ġà¦¸à¦® à¦¤
Ġd iv
Ġà¦¶ à¦Ł
Ġà¦¬ à¦°à¦£
à¦Ļ à¦¨
ur n
Ġà¦¶à¦¤ à¦Ń
à¦¬ à¦°à¦¤
Ġà¦² à¦°
à§« à§¦à§¦
Ġh im
à¦· à¦¬
Ġà§¨à§¦ à§¦à§¦
à¦¼à¦¾ âĢĻ
Ġc or
à¦ĩ à¦¸à¦²
à¦ħ à¦§
à§İà¦¸ à¦ķà¦°
à¦ľ à¦ķà¦°
Ġà¦ĵ à¦¹
": "
Ġo p
à¦ľ à§°
Ġa c
Ġà¦¨à¦¬ à¦®
à¦·à¦ķ à¦ķ
Ġau thor
Ġu nd
g b
es e
at er
ÙĪ Ø§
5 1
Ġb est
à¦Ĺà¦ľ à¦ªà¦¤
Ġa h
az ar
à§® à§¦
Ġu l
Ġà¦ĺà¦Ł à¦¤
se lect
à§¨à§¦ à§§à§«
el y
à¦Ł à¦ĵ
à¦ĩ à¦ĸ
ion s
à¦·à¦ķ à¦¤
s y
Ġd ay
a ir
t op
b r
Ġw est
en ews
o ff
art a
Ø ·
con sole
à¦°à¦® à¦¶
à¦Ĺ à¦«
Ġà¦« à¦²à¦¨
à¦Ĩà¦ĩ à¦ľ
Ġà¦Ĩà¦Ĺ à¦¤
in ner
ã ģ
n g
is m
à¦ª à¦ķà¦²
à¦¨à¦¸ à¦Ń
Ġwh en
an a
Ġà¦ļà¦² à¦²
6 6
Ġà§« à§©
Ġà¦ķà¦¨ à¦Ń
Ø§ Ø±
Ġgen er
Ġ5 0
à¤ ¬
or ies
à¦§ à¦°à¦¨
à¦® à¦¸à¦®à¦°
Ġà¦¸ à¦ļà¦²
?? ?
à¦ĩà¦Ł à¦¸
get element
Ġal so
Ġa w
à¦ıà¦¨ à¦ı
Ġà¦Ł à¦¯
Ġg ood
Ġà¦ħ à¦®à¦°
b ad
à¯ į
à¦¼à¦¾ )
at es
Ġà§ª à§¦à§¦
Ġf acebook
Ġà¦īà§İ à¦ķ
b f
Ġà¦ıà¦ķ à¦¶
à¦Ĺà¦ł à¦¨à¦Ł
Ġà¦ī à¦¬
Ġo ver
am il
Ġh d
Ġà¦ħà¦¬ à¦§
Ġs ch
à¦ı à¦ª
ÙĪ ÙĦ
Ġà¦Ł à¦¸
Ġà¦² à¦Ĺà¦¤
Ġà§Ń à§Ń
à¦ķ à¦¸à¦¹
Ġà§¬ à§¯
Ġà¦ıà¦ĩà¦ļ à¦ıà¦¸à¦¸
] ,
g r
Ġà§¨à§¦à§¦ à§¬
$ (
Ġph ot
Ġà¦ľ à¦Ĺ
Ġà§Ń à§®
Ġà¦Ĩ à¦«à¦°
Ġà¦ĩ à¦¶
à¦¼à¦¾ à¦ĥ
oug h
à¦°à¦£ à¦ķ
Ġth ank
Ġà¦ıà¦ķà¦ĩ à¦Ń
m m
Ġap p
Ġ log
à¦ķà¦¸ à¦ĩ
Ġà¦ħà¦² à¦°
à¦¨à¦¸ à¦Ļ
b engal
Ġpr at
Û ¡
Ġà¦ªà¦°à¦ªà¦° à¦ĩ
Ġà¦ķà¦® à¦¤
Ġà¦ī à¦ĸ
à¦Ĩ à¦¸
l ist
Ġf il
b ar
Ġ el
b lock
Ġà¦¬à¦° à¦«
à¦° à¦ļà¦¨
Ġà¦ľà¦¨ à¦¸à¦Ń
Ġà§¯ à§¯
Ġh ot
u c
à¦ª à¦Ĺà¦ŀ
ur rent
Ġà¦¶ à¦¸
9 0
od y
à¦ļ à¦ľà¦¨
à¦® à¦Ń
(' #
Ġà¦Ĩà¦Ĺ à¦·
Ġà¦Ń à¦²
Ġà¦ıà¦ķà¦ľà¦¨ à¦ķ
s ite
Ġà¦ħà¦¬ à¦®
by id
à¦¯à¦® à¦¯
Ġà¦® à¦°à¦¹
Ġà¦ļ à¦ķà¦°
iv ers
à¦¬ à¦ĵ
getelement byid
Ġ> >
d o
( ).
Ġh ad
à¦Ł à¦ĸ
à¦ıà¦¨ à¦¸
Ġà¦ıà¦ķ à¦¨
à¦¸à¦¨ à¦ķ
c re
Ġà§¨à§« à§¦
Ġà¦° à¦ļ
, "
à¦ľà¦¨ à¦¶
Ġà¦Ĩà¦¨ à¦²
à¦² à¦¡
à¦¨ à¦Ĩà¦®
Ġà¦ĩà¦ī à¦ķ
Ġ ]
à¦ĩà¦Ł à¦Ł
à¦ļ à¦°à¦£
Ġà¦¹à¦ľ à¦°à¦¤
à¦§ à¦ķà¦¤
à¦Ĩ à¦°à¦Ł
à¦¬ à¦ªà¦¤
Ġf uck
à¦ı à¦®à¦¨
à¦¥ à¦ķà¦¦
Ġà§¨à§¦à§¦ à§§
n c
à¦ľ à¦¡
à¦¹ à¦Ń
? âĢĻ
Ġà¦¸à¦° à¦²
à¦ĩà¦ķ à¦®
à¦¾âĢĻ à¥¤
Ġeng lish
9 8
à¦ľ à¦ĵ
7 7
Ġ à®
à¦ķ à¦²à¦¨
à¦¹à¦¤ à¦¦
/ -
em ent
à¦ľà¦ª à¦¥
Ġthe ir
Ġs m
j ob
xx xx
Ġà¦ıà¦ķ à¦®à¦¤
Ġb ar
b ut
à¦ķ à¦ľà¦¨à¦ķ
Ġport al
à¦Ľ à¦ª
à ª
à¦¼à¦¿ à¦Ĥ
6 8
Ġla bel
Ġà¦¯à¦¤ à¦ĩ
Ġn ame
t al
ot e
à¦¯à¦® à¦ķ
Ġà¦¨à¦¬ à¦¬à¦°
Ġà¦ķ à¦®à¦¨
à¦¯ à¦°à¦ķà¦®
Ġwor k
d iv
Ġsy lhet
2 00
== ==
b t
g ed
select or
à§Ń à§¦
à¦ĺ à¦®
à¦® à¦ĺ
f i
Ġmo vi
y s
Ġà¦¤ à¦«à¦¸
Ġà¦« à¦°à¦¹
201 6
Ġà¦Ĩà¦¬ à¦¶
Ġà¦ķ à¦Ń
ir c
à¦¸à¦Ń à¦¬à¦¨
Ġthe m
sc roll
Ġpublish er
Ġà¦° à¦¤à¦¨
n ew
r c
Ġà§Ń à§¬
inner html
Ġp l
al o
à¦ļ à¦Ĺà¦¡
Ġmo d
à¦ķ à¦®à¦¤
Ġt v
à¦£ à¦¹
Ġprat idin
à¦¥ à¦Ń
à¦Ĺ à¦ªà¦¤
à¦°à¦¬ à¦¤
ad er
Ġà§® à§«
Ġm d
Ġà¦ķ à¦ĩ
Ġà¦Ł à¦Ļ
Ġà¦ĸ à¦¸à¦¡
à§± à§°
Ġo ther
Ġwh ich
Ġà¦ĩà¦¨ à¦Ń
Ġà¦Ĳ à¦¶
e p
t v
Ġà¦Ĩà¦ĩà¦¨ à¦Ĺà¦¤
h o
Ġ201 0
à¦Ĩ à¦¯
t on
à¦¿à¥¤ âĢĿ
c i
he ight
à¦· à¦¦à¦°
ÙĪ ÙĨ
Ġà¦¬ à¦£
à¦ĸ à¦¸
Ġaf ter
l ink
t ar
à§° à¦¹
Ġà¦¤à¦ĸà¦¨ à¦ĵ
, .
m a
Ġw ould
l ic
à¦¶ à¦ķà¦¤
Ġà§® à§®
à¦ıà¦® à¦ĩ
à§Ń à§§
Ġbe en
Ġà¦¦à¦¶ à¦Ł
à¦īà¦ľ à¦Ł
Ġà§§à§ª à§¨à§¬
à¦¯ à¦®à¦¤
Ġà¦ª à¦Ļ
à¦¬ à§İ
à¦°à¦¤ à¦²
Ġà¦¤ à¦°à¦²
à¦ľ à¦īà¦¦
id d
re ad
al th
à¦ľ à¦¹
is e
à¦īà¦ľ à¦ķ
Ġà¦Ĩà¦¹à¦¤ à¦¦
Ġà¦ľ à¦ĸà¦®
n ame
Ġâ ĸ
Ġà¦ı à¦°à¦®à¦§
à¦ª à¦¶à¦¨
Ġà¦¯à¦¤ à¦¦
ag es
Ġà¦¶ à¦ĵ
at t
o ol
j ect
à¦®à¦¨ à¦ĩ
h an
ĠâĢ ł
Ġà¦®à¦¤ à¦ĩ
Ġà¦® à¦®
Â ¤
Ġà§¬ à§¨
Ġà¦ĩà¦¨ à¦¡
à¦¾ "
à¦¸ à¦«à¦Ł
à¦¦à¦ķ à¦¦
à¦° à¦ŀ
Ġal lah
Ġà¦ĩ à¦ª
i y
ar n
à¦¸ à¦¯
Ġà¦Ľ à¦¤
Ġà¦Ĩà¦² à¦¤
Ġà¦¨à¦¬ à¦ľ
Ġk e
Ġad min
ĠÙ Ĩ
Ġà¦ķ à¦¸
à§İà¦¸ à¦°
à¦¯ à¦ķà¦²
Ġà¦¶à¦ĵ à¦ķà¦¤
à¦īà¦¨ à¦¸
Ġà¦ĩà¦īà¦ıà¦¨ à¦ĵ
à¦ıà¦® à¦ľ
à¦² à¦§à¦¨
Ġs al
Ġà¦Ŀ à¦Ĺà¦¡
Ġà¦īà¦ª à¦®à¦¹
a e
c es
à¦® à¦¸à¦¹
es day
à§ĩà¥¤ [
Ġto p
à§° à¦®
Ġà¦ıà¦ĩ à¦¬
ap tion
à§İà¦¸ à¦ķà¦¦
Ġà¦¸ à¦ĸ
Ġmo st
r ight
à§§à§¯ à§¯
Ø ¥
Ġà¦¶à¦¤ à¦ķà¦°
Ġà¦® à¦Īà¦¨
Ġb ack
Ġp aper
Ġà¦¬ à¦®
Ġà¦ıà¦ķ à¦ĩà¦¸à¦Ļ
à¦ıà¦¸ à¦ıà¦¸
in al
à¦ķ à¦Ĺà¦ŀ
f ont
Ġà¦° à¦¤
Ġà¦® à¦ĩ
n al
à¦®à¦ķ à¦°à¦£
Ġà¦ĸ à¦¨à¦¨
Ġever y
< /
à¦Ĩ à¦ķ
Ġà¦ķ à¦Ļ
à¦ıà¦® à¦¬
à¦¤à¦° à¦ª
à¦¹ à¦¹
à¦² à§°
à¦ł à¦ª
Ġb h
à¦Ŀ à¦¬
d is
6 9
Ġà§® à§¬
Ġund er
or d
à¦°à¦¬ à¦£
à¦¬à¦° à¦¦
Ġs am
Ġl ife
Ġà¦ľà¦¨ à¦¸à¦®
à¦°à¦¸ à¦¬
à¦Ĩ à¦°à¦¬
ĠÙ ĩ
à¦ªà¦ķ à¦Ń
à¦ĩà¦¨ à¦¸
Ġse con
à¦²à¦ķ à¦¦
à¦ŀ à¦¦
ort s
Ġà¦¸à¦¹ à¦¸
Ġg ol
à¦Ĩà¦ĩ à¦¬
à¦¨ à¦ľà¦¨à¦ķ
Ġà¦Ĩà¦ĩ à¦ľ
Ġà¦¸à¦¤ à¦¤
p y
Ġone india
à¦Ń à¦°à¦¶
Ġur l
Ġth en
un g
à¤ ²
Ġw ant
Ġind ian
Ġb ig
v ed
Ġà¦ªà¦° à¦¤
00 00
à¦¯ à¦ľà¦¨à¦ķ
à¦¡ à¦«
o f
Ġd on
à¦¨ à¦°à¦¤
Ġà¦Ĺ à¦¦
Ġà¦Īà¦¦ à¦Ĺ
Ġst ud
Ġs ite
Ġà¦¹ à¦ľà¦®
Ġà¦¬ à¦Ľ
Ġà¦Ĩà¦¸ à¦ķ
Ġà§¬ à§§
Ġ `
Ġv ery
Ġà¦ıà¦ķ à¦ªà¦°
it al
Ġà¦Ĺ à¦¯
Ġà¦° à¦ĵ
bengal i
Ġg irl
f ile
à¦Ļ à¦²
od e
Ġ er
à¦« à¦ķ
à¦ķ à¦¹
Ġm us
t d
à¦ı à¦¡
ar i
r ic
Ġà§¬ à§©
à¦¿) ,
à¦¯à¦Łà¦ķ à¦¦
log y
Ġs k
à¦¬ à¦ķà¦°
Ġà¦Ĩà¦« à¦¸
à¦° à¦ĺ
Ġà¦¨ à¦ĵà¦¯
Ġà¦ĩ à¦¡
Ġb et
à¦®à¦¨ à¦Ł
à¦ĺ à¦²
à¦ıà¦¸ à¦ıà¦®
s et
à¦ĸ à¦Ł
Ġà§¯ à§¬
Ġse e
Ġà¦Ĩà¦¸ à¦®
ha b
it or
Ġà¦ľà¦¨ à¦Ĺà¦¨
Ġvi ew
Ġc le
à¦¹ à¦¦
à¦ĩà¦ľ à¦¡
Ġd el
Ġà¦ıà¦¸ à¦ª
à¦¾ âĢĺ
scrip t
Ġà¦¸à¦¬ à¦¶
on y
Ġà§¨à§¦à§¦ à§ª
à¦¼à§ĩ -
Ġc ar
Ø§ Ùħ
re en
Ġbre aking
Ġà¦¹ à¦°à¦®
à¤ ¦
i ed
à¦§ à¦¹à¦¯
Ġh igh
sp an
Ġre g
à ²
à§ĭà¥¤ âĢĻ
à§ģ à§ģ
à´ ¾
à¦¯ à¦°à¦¤
à§¨à§¦ à§§à§©
Ġà§® à§Ń
Ġus d
à¤¾ à¤Ĥ
à¦Ł à¦¹
Ġà¦ķ à¦¦
th ing
à¦¦à¦¨ à¦¶
Ġr ight
ro id
Ġà¦ħà¦¬ à¦¤
Ġà¦ĸ à¦°
à¦Ł à¦¸à¦¹
Ġà¦¤ à¦¤à¦ķ
à¦ļ à¦¸
s er
Ġà¦¸ à¦ĩ
à¦¶ à¦¸à¦¹
Ġà¦ħà¦¨ à¦¶à¦¨
à§¨à§¦ à§§à§¦
à¦¦ à¦īà¦²
if ic
Ġà¦Ĩ à¦ł
Ġà¦¹ à¦¨à¦¨
Ġà§¯ à§®
Ø§Ø ¡
b b
Ġà¦¨ à¦¬à¦¨
à§İ à¦¸à¦¬
Ġà¦ķà¦ĸà¦¨ à¦ĩ
Ġà§¨à§¦à§¦ à§«
po st
Ġà§Ń à§¯
i i
Ġun ivers
Ġse p
Ġà¦ķà¦¬à¦° à¦¸
Ġweb site
Ġ} ,
b log
à¦¬à¦ľà¦¨ à¦¦
à¦ħ à¦«
à¦ıà¦¨ à¦ıà¦¸
' )
Ġmonth s
Ġn a
Ġà¦ªà¦¥ à¦ļ
Ġser v
Ġb l
Ġà¦ĸ à¦¡
Ġst r
à¦¦ à¦¹
à¦¤à¦° à¦¨
p ad
Ġà¦¸ à¦¯
à¦§ à¦¦
-------- --------
Ġà¦Ĩà¦¨ à¦¬
Ġà¦Ĺà¦£ à¦§à¦°
our ce
Ġ$ ('.
Ġà¦ı à¦¹
Ġà¦ĺà¦Ł à¦¬
Ġit s
Ð »
à¦īà¦ª à¦ľ
(" #
ut e
Ġp ers
Ġw ed
Ġà§¯ à§«
l and
à¦Ĩ à¦¶
Ġhel p
ert ain
Ġb la
v ide
Ġp lay
à¦° à¦ªà¦ķ
Ġs l
Ġà¦¯ à¦¤à¦ķ
f il
Ġf ri
à§° à¦¯
à¤ ®
Ġe ur
Ġf ull
le t
n ational
à¦§ à¦¸
Ġà¦Ĺ à¦¤à¦¬
Ġà¦ıà¦¸à¦ıà¦® à¦ıà¦¸
Ġà¦ıà¦¨ à¦¡
Ġs ay
à¦¾ ),
à¦Ń à¦ľà¦¨à¦ķ
à¦°à¦¶ à¦¸
lo p
Ġc ateg
Ġà§¯ à§Ń
Ġlo ok
Ġj o
à¦Ĺ à¦°à¦£
Ġ %
m ail
à¦ĩà¦² à¦«
: '
h y
7 0
Ġà¦Ĺà¦£ à¦Ńà¦¬à¦¨
à§¨à§¦ à§§à§ª
ĠØ ¬
Ġà¦® à¦«
à¦Ĩ à¦ĩà¦¯
n s
Ġà¦Ľ à¦²
f a
à§ĩ âĢĿ
et ail
8 6
Ġb an
] .
c lass
à¦ıà¦¸ à¦¡
à¦Ń à¦°à¦¯
Ġà§Ń à§©
Ġà¦Ł à¦¹à¦²
Ġmar k
Ġà¦ħ à¦ļà¦²
Ġà¦¸à¦® à¦®
Ġà¦ıà¦ķ à¦ª
Ġà¦ľà¦¨ à¦ªà¦¦
à¦¥ à¦¦
à¦Ł à¦ķà¦Ł
g ram
Ġgol po
ã ĥ
à¦¯ à§°
Ġm p
Ġ ..
à¦°à¦¸ à¦®
Ġà¦ļ à¦²à¦¨
Ġà¦¦ à¦¸
Ġf unction
à¦²à¦¤ à¦²
+ ]
Ġa k
â Ļ
jp g
à¦ĵ à¦¹
Ġra j
s w
à¦£ à¦ĺ
d d
Ġà¦ľà¦¨ à¦¬à¦²
Ġà§¬ à§¦à§¦
t ing
Ġà¦ħà¦¸ à¦¨
ild ren
Ġà¦¸à¦¹ à¦¸à¦Ń
Ġà¦ıà¦°à¦ªà¦° à¦ĩ
Ġà¦ª à¦¹
à¥¤ "
Ġ[ +]
à¦¯ à¦ľà¦¨
Ġm ed
l ive
Ġl ist
b ikroy
Ġà¦ı à¦ıà¦«
in st
Ġà§® à§¯
à¦¦ à¦Ĺà¦ŀ
Ġ ~
à¦¸ à¦ªà¦¤
Ġ !!
c ent
Ġà¦ľà¦² à¦ª
Ġà¦¸ à¦°à¦¬
à¦Ľ à¦Ł
Ġà¦® à¦¤à¦¨
Ġà¦Ł à¦°
ial is
f ore
Ġà¦° à¦£à¦¬
p lay
9 6
Ġu se
Ġà¦¸ à§°
Ġst art
Ġra h
Ġà¦¬ à¦§
d ow
id ent
Ġà¦ıà¦ķ à¦¯
à¦°à¦¤ à¦°
ow er
Ġà¦¦ à§°
Ġà¦Ł à¦²
le ction
à§Ń à§«
Ġà¦Ĺà¦£ à¦ªà¦°
Ġw om
Ġà¦Ĩ à¦ĩà¦ķ
Ġà¦ķà¦® à¦Ľ
à¦®à¦¦ à¦ª
c ess
à¦¹ à¦Ł
à¤ µ
ar s
Ġg bp
Ġc ialis
Ġin form
p a
Ġà¦Ĩà¦Łà¦ķ à¦ķ
d ate
à¤ ¤
min utes
à¦°à¦¥à¦® à¦¤
Ġam ar
ĠØ§ÙĦ ÙĨ
as y
Ġà¦ĸà¦¬à¦° à¦Ł
à¦¿ âĢĿ
Ġle d
à¦¬à¦¸ à¦Ł
Ġà¦¶ à¦¶
à¦¹à¦°à¦£ à¦¸
Ġm ess
à¦¤ à¦¬à¦°
à¦¦ à¦ĵ
Ġà¦® à¦ĵà¦¦
Ġà¦¬ à¦¬
à¤ ¶
Ġà¦¦à¦° à¦ªà¦¤
Ġà¦ıà¦®à¦¨ à¦Ń
Ġà¦¬ à¦ķà¦°
ĠØ ´
ĠØµ ÙĦÙī
Ġà¦Ĩà¦ķ à¦¸
Ġt its
à§ĩâĢĻ à¥¤
à¦§ à¦¶à¦¤
Ġch ar
à¦ł à¦¶
dow nd
Ġà§Ń à§ª
downd ate
Ġs ur
Ġl ive
Ġà§§à§¯à§¯ à§¬
Ġm ake
Ġà¦¦ à¦¨
Ġon ly
Ġà¦ĩ à¦¶à¦¤
Ġcount downdate
à¦¿ ]
Ġà§® à§¨
201 4
? âĢĿ
à¦²à¦ª à¦¥
ge th
à¦¸ à¦Ľ
âĢĶ âĢĶ
Ġ Û
à¦ľà¦¨ à¦ĩ
Ġ _
Ġà¦ıà¦® à¦ı
à¦®à¦¨ à¦Ĺà¦°
Ġ' :'
Ġlabel text
geth ours
get minutes
ift artime
Ġà¦Ĩà¦¨ à¦¹
} );
Ġà¦ĩà¦¨ à¦¶
Ġà¦² à¦Ł
201 5
Ġunivers ity
à ¨
ick et
os h
Ġre t
à§ģ )
Ġp df
Ã ©
Ġf ol
à§° à¦¸
Ġ4 0
Ġà¦¶ à¦ĸ
ru e
ra ph
à¦¸ à¦°à¦¤
Ġne ed
g in
qu e
Ġc irc
à¦ł à¦¦
à¦¼à¦¿ -
Ġà¦¬ à¦°à¦ķ
la st
un d
ag er
à¦ķ à¦ł
Ġs im
b l
à¦® à¦«
Ġvide os
op y
f e
à¤ ¹
Ġà¦ļ à¦¯
à¦¸ à¦ĩ
Ġà§¨à§¦ à§¨à§§
ĠðŁ ĺ
ĠâĹ ı
à¦²à¦ķ à¦ķ
ze enews
à¦¥ à¦ķà¦°
Ġà¦ħà¦¬ à¦Ĺà¦¤
Ġc ent
à¦ī à¦ıà¦®à¦ľ
Ġà¦ħà¦¬ à¦¤à¦°à¦£
à¦Ł à¦ļ
Ġag ain
al i
à¦¬à¦° à¦ĩ
Ġhe alth
Ġk or
Ġpost s
Ġà¦Ĩà¦¨ à¦Ľ
c ol
201 2
Ġà¦¬ à¦ĸ
à¦¤ à¦Ľ
amil y
à¦·à¦£ à¦ķ
Ġ1 000
à¦¹ à¦ª
Ġà¦Ĩà¦² à¦¬
n y
q us
Ġà¦¯à¦ĸà¦¨ à¦ĩ
Ġà¦® à¦¸à¦²
[ /
à¦°à¦ľà¦¨ à¦¨
p df
Ġà¦®à¦¹ à¦¸
Ġt ips
b i
Ġs w
à¦Ń à¦®
à§ģ à§į
Ġd id
Ġ6 0
à§¬ à§«
Ġà¦ıà¦ĩ à¦Ń
Ġh and
8 9
s k
Ġpr int
8 1
à§® à§®
à¦ıà¦¸ à¦Ł
Ġw in
Ġà¦¬à¦Ľà¦° à¦ĩ
Ġà§¦ à§§à§Ń
> >
à¦ĩà¦« à¦¸
low job
à¦²à¦ķ à¦Ń
Ġà¤ ®
Ġà¦®à¦¨ à¦ľ
Ġwee ks
ar a
Ġà¦¨ à¦¹
à ±
à¦ł à¦¸
ag ram
Ġà¦ħà¦ª à¦ª
Ġbd news
ar r
Ġà¦ķà¦®à¦² à¦Ĺà¦ŀ
Ġin t
Ġwee k
Ġà¦² à¦Ń
à¦Ĩ à¦°à¦ĵ
tw itter
Ġfig ure
em ail
à¦¿âĢĻ à¥¤
à¦¤ à¦ªà¦ķ
à¦¥ à¦¸
f in
Ġg reat
à¥ ĭ
à¦ľ à¦ĩ
Ġà¦ª à¦ļ
à¦Łà¦ķ à¦¯
Ġk i
Ġre al
Ġà¦ħ à¦£
v loc
Ġà¦¦ à¦¡
iz ed
à¦¾ âĢĵ
s b
à§ĭ ...
Ġn at
Ġà§® à§§
ar k
7 5
h at
à¦¯ à¦¸à¦¹
Ġà¦« à¦ľ
Ġc al
à¦ł à¦¬
Ġà¦ļ à¦¬
Ġà¦® à¦ĩà¦¨
ou p
Ġat t
w ith
w n
c r
c aption
Ġà§® à§ª
Ø º
à§ĥ à¦Ĥ
au se
Ġ ï
à¦ĺ à¦ķ
re p
Ġà¦® à¦°à¦£
à¦ĩà¦¡ à¦¬
ic es
Ġà¦ªà¦° à¦¶
el d
à¦Ľ à¦ķ
Ġà¦¨ à¦¸
Ġà§§à§¯à§Ń à§«
Ġm ah
Ġle ading
à¦® à¦ªà¦¨
à¦ĵ à¦Ĺ
Ġmovi e
Ġl im
ang e
Ġà¦īà¦ª à¦¤
Ñ ĥ
= \"
Ġà§¨à§¦à§¦ à§©
Ġre ally
Ġtech no
anth a
Ġ' /
Ġà¦ı à¦¨à¦¬
à¦ıà¦¸ à¦ľ
à¦ľ à¦Ļ
ur s
Ġà¦Ĩ à¦īà¦¯
à¦°à¦¦ à¦ķ
etail s
Ġtr ans
à¦ı à¦¤
t i
Ġà¦ħà¦ª à¦ķà¦°
Ġs omoy
Ġw ere
Ġb u
Ġà¦ķ à¦¦à¦°
à¦Ĺà¦łà¦¨ à¦Ĺ
Ġpro du
Ġ et
à¦« à¦«
à¦¼à¥¤ [
Ġth ink
Ġà¦ľà¦Ĺ à§İ
Â Ń
an j
Ġlog in
à¦Ł à¦ĩ
Ġà¦ĩ à¦®à¦¨
s ar
à¦¬à¦ľà¦¨ à¦°
Ġf re
à¦¾ âĢĶ
à¦Ł à¦®à¦¸
Ġ9 0
Ġà¦¸à¦« à¦°à¦ķ
á Ģ
20 20
à¦¦ à¦¸à¦¹
al se
in ess
Ġà¦ıà¦¬ à¦Ľà¦°
Ġà¦¤à¦° à¦Ļ
v is
à¦¤ à¦¥
ist ory
Ġà¦° à¦¥
Ġà¦ī à¦®à¦°
Ġà¦ıà¦° à¦¦
m ad
Ġw ell
ent s
Ġà¦ķà¦° à¦¨
Ġà¦ħ à§°
Ġn ational
Ġà¦ª à¦²à¦ķ
Ġkh an
à¦ļ à¦¤à¦°
à§¬ à§¬
à¦¤ à¦¯
ath er
à¦ĸ à¦ľà¦¨à¦ķ
Ù °
Ġà¦ıà¦® à¦¡
à¦¸à¦ķ à¦·
à¦ľ à¦ĵà¦¯
+ +
: "
à¦¼ )à¥¤
v el
m p
" );
à¦¤ à¦®à¦¨
Ġtw itter
i ous
7 6
st er
à¥¤ '
Ġand roid
b al
la ce
Ġà¦Ĩà¦ķ à¦¤
à¦® à¦ĸ
Ġà¦ĵà¦ĩ à¦¦
Ġà¦Ĺà¦£ à¦¶
à¦¶à¦¨ à¦Ł
Ġf ish
à¦Ĺ à¦łà¦ķ
à¦Ŀ à¦°
Ġ25 0
s u
Ġsh ould
el f
à¦¯ à¦¸à¦®
à§ĩ )à¥¤
Ġth an
Ġbla ck
b ack
à¦ĩà¦¨ à¦Ł
Ġc ha
Ø§ Øª
à¦¸ à¦¸à¦¹
t en
Ġà¦Ĩà¦ĩà¦¨ à¦®à¦¨
Ġj our
Ġà¦ĺ à¦°à¦¬
Ġb as
ch e
p os
Ġt y
Ġfol low
à¦¿ à¦¾
Ġà¦ķ à¦¹
Ġa ut
j v
Ġyear s
Ġà¦ķà¦¤ à¦¦
à¦Ł à¦ľ
à¤ Ĺ
un e
Ġf ore
Ġà¦¨ à¦¹à¦¯
ĠÌ Ħ
à¦°à¦« à¦°
inter val
" "
Ġm ag
à¦Ń à¦²
ĠØ ®
se ction
Ġsecon ds
ã Ĥ
Ġà§® à§©
Ġà¦° à¦®à¦¨
à§ģ !
ar g
k a
à¦· à¦ĵ
Ġà¦Ĩà¦ĩ à¦ıà¦¸à¦¬
à§¨à§¦ à§¦à§¯
à§Į -
Ġà¦°à¦ĵ à¦¶à¦¨
à¦¨ à¦·
Ġà¦®à¦¤ à¦²à¦¬
Ġà¦« à¦¨
Ġ ....
am s
Ġp ur
à¦¸ à¦ªà¦¨
à¦¸à¦¹ à¦ķ
!!!! !!!!
à¦¾à¦Ĥ ,
Ġà¦ªà¦° à¦²
à§¯ à§¦
à¦¡ à¦ĵà¦¯
Ġb us
Ġà¦Ĩà¦¦ à¦®
Ġ ext
Ġb el
Ġm ic
Ġà¦®à¦ľ à¦²
w p
Ġt er
Ġpr ice
Ġà¦īà§İ à¦ªà¦¤
e f
Ġà§¯ à§¨
Ġà¦¤ à¦¡
à¦°à¦¤ à¦¬à¦°
Ġà¦¸à¦¹ à¦ª
à¦¾ (
Ġth r
7 1
à¦¤ à¦ľà¦¨
p orn
à¦¤ à¦ķà¦°
à¦°à¦ķ à¦¦
Ġtag ged
à¦ĩà¦¨ à¦ķ
' à¥¤
à¥ ģ
Ġd ur
Ġà¦ıà¦² à¦ľ
re s
la g
is ter
Ġde ve
à¦¯ à¦¬à¦°
Ġin s
Ġà¦Ĩ à¦ĩà¦²
Ġtw o
Ġ/ *
l im
Ġm a
à¦ĩ à¦īà¦Ł
à¦¶ à§°
Ġà¦ķ à¦ĩà¦°
à§ĩ /
Ġà¦¨ à¦²
Ġà¦° à¦£
à§± à¦¨
à¦¶ à¦Ń
oug ht
st em
25 0
Ġpers on
Ġà¦®à¦¹ à¦¡
Ġà¦¤à¦¤ à¦Ł
esh e
Ġn or
Ġ"" ;
Ġah med
à§° à¦¦
i ence
Ġ es
à¦² à¦°à¦ķ
Ġà¦ķ à¦ĵà¦®
Ġà§® à§¦à§¦
à¦ª à¦ĵ
, #
Ġà¦¤ à§İà¦ªà¦°
Ġà¦Ĩà¦ĩ à¦Ń
à¦°à¦¤ à¦®
Ġim age
Ġsh ow
à¦® à¦ªà¦°
Ġà¦īà§İà¦¸ à¦°
p age
7 9
à¦ķ à¦£
**** ****
Ġsp orts
à¦Ĩ à¦ĵà¦¯
r or
...... ...
Ġà§§à§¦ à§¦à§¦
Ġsch ool
Ġà¦Ń à¦Ĺà¦¬
à¦¸ à¦ľ
à¦ļ à¦ª
à¤ ¯
Ġcle ar
] à¥¤
Ġto tal
Ġà¦ħà¦ª à¦¹
à¦¯ à¦ļ
v ent
Ùİ ØĮ
Ġâ Ļ
à¦Ľ à¦Ĺ
Ġj py
ĠðŁ Ļ
m al
à¦®à¦¤ à¦²
à¦ıà¦ĩà¦ļ à¦¡
à¦ł à¦ķà¦¦
à¦° à¦°à¦®
p or
Ġp lease
à¦ıà¦¸ à¦ĩà¦¤
à¦« à¦²à¦¨
à¦¯ à¦§
t ube
Ġà§¯ à§§
l i
à¦¾âĢĻ ,
à¦ªà¦° à¦¬à¦°
Ġ[ [
à¦£ à¦Ĺ
Ġh app
à§Ń à§Ń
ce pt
Ġthank s
g oogle
Ġinform ation
Ġem ail
à¤ ¸
at or
Ġp ay
à¦ĩà¦² à¦¸
à¦ī à¦«
st r
à¦ļ à¦ķà¦°
à¦¬ à¦°à¦ķ
ra b
8 5
z z
al k
Ġà¦¤ à¦¤à¦¦
Ġà§§à§¯à§Ń à§¨
Ġà¦ħà¦¬ à¦ľ
Ġmu ch
00 26
à¦¤à¦° à¦¬à¦Ļ
Ġre view
um ber
ĺ ħ
à¦¯ à§±
Ġà¦®à¦¨ à¦Ł
Ġà§¨à§¦à§¦ à§¨
Ġà¦° à¦¡
à¦¸ à¦ķà¦¦
con om
Ġà¦ı à¦¨à¦Ł
Ġà¦ıà¦¤ à¦ķ
ct or
à¦¤ à¦¤à¦®
à¦°à¦ļ à¦²à¦¨
à¦ıà¦® à¦ıà¦ķ
m i
Ġb ro
à¦¶ à¦¹
à¦¦à¦¨ à¦Ł
Ġà¦¨ à¦ĸ
, âĢĿ
-- -
g ov
over n
à¦¤ à¦¹
Ġc re
à¦°à¦£ à¦Ł
Ġc lass
Ùį ØĮ
Ġà¦Ĩ à¦¹à¦²
Ġfig caption
Ġà¦ĸ à¦¸à¦°
à§¬ à§¯
Ġ3 2
Ġbe c
à¦ı à¦ķà¦ľà¦¨
Ġex p
Ġt u
Ġà¦¬ à¦ļ
it ies
Ġs ing
Ġà§Ń à§¦à§¦
Ġà¦ķ à¦¸à¦®
Ġà¦ħà¦Ń à¦¯
Ġb lowjob
à¦² à¦ķà¦°
n b
à¦°à¦® à¦¬à¦°
us s
Ġà¦¦ à¦Ĺ
Ġw atch
Ġadd ress
Ġwor d
à¦ķà¦Ł à¦ķ
Ġan gle
ir us
Ġf ind
at i
Ġh um
iss ion
Ġk ar
à¦ľà¦¨ à¦¦
Ġwrit e
Ġà¦ķ à¦¤à¦ķ
ĠÌ Ī
ch ildren
Ġà¦ļ à¦¶à¦®
Ġà¦īà¦ª à¦ªà¦°
b ody
Ġà¦ļ à§°à¦ķ
Ġf in
Ġv al
à´ ¿
Ġd i
eng th
à¦Łà¦¸ à¦ħ
à¦¸ à¦ıà¦¨
à¦ıà¦® à¦¸
Ġm edia
Ġà¦ıà¦« à¦¬
g er
Ġà¦§ à¦°à¦¬
à¦¨ à¦ĸ
Ġdeve lop
id er
Ġà§¯ à§©
Ġpo p
c p
Ġs ign
ut ion
Ġjour nal
id eshe
6 4
k er
ou se
Ġà¦Ĩà¦® à¦ľ
7 2
ist r
Ġor ig
ÙĲ ØĮ
Ġd in
Ġinter national
Ġà¦Ĩà¦° à¦ľ
Ġman y
Ġà¦° à¦ľà¦¨
Ġpro te
Ð ²
eb ideshe
7 4
Ġp ower
Øµ ÙĦÙī
f r
Ġk o
à¦Ĺ à¦Ļ
wid get
à¦§ à¦¶
Ġ: -
Ġà¦Ĩà¦« à¦ľ
Ġl ang
à§Ń à§®
Ø§ Ø¯
Ġc ap
Â §
c ed
à§ĩ? âĢĻ
Ġrel ated
w eb
Ġà¦¬ à§İà¦¸à¦°
ad a
à¦¶ à¦¹à¦°
à¦ĺ à¦£
à¦· à¦ľà¦¨
Ġà¦¤à¦¤ à¦ĩ
201 1
Ġm et
bd news
Ġà¦Ńà¦¬à¦¨ à¦Ł
u j
Ġà¦¹ à¦ĵ
Ġs ou
Ġà¦¤ à¦²à¦¬
list ing
Ġf act
am es
à¦¤à¦° à¦Ł
à¦²à¦¤ à¦ª
Ġlo ve
ad in
Ġb ank
Ġrah man
Ġà§§à§¯à§¯ à§§
u ro
at ter
Ġà¦Ĩ à¦·
Ġco x
à¦Ĩ à¦ľà¦ķ
Ġà¦ı à¦ĵ
Ġfor m
ct ed
news listing
f b
à¦ķ à¦·
à¦ĩ à¦īà¦¨
âĢ ļ
s ize
Ġpre s
à¦ıà¦®à¦ĩ à¦ı
à¦Ĩ à¦ĩà¦Ł
Ġ' ;
ach e
à¦ķ à¦¸à¦¬
Ġà¦¨à¦Ĺ à¦°à¦¬
Ġdis c
Ġb ir
Ġsy stem
Ġw ay
desh ebideshe
ad d
w ood
ÙĬ Ø±
Ġ= =
à¦¾ )à¥¤
à¦ħ à¦¨à¦²
à¦°à¦£ à¦¬
com e
' m
Ġà¦īà¦ª à¦¬
à¦¯à§± à¦¹
Ġ à§±
Ġà¦ıà¦ĸà¦¨ à¦ķ
um b
* /
Ġà¦¸ à¦ĵà¦¯
ib le
Ġà§§à§ª à§¨à§«
ac y
à§°à¦£ à§°
à§° à¦¥à¦®
. ,
Ġto ol
Ġà¦Ĺ à¦®à¦¨
Ġà¦¦ à¦ĩ
à§¬ à§®
Ġpre ss
à¦¼à¥¤ âĢĿ
à¦® à¦¸à¦®
g a
à§ĭ )
r al
à§§à§¯ à§®
à¦Ĩ à¦ªà¦¡
Ġà§¯ à§ª
Ġle t
à¥ Ĥ
Ġà¦ħ à¦®à¦¨
Ġà¦ľ à¦ĵà¦¯
Ġst yle
Ġà¦ĩ à¦«
Ġs ol
à¦¬à¦¨ à¦®
à¦¨ à¦ĵà¦¯
à§Ģ ...
u f
e et
Ġà¦ī à¦ĩà¦®
Ġà§§à§¯à§¯ à§¯
Ġc our
à¦¤à¦¬ à¦¯
Ġà¦ī à¦§
à¦ĺ à¦¸
y out
à¦°à¦® à¦ľ
t im
Ġc ould
Ġà¦®à¦ľ à¦¬
ud e
Ġà¦¶ à¦ļ
Ġc am
Ġà¤ ¬
à§ĩà¥¤ '
Ġà¦ĩ à¦°à¦¶
Ġà§§à§¯à§¯ à§¦
à¦ķ à¦²à¦ķ
Ġà¦« à¦Łà¦ķ
à¦¶ à¦Ĺà¦¤
at s
c ateg
à¦¬ à¦ĩà¦¯
Ġà¦ıà¦¨ à¦Ĩà¦°à¦¸
à¦ķ à¦¤à¦°
à§ĩ âĢĵ
al ity
Ġà¦¡ à¦¬
à¦ªà¦ķ à¦¥
à¦ªà¦ķ à¦¥à¦¨
à¦¯à¦¥ à¦Ń
Ġn et
lo t
ĠÃ Ĺ
d w
Ġà¦¸à¦«à¦² à¦Ń
à¦ļ à¦Ĺ
Ġt ri
i j
à¦¦ à¦ķà¦°
Ġfri end
Ġà¦¨ à¦Ł
c a
Ġà¦® à¦¹à¦®
" >
Ġà¦ıà¦°à¦ªà¦° à¦ĵ
c urrent
ertain ment
9 3
à¦¦ à¦®à¦¤
th om
em b
Ġl ong
Ġc are
à¦¬à¦¨ à¦Ł
Ġh istory
' -
à§Ń à§¨
Ġà¦¸à¦¬ à¦Ł
à¦ī à¦ĩà¦ķ
n ess
Ġà¦® à¦Ĺ
Ġe k
à¦Ĩ à¦°à¦ª
op ens
Ġg overn
bangladesh online
Ġfe ature
Ġlim ited
Ġt est
Ġb ra
il la
an y
Ġà¦ıà¦ķ à¦ļ
ud d
Ġà¦ħ à¦¬à¦²
8 2
Ġcont ent
Ġà¦ħà¦ª à¦Ł
à¦¨ à¦ķà¦°
à¦Ł à§°
à¦¯ à¦Ļ
Ġb it
Ġa j
it a
Ġà¦® à¦¦à¦¨
se arch
Ñģ Ðº
à¦¥à¦² à¦¬à¦¨
Ġà¦ıà¦ĩà¦ļ à¦¡
Ġà¦ľà¦¨ à¦ľ
à¦¶à¦¨ à¦Ĺ
in o
à® ¿
Ġhe ad
Ġà¤ ª
Ġin to
Ġà¦¤ à¦ªà¦¨
Ġà¦¡ à¦¨
eng lish
v ar
à§Ģ à¦Ĥ
ak antha
Ġà¦ħà¦¬à¦¸ à¦°à¦ª
à¦¯ à§±à¦¸
à¦§ à¦ª
Ġp ass
à¦ªà¦£ à¦¨
Ġd ire
ÙĬ Ùħ
Ġarticle à¦¬
Ġed itor
Ġ end
Ġà¦ľà¦¨ à¦¸à¦¨
Ġcr icket
à ¹
Ġt ube
Ġd if
Ġa ir
Ġà¦¶ à§°
à¦ı à¦ĸ
à¦¤ à¦Ĺà¦¤
Ġrep ort
Ġc as
al a
à¦¬ à¦ŀ
à¦¬à¦¹ à¦£
Ġà¦ľà¦® à¦ľà¦®
am ar
Ġwh ere
8 4
à¦¼ âĢĵ
pl us
à§¨à§¦ à§¦
Ġre d
b c
à¦ĩà¦ī à¦ıà¦¨
Ä ģ
ain er
Ġh ard
Ġv o
Ã ¸
à¦ª à¦ŀ
à¦ī à¦ĩà¦¨
Ġf ound
à¦° à¦ľà¦¨à¦ķ
à¦¸à¦Ł à¦²
à¦ĩà¦¨ à¦²
le lement
with ad
lelement withad
á ĥ
Ġà¦ı à¦ıà¦¸à¦Ĩà¦ĩ
b a
Ġjan akantha
Ġ5 00
Ù Ģ
Ġà¦ĩà¦Ł à¦Ń
9 4
Ġm ade
Ġan sw
Ġà¦«à¦° à¦ľ
à§İ à¦«
al s
Ġres ult
Ġà¤ ¸
n i
Ġv ol
sb azar
Ġà¦¶à¦¹à¦° à¦Ł
Ġà¦¬à¦°à¦ķ à¦¤
à¦¡ à¦¶
Ġf ile
Ġb ol
Ġà¦ĩ à¦ĩà¦ī
ang bad
à¦°à¦£ à¦Ń
Ġ3 5
Ġà¦Ĩ à¦ĩà¦°
p art
Ġà¦ıà¦¸ à¦¡
Ã ¶
aa aa
Ġà¦¨ à¦¬à¦¬
Ġh ind
er ic
ann el
" .
à¦£ à¦¸
Ġ{ });
à§ģ .
à¦® à¦¹à¦²
Ġà¦Ĩà¦² à¦«
Ġdes k
à¦¬à¦¨ à¦¬
Ġ$ ('
Ġg ot
à¦£ à¦Ĺà¦¤
Ġthr ough
à¦¨ à¦Ĺà¦ŀ
i ra
ist ance
à§Ĥ -
Ġr am
Ġà¦¤à¦ĸà¦¨ à¦ķ
Ġà¦¶ à¦®
do cument
r an
Ġà¦ĺ à¦·
sar adin
one y
ĠØ «
11 44
à¦² à¦§
Ġà¦ļ à¦ŀ
Ġà¦¥ à¦®à¦ķ
à§ĩà¥¤ "
j ee
Ġbec ause
Ġà¦¸à¦® à¦¤à¦²
Ġb ab
) )
Ġev en
p ar
à§¬ à§Ń
Ġe ar
Ġà§§à§¯à§¯ à§®
____ ____
Ġi p
Ġr s
Ġà¦Ĩà¦¹ à¦°à¦£
Ġà¦ħà¦ª à¦ļà¦¯
Ġt ake
Ġh y
Ġà¦ĩà¦¨à¦« à¦°à¦®
7 3
Ø§ Ø³
â ĸ
Ġ Ãł
Ġwom en
/ %
c er
Ġcon s
Ġà¦ªà¦° à¦¬
à¦¨à¦¬ à¦ľ
Ġ{ {
Ġà¦ķà¦® à¦°
à¦Ĺ à¦¸à¦¹
à¦ıà¦¸ à¦ĩà¦¸
or der
v en
Ġdes ign
Ġbd saradin
Ġà¦ĩ à¦®à¦¤
à¦ķ à¦¸à¦¨
pl ic
04 65
à¦ļ à§°
Ġed uc
à¦Ļ à¦¤
Ġà¦īà§İ à¦ªà¦¨
Ġà¦¹ à¦ĩà¦Ľ
ant a
à¦¥ à¦ªà¦¤
b arta
k n
Ġm om
w ard
à¦Ĺ à¦®à¦¨
à¦¦à¦ķ à¦ķ
Ġà¦¹à¦¤ à¦¦à¦°
à¦· à¦Ļ
iv er
Ġth ese
at ive
à¦ķ à¦ĸ
} .
1144 0465
Ġl td
Ġd w
ĠØ ¯
Ġm en
à¦ķ à¦ĵà¦¯
o se
f l
] ]
à¦ıà¦¨ à¦ıà¦¨
ist an
Ġdo es
à¦¨ à¦Ĺà¦¤
à¦Ĩà¦ĩ à¦ıà¦¸
à¦ıà¦® à¦ĩà¦ī
Ġcont in
Ġn umber
à§§ à§¦à§¦
ĠÙħ ÙĨ
g y
ee p
201 3
Ġà¦Ĩà¦ĩà¦ķ à¦¨
er a
Ã ¦
6 3
Â¦ Â
. "
à¦¨à¦® à¦ľ
à¦¯à¦® à¦Ĺ
Ġp ak
og raph
Ġà¦Ń à¦°à¦ª
Ġà§§à§§ à§¦
Ġà¦¬à¦¸ à¦Ľ
à¦¦ à¦Ľ
Ġqu est
à¦¥ à¦Ł
Ġà¦¸à¦¬ à¦¥
à¦Ł à¦°à¦ķ
Ġc urrent
: :
ur y
Ġà¦¦à¦ĸà¦² à¦¦
Ġà¦² à¦ĩà¦¯
Ġà¦īà¦ª à¦ļ
Ġmark et
Ġm il
Ġf l
r on
b ra
Ð ¼
6 1
Ġà¦ħ à¦°à¦£
à§ĥ .
in fo
Ġbus iness
l s
Ġ& &
g an
à¦¿ "
Ġ à¦¿
f acebook
id ay
à¦ĸ à¦Ń
Ġà¦Ĺ à¦¹
à¦ª à¦ĩ
Ġe ff
, âĢĺ
com ment
opy right
Ġg e
à¦ľ à¦¤à¦¨
c d
à´ ²
Ġent ertainment
Ġphot o
Ġà¦¨ à¦ĩà¦²
Ġd ata
Ġh om
Ġà¦Ĺà¦£ à¦«
eng er
à¦§ à¦Ĺ
à¦ķà¦Ľ à¦¡
à´ µ
Ġt a
Ġk ore
Ġà¦ľ à¦ĺà¦¨
à¦¬à¦¨ à¦Ĺà¦°
Ġà§§à§¯à§¯ à§Ń
Ġre nt
Ġpre m
à§° à¦¶
ers ion
Ġà§§à§¯ à§ªà§Ń
mar k
g u
r s
ĠâĹ Ī
art s
d etails
Ġà¦ĵà¦ĩ à¦¸à¦¬
à¦ª à¦ļà¦°
Ġre sp
à¦¬à¦¸ à¦¹
Ġà¦ıà¦¨ à¦¸
el se
m on
Ġ' '
Ġdis qus
à¦¤ à¦ĸà¦¨
à¦§ à¦ķà¦°
g o
Ġm am
Ġà¦« à¦ľà¦°
w are
Ø§ Ùĩ
à¦ĩ à¦ĩ
Ġà¦¸ à¦ľà¦²
à¦Ľ à§°
à¦¯ à¦ªà¦¦
Ġ à§ĩ
il ity
à¦ľ à¦¸à¦¹
Ġà¦¯ à¦ķ
ĠðŁĻ Ĥ
à§Ń à§¬
Ġf o
Ġs um
Ġà¦¨ à¦®à¦¨
Ġà¦ī à¦¸à¦®
h ome
af ter
à§Ń à§¯
Ø§Ø ¦
Ġà¦ľà¦¨ à¦¶à¦ķ
à¦¼à§ĩ ...
Ġà¦Ĩà¦ļ à¦®à¦ķ
Ġu t
Ġà¦ı à¦¨à¦ķ
Ġà¤ ¹
j an
Ġà¦¸ à¦°à¦¸
c al
à¦ĺ à¦¡
8 3
à¤ ľ
Ġg h
à¦ľà¦¨ à¦¤
Ġà¦ıà¦ıà¦« à¦ª
Ġà¦Ĩà¦ķ à¦¨
Ġsu ch
à¦¯ à¦ĸà¦¨
Ġà¦īà¦ªà¦° à¦¨
à¦¤ à§°à¦¤
Ġserv ice
à¦ħ à¦²
Ġm al
Ġà§§à§© à§¦
à¦ĵ à¦«
à¦¯ à¦ĸ
à¦ĵ à¦ĩ
Ġà¦ķà¦² à¦Ļ
Ġà¦ħ à§±
à¦¦ à¦ĩ
Ġà¦¬ à¦¹à¦°
Ġto o
Ġà¦ļ à¦ķà¦¬
Ġà§§à§ª à§ª
Ġà¦ĩà¦® à¦ª
à¦Ł à¦Ĩà¦ª
le x
Ġà¦ĩ à¦¥
Ġv s
Ġus er
Ġà§§à§® à§®
Å ¡
Ġh a
à¦Ń à¦Ł
à¦¸ à§°
Ġà¦Ĩà¦ĩà¦¨ à¦Ł
Ġclear interval
Ġvis it
Ġà¦¬à¦¹ à¦¨à¦ķ
l ength
j s
à¦ī à¦¶
à¦ħ à¦¬à¦¶
ab d
Ġà¦ªà¦° à¦¨
Ġas k
à§¨à§¦ à§¦à§®
à¦ĩ à§°
m g
Ġà¦Ľ à¦¦
Ġb in
Ġb oo
Ġso ft
à¦īà¦Ł à¦°
ur al
Ġà¦§à¦° à¦Ľ
à¦Ĺ à¦Ń
à¦ĩà¦Ł à¦Ĺ
à¦ıà¦® à¦¡
bt f
à¤ ¡
u age
ra ct
à¦ĩà¦²à¦« à¦²à¦ķ
t g
Ġel se
à¦¶ à¦Ļ
Ġà¦ħ à¦ľà¦¯
Ġde v
y e
on a
n ing
Ġà¦ıà¦° à¦ĩà¦®
Ġt em
Ġà¦¬ à¦ĩà¦¤
Ġà§§à§¯à§Ń à§¦
un es
s m
à¦¹ à¦¤à¦°
Ġt ar
vi ews
Ġorig inal
à¦ıà¦¸à¦ıà¦® à¦ıà¦®à¦ĩà¦ī
à¦ª à¦Ľ
à§¬ à§¨
à¦¡ à¦ĵ
ĠØ¹ ÙĨ
s r
Ġgovern ment
Ġà¦®à¦¨ à¦ķ
âĢĻ âĢĻ
Ã ¢
Ġà¦Ķ à¦ªà¦¨
à¤ ·
à¥¤ ...
Ġà¦¤ à¦°à¦®
w ays
Ġà¦® à¦ĵà¦²
df pad
à§¯ à§«
Ġà¦ħà¦¸à¦® à§°
à¦¾ à¦¾
à§¯ à§®
n esday
Ġop en
Ġà¦¸ à¦¹à¦®
à§Ń à§©
el s
à¦ĩ à¦ĺ
Ġ4 5
Ġà¦ıà¦°à¦ĩà¦® à¦§
à¦Ĺ à¦²à¦ķ
ĠØ§ÙĦ Ø±
Ġw id
à¦Ĺ à¦¤à¦®
Ġf un
et y
à¦¸ à¦¦à¦°
im g
g en
Ġlo t
Ġà¦ı à¦®à¦¤
Ġà¦ķ à¦¨à¦ķ
à§° à¦¨
Ġsup er
g h
à¦Ł à¦ķà¦°
Ġà§§à§® à§¦
à¦Ĩ à¦«
Ġà¤ ¨
Ġà¦ªà¦Ł à¦Ń
u ally
Ġà¦¹ à¦ľà¦¯
Ġch annel
Ġà¦Ĩà¦¦ à¦²
.... ...
à¦ĩ à¦īà¦°
Ġà¦ıà¦« à¦¡
Ġin v
9 2
ly wood
à¦° à¦Ĺà¦£
Ġà§§à§¯à§¯ à§¨
à¦ıà¦¨ à¦¬
Ġc amp
wor k
Ġoff ic
à¦īà¦ľ à¦¬
à§Ģ '
ik a
à¦ĩ à¦«à¦¤
g mail
v es
Ġr un
à¦ĭ à¦£
Ġw ik
à¦ı à¦ı
Ġt ak
Ġw ater
à¦°à¦¥à¦® à¦¦
ast er
ro l
Ġà¦ľà¦¨ à¦®à¦¤
Ġà¦ı à¦®à¦¦
Ġà¦Ŀ à¦²à¦ķ
Ġp ri
Ġà¦² à¦¯
9 1
à¦ĩà¦ĵ à¦Ń
à¦¤à¦¨ à¦ķ
à¦ľ à¦ķà¦²
c rip
urs day
as on
Ġà§§à§ª à§¦
à¦® à¦®à¦¤
Ġà¦¶à¦¹à¦° à¦Ĺ
Ġwith out
Ġà¦ĩ à¦°à¦«
ip ur
à¤ ª
h ide
i ent
Ġs ar
an ews
Ġâĸ º
Ġwh y
d r
Ġâ Ĥ
Ġà§§à§ª à§¨à§Ń
à¦ıà¦® à¦ıà¦¸
6 2
p lease
Ġ6 4
à¦¬ à¦²à¦¨
ent ion
à¦Ĩ à¦¹
t ag
Ġà¦ħà¦ª à¦°à¦ķ
Ġs on
Ġs ource
Ġà¦ĭ à¦·
idd le
Ġv er
Ġà¦¹ à¦¸à¦ª
Ġà¦ħ à¦Ĺà¦£
an e
Ġ200 9
Ġpro thom
nb sp
Ġà¦¦à¦² à¦ĩ
à¦® à¦¸à¦¨
Ġs in
op e
Ġo ld
Ġ* **
ĠÂ °
an ch
âĢĿ ,
w indow
à¦¶à¦¨ à¦¸
in es
à¦ĩ à¦īà¦ľ
Ġpol it
Ġà¦Ĩà§° à¦®
Ġà¦ī à¦¯
à§¬ à§ª
ain ik
Ġwed nesday
Ġà¦ī à¦Ł
Ġa ud
Ġc it
Ġà¦Ł à¦ªà¦ķ
Ġà¦¡ à¦ľà¦¨
Ġgener ic
à¦¯à¦ª à¦£
Ġor der
h ri
à¦¿ âĢĶ
ham mad
Ġmess enger
Ġà¦ıà¦¡ à¦®
Ġth ought
Ġm ad
Ġt rue
y o
Ġbe fore
d own
s a
à¦¿ (
à§ģ ...
tic les
à¦® à¦īà¦¦
Ġà¦īà¦ĩ à¦¥
à¦¶à¦² à¦Ĺà¦¤
à§° à¦¬
01 7
à¦¨à¦Ń à¦°
Ġà¦® à¦ķà¦¬
Â ©
Ġà¦Ĩà¦® à¦¤à¦²
Ġan al
Ġà¦ķà¦¨ à¦ľ
à§¬ à§§
Ġà¦ħà¦° à¦«
Ġe p
Ġà¦® à¦¶à¦²
Ġf b
f lag
Ġà¦®à¦¹ à¦ķ
b h
Ġcateg ory
Ġ ???
à¦ı à¦¶
à¦Ĩà¦ĩ à¦ı
m er
Ġc e
w h
st yle
à§İ à¦«à¦°
à¦ł à¦®
Ġs ms
Ġtu esday
à¦¼à¦¾ !
Ġà¦ı à¦®à¦¸
l ar
v ir
Ġb i
Ġre qu
à¦ıà¦® à¦ı
Ġà¦ľà¦¨ à¦¸à¦ļ
Ġà¦¸ à¦ªà¦°
sbazar news
à¦· à¦°à¦£
Ġpro f
à¦°à¦ķ à¦Ł
==== ====
Ġà§§à§¬ à§¦
à¦¤à¦¬ à¦ķ
à¦¶ à¦¬à¦ª
Ġà¦¤ à¦¸à¦²
Ġre m
le y
Ġacc ount
Ġ: )
Ġpro t
or k
à¦¨ à¦¸à¦¨
Ġex press
à¦Ł à¦ķà¦²
Ġmon day
am i
qu ery
à¦Ľ à¦¯
cent er
~ ~
Ġinter net
ot o
à¦ļ à¦¦
s rc
( $
Ġth ursday
Ġà¦Ĩà¦¯ à¦¹
à¦ª à¦Ń
on et
à¦ĩà¦¨ à¦®
Ġg uy
Ġt itle
news bd
à¦Łà¦¨ à¦®
! âĢĻ
Ġse arch
Ġl arg
à¦ķà¦Ł à¦ª
âĢ² âĢ²
Ġ* *
cc ess
Ġwindow s
à¦¸ à¦īà¦¦
sh ow
à¦ı à¦ķà¦¦
à¦ľ à¦ĸà¦¬à¦°
Ġà¦ķà§° à¦ķ
ĠØ§ÙĦ Ø³
ĠØ§ÙĦ Ùħ
Ġà¦Ľ à¦Ł
à¦¹ à¦īà¦¦
o ck
if ier
à§ĩ âĢĿà¥¤
à§° à¦²
Ġse c
sha re
fi eld
Ġche ap
Ġd ig
Ġarticle à¦¸
Ġà¦ľ à¦Ĺà¦¦
sh ip
Ġà¦ıà¦ķ à¦Ĺ
Ġc ache
à§Ń à§ª
ut er
are nt
à¦ıà¦¸ à¦ĩà¦°
k i
ĠØ§ Ø¨
à§ģ ?
à§¬ à§©
Ġà¦Ĩà¦ľ à¦ĩ
Ġd h
Ġà¦Ĩà¦īà¦Ł à¦ª
Ġc lo
Ġe lection
ad i
Ġp a
à¦ķ à¦§
Ġc ome
ĠÙĦ Ø§
Ġà¦ĵà¦ª à§°à¦¤
Ġ???? ????
à¦¦à¦° à¦Ĺà¦ŀ
à¦ķà¦° à¦¨
p ing
Ġch ina
à¥ Ī
Ġà¦ıà¦ĩ à¦¡
à¦¤à¦° à¦¸
Ġim port
âĢ ¢
id s
Ġh ol
Ġ3 6
ĠØ °
Ġs ab
Ġhas an
à¦¤à¦° à¦Ļ
p le
j oy
Ġpo int
Ġà¦ĺ à¦¨à¦¤
à§± à¦¤
à¦¨ à¦®à¦¤
Ġà¦Ĺ à§°
Ġà¦ĩ à¦¬à¦°
à¦ľ à¦īà¦ķ
Ð ´
Ġ ic
p ri
v b
ick s
Ġl ik
* )
em pt
Ġà¦ļ à¦ķà¦²
Ġà¦ķà¦¤ à¦Ĺ
Ġà¦Ī à¦¸
à¦ķà¦Ł à¦¬à¦°
Ġst ate
Ġpro gram
à¦°à¦® à¦¤
Ġà¦Ĩà¦° à¦¶
Ġb jp
le ft
Ġà¦¤ à¦ª
à¦Ī à¦²
à¦¿ à§³
Ġà¦° à¦īà¦«
Ġcol le
Ġà¦® à¦łà¦¬
l ike
Ġà¦¥ à¦®
ot t
i h
Ġph one
à¦°à¦®à¦£ à¦ķ
Ġfr iday
à¦¿ âĢĵ
Ġcirc ular
Ġho ss
à¦ľ à¦ķà¦¤
Ġà¦¸à¦® à¦·
on es
Ġà¦ī à¦¸à¦ķ
c s
Ġà¦¸à¦¹ à¦¬
Ġad v
à§°à¦¹ à¦£
% )
Ġà¦² à¦¬
wor d
Ġà¦ĩ à¦²à¦®
Ġpub lic
Ġà¦ķ à¦ķà¦Ł
Ġà¦ħ à§±à¦¸
Ġg lo
Ġoff er
à¦¦à¦¨ à¦ªà¦¤
Ġget s
Ġà¦ħ à¦ĸ
Ġ à§³
à¦ĸ à¦ķà¦¦
à¦¬ à¦¹à¦¤
ut c
g p
Ġd em
Ġà¦ıà¦ĩ à¦ĸ
Ã Ń
it ra
à¦® à¦°à¦ķ
Ġst e
à¦¬à¦¤ à¦²
d es
n ot
Ġp or
à§ĩ? âĢĿ
Ġo wn
d h
Ø ¸
Ġh ar
Ñ ı
à¦Ń à¦ª
" ]
Ġf ar
Ġth ose
Ġd ainik
re am
â ģ
Ġà¦Ĩ à¦«à¦¤
Ġ// $(
Ġbe ing
à¦¨à¦¬ à¦¦
Ġ8 0
à§Ģ /
à¦ī à¦ĸ
ÙĪ Ø±
à¦¬à¦² à¦Ľ
Ġà¦ļ à§°
Ġ???? ?
ÙĬ Ø¯
ĠØ§ÙĦ Ø£
Ġà¦« à¦¸
Ġà¦ıà¦ķ à¦²
Ġle ad
Â ¡
à¦Ĩ à¦§
Ġà¦®à¦¹ à§İ
à¦² à¦Ŀ
à¦Ĩ à¦¸à¦²
à¦Ĩà¦° à¦¡
à¦ª à¦²à¦¸
Ġex am
Ġwh ile
à¦¬ à¦ĸ
Ġà¦¤ à¦«
à¦¬à¦° à¦®
Ġsun day
à¦ĩà¦Ľ à¦¡
à¦Ń à¦°à¦¤
Ġb ad
Ġbook s
à§¯ à§¬
à¦¯ à¦Ĺà¦¤
Ġt able
Ġty pe
Ã ¡
à¦¹ à¦¬à¦¨
Ġc ut
f amily
ure s
Ġà¦¬à¦¨ à¦Ń
Ġw ar
Ġbangladesh i
à¦¦à¦ķ à¦¬
Ġsh ort
Ġus ed
Ġà¦ħà¦¸ à§İ
Ġ7 0
Ġm ain
à¦° à¦ªà¦¨
Ġà§§à§¨ à§«
h u
Ġà¦ľà¦² à¦¸
Ġà¦ľ à¦ķ
à ©
ur day
à¦¿âĢĻ ,
à¦ļ à¦²à¦ķ
Ġ à¥
c ut
à¦ķà¦Ł à¦¤à¦®
ra c
Ġs il
Ã ¿
à¦Ĩ à¦²à¦®
Ġà¦ªà¦¦ à¦ļ
Ñ ĭ
à® ®
à§ĭà¦ģ à¥¤
à¦² à¦ľà¦¯
Ġà§© à§«à§¦
Ġr ating
à¦ĩ à¦²à¦ķ
à¦ı à¦ľ
o x
à´ Ĥ
à§ĥ à¦ĥ
on av
à§ĩ ..
Ġm ust
ĠØ§ÙĦ Øµ
Ġsup port
ic ate
à¦¼à§ĩ !
') );
Ġoff ice
Ġm as
Ġb row
à¦¦ à¦Ń
Ġsha h
ob or
à¦Ĩà¦ĩ à¦¡à¦¬
Ġfil m
à¦Ń à¦§
à§į ,
à¦¨ à¦¥
Ġ à¦¾
Ġ$ ("
ms g
Ġà¦¬à¦² à¦¯
' ){
à¦ķà¦² à¦®
Ġà¦Ŀ à¦ķ
Ø ¦
Ġà¦ªà¦¦ à¦¬
> =
Ġà¦īà¦ª à¦Ĺ
Ġà¦ĵ à¦ľ
in i
/ ]
Ġà§§à§¯à§Ń à§©
iv ing
Ġlarg est
à¦¤ à¦¸à¦¹
Ġâ ī
Ġ3 4
à¦Ĥ à¥¤
à¦ĺ à¦¬à¦¦
Ġà¦¡ à¦¯
Ġv ersion
Ġs ame
Ġà¦²à¦Ĺ à¦ĩà¦¨
Ġst at
à¦§ à¦°à¦£
à¦¥ à¦¹
Ġà¦ıà¦¤ à¦ĩ
Ġdif fer
r ist
Ġgr oup
Ġla w
à¦Ĺ à¦°à¦®
Ġne ver
Ġf alse
em s
Ġgoogle plus
Ġw a
ri but
à¦° à¦«à¦¤
à¦ĸ à¦¡
Ġà¦ł à¦ķ
à§ĩ "
Ġc ong
à¦ħ à¦®
à¦ĺ à¦¬
Ġà§§à§ª à§¨à§ª
Ġ- --
Ġo pt
onav irus
Ġà¦ħà¦ª à¦ļ
z v
Ġinst agram
pre vloc
Ġmic ro
Ġsy nd
Ġà¦¬à¦ĩ à¦Ĺ
Ġc all
Ġf i
Ġp c
Ġst ories
à¦° à¦īà¦¦
Ġcomm un
à¦£ à¦ĵ
av ing
Ġif tar
Ġà¦¹à¦¤ à¦¬
à¦¡ à¦¯
à¦¸à¦¬ à¦¹
Ġgo ing
Ġà¦¬à¦Ľà¦° à¦Ĺ
à¦ĩà¦īà¦ıà¦¨ à¦ĵ
% ,
Ġbe aut
Ġdevelop ment
Ġ9 78
Ġ !!!
à¦ķ à¦¬à¦²
Ġà¦ķà¦° à¦¦
Ġà¦° à¦¦
Ġà¦« à¦²à¦¤
Ġan n
à¦§ à¦ĵ
Ġà¦Ī à¦°
m d
Ġ200 8
à¦§ à§°
Ġc ity
d istance
Ġp int
à¦ĩà¦ī à¦¤
p ush
à´ ¯
Ġa bd
à¦Ļ à§°
ty pe
get time
Ġà§§à§¯à§¯ à§«
at o
am a
Ġ4 8
à¦¡ à¦Łà¦ķà¦®
à¦ļ à¦ĩ
Ġam i
Ġs it
th a
s l
à¦Ĩ à¦Ĺà¦¸
ou n
es ms
( {
Ġà¦Ĩà¦Ľ à¦¡
Ġst and
g n
Ġsat urday
Ġà¦ıà¦² à¦¸
Ġà¦Ĩà¦īà¦Ł à¦¸
Ġà¦ķà¦® à¦ĩ
à¦® à¦§à¦¨
Ġz onet
Ġc tg
Ġzonet ube
Ú ©
Ġà§§à§¯à§¯ à§ª
ion al
Ġprodu ct
Ġif t
Ġ à¦Ļ
en se
Ġin fo
Ġà¦ħ à¦¯à¦¥
Ġà¦ı à¦¹à¦¸
à¦¦à¦° à¦Ń
Ġo b
à¦ķ à¦¬à¦°
Ġà§©à§Ń à§¦
à¥¤âĢĻ âĢĻ
à¦Ĩ à¦ļ
wik i
à¦® à¦ļà¦¨
Ġw on
Ġà¦ħ à¦®à¦²
Ġb en
Ġ" "+
âģ Ħ
â Ĩ
Ġà¦¨à¦° à¦ĵà¦¯
à¦¹ à¦Ĺ
ĠÙģ ÙĬ
Ġpro b
p ub
Ġà¦¶à¦¤ à¦¬à¦°
Ġ+ "
t unes
à¦Ĳ à¦¤
ift ar
Ġch at
Ġprem ier
r d
à¦ĵ à¦ľ
u x
Ġà§§à§ª à§ªà§§
Ġst ar
Ġà¦¬ à¦ľà¦²
Ġ om
Ġ"+ "
se hri
Ġà¦ļ à¦¨à¦¤
current time
à¦° Ã¦
Ġke y
à¦ı à¦¦
Ġà§§à§¯à§® à§¦
Ġà¦ĩ à¦¸à¦¹
l ess
à¦Ł à¦¯
à¦ĩà¦¨ à¦«
Ġift artime
if y
Ġiftar sehritime
hab or
next date
se hrit
ift arts
currenttime flag
sehrit s
Ġt ry
pe ct
Ġ""+ ""
Ġ+" "+
à¦§ à¦¨à¦ķ
Ġc ard
Ġh ouse
ot a
Ġà¦§ à¦®à¦ķ
Ġà¦ıà¦ķ à¦ľ
m b
à¦² à¦¬à¦¨
Ġà¦ıà¦ĩ à¦°à¦ķà¦®
à¦°à¦® à¦ª
Ġex c
Ġà¦ĩ à¦Ľ
Ġà¦ıà¦ķ à¦ĸ
Ġeduc ation
à¦²à¦¨ à¦°à¦¤
Ġà¦ªà¦¥ à¦ļà¦²
Ġà¦īà¦ª à¦®à¦¨
Ġ ??
Ġà¦ħ à¦ķà¦²
Ġ< <
à¦ªà¦¨ à¦¦
er jee
Ġ3 7
Ġà¦ĺà¦° à¦Ł
à¦ļ à¦²à¦¤
f irst
à¦¹ à¦£
Ġà¦ĸ à¦¸
dis play
Ġkal er
um e
Ġpro ble
................ ................
à¦¤ à¦¬à¦¸
Ġg al
Ġm oney
Ġse lect
Ð ³
Ġà¦° à¦ľ
Ġ3 8
Ġà¦īà¦¦ à¦ĺ
Ġà¦¸à¦¹à¦ľ à¦²à¦Ń
Øª Ø§Ø¨
at ic
Ã §
à§ĭ '
à¦ª à¦®à¦¨
Ð ¹
Ġa lo
Ġc y
r ame
Ġm b
Ġin cl
Ġp lan
Ġam ader
à® ¤
Ġà¦Ĩ à¦¦à¦¨
Ġread ing
Ġs r
ã Ģ
à¦¨ à¦¬à¦¸à¦®
,, ,,
u v
à¦Ŀ à¦ķ
Ġa z
Ø ¢
au thor
w ar
Ġà¦ĸ à¦¤à¦®
Ġm g
Ġà¦® à¦«à¦¸
if ied
Ġ3 3
à¦® à¦ĵà¦¯
if ul
Ġà§§à§¯à§Ń à§ª
e ver
ot es
jv u
Ġà¦ħà¦¨ à¦¬à¦¦
à§° à¦ļ
Ġà¦ıà¦ķ à¦°à¦ķà¦®
à¦¾à¦ģ -
le g
Ġs n
Ġà¦ķà¦¤ à¦ľà¦¨
b an
Ġl ine
Ġsh ar
Ġal ways
Ġcl ick
à¦°à¦® à¦¬
à¦§ à¦¬à¦ª
Ġà§§à§¯ à§«à§¨
ag ong
à¦ħ à¦Ĺ
Ġcount ry
um ar
a ug
Ġà¦ħ à¦°à¦¬
Ġpop ular
à¤ Ł
à¦ľ à¦ĺà¦°
Ġà¦¡ à¦Ĺ
) [
à¦£ à§°
Ġ est
Ġd esh
z a
Ġà¦ªà¦° à¦Ĺà¦¨
Ġ$ ("#
Ġà¦¸à¦¬ à¦ķà¦Ł
Ġdel hi
Ġà¦ıà¦¸ à¦ķ
Ġà¦¬à¦ĩ à¦Ľ
Ġtechno logy
itt agong
Ġs om
Ġe uro
ers h
up load
Ġin f
à¦ıà¦ĩà¦ļ à¦ª
widget s
Ġà¦Ĩà¦° à¦Ł
Ġà¤ ¶
Ġà§§à§¯à§® à§¬
à§® à§«
Ġfe el
à¦®à¦¶ à¦¤à¦¬
m edia
à¦§ à¦ľ
à¦£ à¦§
Ġc ry
Ġam az
à¦¾à¦ģ à¥¤
Ġà§§à§¦ à§§
à¦¨ à¦Ĺà¦£
et er
Ġâ ľ
Ġb oy
Ġm un
à¦® à¦Ĺà¦¤
Ġp ic
ire d
Ġà¦² à¦²
en a
Ġjob s
Ġà§§à§¦ à§«
à¦¾à¦Ĥ -
à¦¾ à§į
Ñ Į
à¦¶ à¦ªà¦¥
à§¨à§¦ à§¦à§Ń
à¦ıà¦® à¦ıà¦²
ur ance
Ġà¦«à¦² à¦ª
Ġà¦Ĩà¦Ĺ à¦²
à® ķ
at ha
à¤ £
âĻ ¥
ur a
st and
o ther
Ġret urn
à¦¤à¦° à¦«
à¦· à§°
à§¯ à§ª
% à¥¤
à¦ĩà¦Ł à¦®
bo x
à¦¬à¦¸ à¦¤
Ġ3 9
Ġà¦« à¦°à¦¯
à¦Ĺà¦¤ à¦ķ
à§ĭ ;
Ġà¦¬à¦¨ à¦¬
Ġk antho
as a
amar bangladeshonline
Ġm er
à¦Ĩà¦ĩ à¦Ń
Ġle g
d jvu
Ġwid th
file d
Ġ ide
Ġlang uage
ph et
sp ot
mar gin
Ġagain st
Ġaut o
à§¯ à§Ń
à¦²à¦¦ à¦¹
Ø§ Ø¹
à¦¿à¦Ĥ âĢĻ
ai la
Ġp en
Ġst ill
Ã ¼
Ġà§§ à§§à§«
à¦ĵ à¦ıà¦¸
Ġà¦¬à¦Ľ à§°
à¦ª à¦¦à¦¸
d aily
Ġhoss ain
Ġprote cted
Ġg ive
asy nc
âĢ º
à¦§ à¦²
Ġcit iz
Ġà¦Ĩà¦ľ à¦¬
à¦¾- à§ĩ
- "
Ġ à°
Ġà¦Ń à¦¨
Ġà¦ĩà¦¨ à¦ª
à¦¶ à¦®à¦¨
Ġà¦ľà¦¨ à¦®
Ġphot os
à¦¨à¦¬ à¦ª
Ġà¦Ĺà¦łà¦¨ à¦¤à¦¨
Ġà¦ı à¦§à¦°à¦¨
c ount
Ġà¦¶à¦° à§İ
à¦¸ à¦ıà¦ķ
Ġi i
Ġà¦® à¦°à¦¤
à¦°à¦¨ à¦¦
Ġle arn
har a
Ġpro ject
aj pur
iz ation
gr ound
Ġà§¯ à§¦à§¦
ro ss
so ft
ÑģÐº Ð¸
Ġà¦ħà¦§ à¦°
cont ainer
Ġà¦ķà¦² à¦¹
Ġà¦Ĩ à¦Łà¦²
à¦ª à¦ªà¦¤
Ġwrit ten
à¦¯ à¦¹à¦¤
th ers
Ġà¦¹ à¦¦
Ġk am
Ġà¦¬à¦ķ à¦¶
Ġb ikroy
à¦Ĺ à¦®à¦ķ
Ġà¦® à¦Ł
ĠâĻ ¦
Ġà§§à§¯à§¯ à§©
Ġbet ter
Ġà¦¦ à¦ĸ
Ġ( *)
d a
Ġà¦īà¦² à¦Ł
à¦ª à¦ķà¦°
à¦¦à¦¨ à¦Ĺà¦°
à¦¼ âĢĶ
Ġà¦¹à¦² à¦¦
te ch
Ġà¦ªà¦¦ à¦ª
Ġcateg ories
Ġà¦Ĺà¦£ à¦ľ
Ġin c
à¦°à¦¥à¦® à¦Ł
à¯ ģ
ro p
Ġmy s
i um
vide os
Ġà¦² à¦¬à¦¨
Ġà¦«à¦² à¦¸
Ġf lat
pre vious
5 00
oo oo
Ġsynd icate
o j
à¦¦ à¦®à¦¯
Ġe lect
m f
Ġch and
à¦£ à¦Ł
Ġk habor
t imes
Ġ\ (
Ġà¦¨à¦ĵ à¦¶
à¦ı à¦Ľ
k v
à¦° à¦Ŀ
Ġpro phet
Ġà¦ı à¦ĺà¦Łà¦¨
Ġsou th
are a
p ns
we en
Ġà¦° à¦ĵà¦¯
Ġà¦Ĩà¦ĩ à¦ĩà¦¡
Ġà¦Ĺ à¦«
à¦¹ à¦ľà¦¨à¦ķ
à¦· à¦ľà¦¨à¦ķ
Ġà¦ĩ à¦¶à¦°
is ha
Ġà¦®à¦¨ à¦®
Ġà¦ıà¦®à¦¨ à¦ĵ
Ġà¦ĵ à¦Ĺ
Ġà§§à§¨ à§®
Ġap plic
à¦ķà¦Ł à¦²
à¦®à¦® à¦Ń
Ġk ind
Ġb arta
à¦ı à¦Ń
Ġà¦¦ à¦°à¦¦
Ġr up
Ġab u
Ø¨ ÙĬ
Â «
Ġtech tunes
Ġà¦¸à¦¹ à¦¨à¦¶
Ġ3 00
sy lhet
Ġt ext
Ġà¦Ĩà¦Ł à¦ľà¦¨
à¦ĸ à¦¦
Ġà¦ª à¦¢
Ġf ac
Ġà¦ħà¦² à¦¸
Ġl ight
à¦ĩà¦¸ à¦Ł
l ing
col or
Ġb is
Ġà¦Ĩà¦ĩà¦¸ à¦ķ
6 00
! âĢĿ
Ġp at
mo ve
Ġà¦Ĩà¦² à¦¸
fil lelementwithad
à¦Ń à¦¦
Ġà¦¤ à¦ķ
p ed
re l
Ġà¦ħà¦ª à¦Ľà¦¨
à§¯ à§¨
Ġo k
Ġeng ine
b ang
à¦¼à§ĩ âĢĻ
Ġch od
Ġhapp y
à¦ĩà¦ī à¦ª
Ġdur ing
Ġà¦® à¦ĵà¦ķ
Ġà§§à§¯à§® à§ª
à¦Ł à¦°à¦¦
à¦ĸà¦¨ à§°
Ġp lace
Ġsh o
Ġf ood
en e
Ġche ck
à¦¸ à¦ĸ
Ġd u
à¦ī à¦Ľ
f ish
la sh
Ġà¦ļà¦ķ à¦ļà¦ķ
d ing
à§± à¦²
à¦ĩà¦ķ à¦Ĺ
à¦²à¦Ľ à¦¡
Ġs ize
h er
Ġsc reen
Ġf ast
Ġà¦§ à¦²
Ġar t
Ġà§§à§¦ à§®
ag ar
Ġà¦¸à¦¬ à¦®
Ġv ir
Ġpr ay
Ġa ff
Ġà¦Ĩà¦² à¦Ĺ
tim er
à§ĩâĢĻ ,
Ġyou tube
à´µ à´
ur an
Ġà¤ ľ
à¦¬ à¦ªà¦°
à§¯ à§©
j query
Ġà¦¸ à¦ĵà¦¦
à¤ ļ
à¦¼à§ĩ ?
d i
cl one
à¦¸à¦ıà¦¨ à¦ıà¦®à¦ıà¦ķ
Ġà¦Ĩà¦ĩ à¦¬
Ġà¦« à¦²à¦ķ
. âĢĿ
k r
Ġm ot
' +
à¦ĵ à¦¸à¦¹
Ġà§§à§¯ à§ªà§®
Ġb a
ĠÙĪ Ø§ÙĦ
ion e
Ġst op
à¦ªà¦¨ à¦ķ
à´ °
Ġbel ie
Ġà¦īà¦ª à¦¡
pr int
ic tion
Ġre search
à¦¾.) -
Ġà¦ħ à¦ľà¦¸
y ou
à¦°à¦¬ à¦§
Ġg od
Ġà¦Ĩà¦¬ à¦°à¦£
Ġcomp uter
m t
Ġam eric
m c
à¦¥ à¦ĩ
Ġà¦Ĺ à¦¹à¦¨
Ġà¦Ĩà¦° à¦¸
Ġislam ic
m ore
Ġâ Ī
re t
b all
end to
à¦£ à¦¬à¦¨
Ġro ad
Ġà¦« à¦£
Ġà¦¨ à¦ķà§°
à® ¾
Ġas h
Ġà§§à§¬ à§ª
Ġro y
Ġspe cial
h n
le te
Ġbet ween
/ ?
Ġà¤ ħ
à¦ľ à¦Ĺà¦¤
is ing
log ies
à¦¼ /
Ġh ref
Ġd ar
Ġsc ience
i la
w ay
Ġpak istan
à§¯ à§§
Ġà¦ıà¦ĩ à¦¡à¦¸
Ġà¦ħà¦¥ à¦°
à¦¬à¦¸ à¦¨
à¦· à¦¬à¦°à¦£
Ġà¦ħà¦² à¦Ĩà¦īà¦Ł
Ġà¦ľà¦¨ à¦®à¦¨
à¦ļ à¦¤à¦²
Ġà¦Ĺà¦¤à¦¬ à¦Ľà¦°
Ġun ited
Ġà¦¸à¦® à¦ªà¦°
Ġso cial
à´ ±
Ġ4 2
à¦¨à¦¦ à¦£
Ġt alk
Ġpro v
Ġà¦Ŀ à¦²
à¦° à¦¨à¦¤
Ġgirl s
og gle
Ùı ØĮ
er ies
Ġà¦Ĩ à¦°à¦ķ
à¦¦ à¦°à¦ķ
Ġf amily
à§Ģ .
Ġc ore
Ġ1 10
ust om
time out
Ġcolle ge
Ġde fin
\ )
Ġc hak
ðŁ ĺ
f rac
Ġn ar
at imes
he ad
Ġà¦Ĺà¦£ à¦¬
s ch
Ġà¦¡ à¦°
ir d
à§į -
à§ģ âĢĺ
à¦ı à¦²à¦¸
Ġth ings
Ġsex y
à¦²à¦¤ à¦¦
Ġcontin ue
Ġdis qu
Ġpr om
Ġph arm
... -
à¦¹ à¦¨à¦¬
ot s
Ġà¦¬ à¦¦à¦¨
à¦Ĩ à¦¡
> <
Ġà¦° à¦®à¦¯
Ġ( @
Ġà¦¯ à¦¬
à¦¿à¦Ĥ à¦ĥ
ab e
Ġht ml
xxxx xxxx
b it
à¦®à¦Ĺ à¦¡
Ġar ticles
à¦°à¦£ à¦Ĺ
scroll top
Ġarticle à¦ª
itt le
Ġà¦Ĩà¦¸ à¦¨à¦Ł
Ġp al
k ha
Ġà¦ħà¦¸ à¦ļ
off set
Ġà¦ĩà¦¨ à¦Ł
Ġà§§ à§§à§¬
Ġ15 0
s ub
ik h
in ing
Ġà§§à§¦ à§¨
Ġj e
Ġpre vloc
Ġal i
Ġf a
à¦¦ à¦ľ
Ġy es
Ġâ ĺħ
Ġass am
Ġb ody
Ġboo bs
à¦Ł à¦Ĺà¦²
à¦£à¦ª à¦¦à¦ķ
or ized
à¦ħ à¦ľ
Ġmus lim
à¦¯ à¦ŀ
Ġqu ality
Ġlo w
à§° à¦Ń
e ach
st oggle
à¦¬à¦¨ à¦§
Ġdisqu stoggle
Ġà§§ à§§à§Ń
à¦²à¦ķ à¦ª
Ø ¤
Ġà¦Ĩ à¦¯à¦®
6 40
ph one
48 0
Ġk a
Ġà§§à§¯à§¬ à§¯
à§ĩ (
Ġà§§à§¯à§® à§®
à¦ıà¦¸ à¦ıà¦²
Ġpr in
Ġcitiz en
Ġpo s
empt y
à¦¸à¦® à¦¸
Ġinter est
à§Ģ ;
à¦ıà¦« à¦¸
Ġn ice
Ġ5 5
Ġà¦ıà¦ķ à¦¤à¦°à¦«
t tr
à¦ĩà¦ľ à¦ķ
à¦ĩà¦² à¦Ĺ
Ġl and
Ġp ict
im age
à§ĩ ),
à§® à§©
ÙĬ ÙĦ
Ġk eep
but ton
Ġf ire
Ġgener al
Ġà¦ıà¦« à¦¸
} {
à¦°à¦ķ à¦¨
Ð ±
h h
à¦ª à¦°à¦ķ
ÑĢ Ð°
Ġà§§à§¯à§® à§¨
à¦Ĺ à¦¨à¦¸
Ġà¦ħà¦¸ à¦¤
Ġs rc
à¦Łà¦ķ à¦®à¦ķ
à¦· à¦°à¦¤
Ġà¦¸à¦° à¦ĵà¦¯
ant s
Ġà¦Ĩà¦¸ à¦¸
Ġà¤ Ń
Ġte am
Ġpol ice
p an
à§° à¦§
Ġc ode
à§į ...
y n
à¦°à¦ªà¦° à¦ĩ
Ġim ages
Ġhum an
Ġà¦ıà¦² à¦ĩà¦¡
en n
c ing
ard s
à¦¯ à¦²
ap an
ham ster
Ġmus ic
Ġn on
Ġà¦¸à¦° à¦·
am an
Ġà¦ļ à¦ĵà¦¡
Ġà¦ıà¦ķ à¦ĩà¦¸
Ġà¦¤ à¦°à¦ķ
à§Ģ (
Ġà¦ķ à¦¦à¦®
à¦ĩ à¦ªà¦°
Ġà¦ľà¦¨ à¦ĩ
Ġà¦¤ à¦ķà¦®
Ġà¦¨ à¦²à¦ķ
Ġquest ion
à§ĭà¥¤ âĢĿ
à¦¬à¦² à¦ĩ
à¦¨ à¦Łà¦¨
le ave
h ind
Ġc ase
à¦¸ à¦ĺ
Ġ4 3
Ġà¦Ŀà¦² à¦®à¦²
Ùĥ ØªØ§Ø¨
Ġà¦Ĩà¦² à¦®à¦ķ
Ġà§§à§¦ à§¬
Ġu k
Ġà¦° à¦ľà¦¬
red it
à¦Ĩà¦° à¦ıà¦®
tw it
à¦¹ à¦ªà¦°
Ġà§§à§¯à§® à§¯
Ġor gan
Ġà§§à§¯à§® à§§
Ġarticle à¦®
7 30
j a
l it
Ġeff ect
à§ĥ -
Ġà¦Ĩà¦² à¦ľ
à§ĩà¥¤ à¥¤
à¦Ĺ à¦¯
Ġtw eet
Ġc up
Ġà¦¬à¦¸ à¦¤à¦¬
b uy
à§® à§¬
à¦¸ à¦ķà¦°
à¦Ĺà¦¤ à¦¦
Ġbu ild
Ġ???? ??
"] ').
ment s
^ ="
Ġtechno logies
Ġ200 7
à¦ª à¦§
conom ics
c le
à¦ıà¦¸ à¦ı
Ġà¦ĩ à¦ķà¦°
Ġp ut
' :
Ġà¦ı à¦ĸà¦¤
Ġà§§ à§§à§ª
Ġfuck ed
Ġcl ub
à¦·à¦£ à¦¶
id es
Ġ Ñģ
à§© à§¦à§¦
Ġà§ª à§«à§¦
Ġà¦ıà¦¸ à¦ı
om an
Ġf ont
à§İ à¦ĩ
Ġcon st
dfpad rhs
Ġà¦¹ à¦īà¦ķ
à§ª à§¦à§¦
Ġj a
Ġà¦® à¦¦à¦¦
Ġh ack
à¦ļà¦² à¦Ł
Ġà¤ ¦
c an
à¦ĩà¦Ł à¦ĵà¦¯
k o
Ð ·
ver t
qu o
à¦ľà¦® à¦¹à¦²
m ission
Ġdin ajpur
Ð ¿
Ġà¦ħà¦ªà¦¹à¦°à¦£ à¦ķ
à¦¨à¦® à¦£
Ġà§§à§¯à§® à§©
à¦Ĩ à¦¨à¦¨
& #
Ġà¦¨ à¦«à¦²
à¦¯à¦¸ à¦Ń
xx x
Ġà§§à§¦ à§ª
m en
à¦ĩà¦¡ à¦²
Ġsoft ware
à§ĩ ....
Ġs ale
, ...
ed s
ur ren
à¦ļ à¦ķà¦¦
Ġà¦ıà¦ĩ à¦ļà¦Ł
ist s
yout ube
Ġà¦ıà¦¸ à¦ĩà¦ĵ
Ġà§ª à§¦à§¦à§¦
à¦¬ à¦¶à¦ķ
à¦¡ à¦¹
à¦Ĥ à¦ĥ
Ġlo ck
Ġà¦ķ à¦¸à¦¬
ĠØ º
Ġde ath
Ġte ach
Ø§ Ùģ
Ġà¦«à¦² à¦¶
Ġà¦¸à¦¦à¦° à¦ĺ
Ġà¦Ĩà¦ĩà¦¨ à¦¸
Ġà¦² à¦ĺ
Ġà§§à§ª à§ªà§¦
à¦¡ à¦¸à¦¹
ic a
à¦² à¦¹à¦ľ
à¦¹ à¦ĩ
à¦ĩ à¦ŀ
à¦¬ à¦ļà¦°
it o
à¦¡ à¦īà¦ĩ
i ya
à¦ķà¦¸à¦¬ à¦ľ
Ġm ac
Ġà§¨à§¦ à§©à§¦
Ġl ittle
à§Ģ âĢĿ
Ġd ist
Ġg b
Ġà¦ľà¦² à¦¦à¦¸
Ġà¦Ĺ à¦Ĺ
à¦ł à¦Ĺà¦¡
Ġw el
Ġre st
à§® à§¯
à¦¤ à¦ķà¦¤
Ġà¦ıà¦ķ à¦ķà¦Ń
Ġqu ick
Ġà§° à¦ķ
à§® à§¨
c el
Ġà§§à§¦ à§©
Ġà¦° à¦Ł
Ġt re
à¦¤à¦Ń à¦°
Ġm r
Ġcamp us
Ġresp ons
Ġà§§à§¯à§Ń à§¯
ab ad
à¦ľà¦¨ à¦Ĺà¦°
Ġà¦Ĩà¦Ĺ à¦°à¦¤à¦²
Ġ4 9
Ġà¦ıà¦ķ à¦§à¦°à¦¨
Ġà¦ķà¦®à¦¨ à¦ĵà¦¯
à¦°à¦® à¦ķ
ograph y
Ġnor th
iy e
à¦·à¦£ à¦Ĺ
âĻ ¦
Ġprof ess
Ġap ps
ĠØ ¢
Ġcon sole
et s
Ġt k
à´ ¤
Ġà¦īà¦ª à¦®
c b
it ch
en cy
Ġsome thing
f ig
Ġn ight
Ġà§§ à§§à§©
j e
Ġfo ot
à¦² à¦Ĺà¦°
à§į à¥¤
à¦§ à¦¡
Ġà¦Ĩà¦īà¦Ł à¦²
à¦ħ à¦¸à¦®
à¦ªà¦¨ à¦¬
Ġà¦®à¦¹ à¦¤
Ġ' ';
ra p
Ġme an
er ing
b and
t rue
o le
aila ble
à§® à§Ń
categ orized
Ġf lo
Ġm ak
à¦§ à¦ªà¦°
à¦¬ à¦¹à¦°
à¦°à¦¤ à¦¤
ip e
à¦¶ à¦ļ
Ġà¦¥ à¦²
Ġm aj
Ġ4 4
à¦®à¦ķ à¦Ń
Ġà§§à§Ń à§¦
Ġà¦Ĩà¦ļà¦°à¦£ à¦¬
Ġà¦ıà¦² à¦¬
à¦°à¦¤ à¦¨
Ġch ittagong
Ġvo ice
ill s
à¦¹à¦¨ à¦ª
Ġà¦® à§°
Ġmod i
Ġj on
Ġb al
à¦¦à¦ķ à¦¸à¦¹
vide o
s on
à¦²à¦¤ à¦ķ
Ġ ......
Ġà¦® à¦ľà¦¨
à¦¡ à¦¡
d ra
à¦ĩ à¦ľà¦¨à¦ķ
Ġà¦ħ à¦Łà¦²
Ġà¦Ŀ à¦°à¦¨
crip tion
Ġà¦®à¦¨ à¦¨
r ad
Ġan g
Ġmin ister
à¦¾ âĢĿà¥¤
Ġg ame
Ġà¤ µ
Ġà¦Ĩà¦¦ à¦¤
Ġsomoy news
à¦¾à¦ĥ) -
Ġ4 7
us sy
le as
à¦¸à¦ķà¦² à§°
Ġà¦ħ à¦¦à¦®
à¤ Ń
à§® à§ª
Ġà§§ à§§à§®
Ġà¦¦à¦® à¦ķà¦²
Ġpr iv
- '
ul lah
Ġà¦® à¦Ĺà¦ľ
Ġà¦ªà¦¥ à¦¸à¦Ń
àµ ģ
Ġm s
t f
à¦§ à¦¯
à¦¦ à¦¬à¦ª
Ġinst it
Ġc ame
Ġà§§à§¯à§® à§Ń
Ġà¦Ĺà¦£ à¦Ń
Ġs angbad
{ {
Ġà¦ľ à¦®à¦ķ
Ġà¦¬à¦² à¦Ł
Ġà¦¦à¦°à¦ªà¦¤ à¦¨
Â ¬
à¦°à¦¹ à¦¸
op en
Ġà§§à§¯ à§«à§¦
Ġà¦ıà¦ķà¦¦à¦® à¦ĩ
Û ģ
à¦ī à¦¦à¦ķ
ou ch
à¦ªà¦¨ à¦Ĺà¦°
à¦Ĩà¦° à¦Ĩà¦ĩ
Ġm ur
blog spot
Ġte en
à¦§ à¦ĩ
à¦§ à¦¸à¦¹
Ġp an
Ġ ess
Ġà¦¤ à¦ĵà¦¬
à¦ıà¦¸ à¦ķ
à¦ı à¦Ĺ
Ø ¡
à§ĩà¥¤ ...
Ġe ach
à¦ĸ à¦ķà¦°
à§ĩ à§ĩ
Ġà¦ľà¦¨à¦ª à¦¥
à¦¨à¦¸ à¦ķà¦²
f alse
à¦ķ à¦¸à¦®
la s
# #
Ġte le
sc ri
1 01
à¦¤ à¦£
à¦°à¦® à¦¹
? "
Ġà§§à§¯à§® à§«
Ġdiffer ent
à¦§ à¦ķà¦°à¦£
à± ģ
uf act
Ġà¦¬ à¦īà¦¯
Ġm ax
il y
Ġà¦ľà¦¨ à¦¬
Ġcomp any
e k
p ert
ific ation
à§® à§§
v w
à¦¨ à¦īà¦¦
Ġà§§à§¦ à§Ń
à¦¥à¦° à¦ĺ
à¦Ĩà¦ĩ à¦ıà¦®
Ġban erjee
Ġget ting
Ġà¦ĩà¦Ń à¦Ł
ur ity
Ġà¦Ĩà¦Ĺ à¦¬
Ġà¦ĵ à¦¸à¦¬
Ġt im
p ol
Ġà¦Ń à§°
Ġm em
or a
Ġà¦ı à¦®à¦°
Ġà¦ĩ à¦®à¦¦
â ĺħ
à¦°à¦£ à¦ĵ
à¦¼à§Ģ -
Ġporn o
Ġ4 6
Ñ ĩ
ay a
Ġarticle à¦ķ
Ġk r
ah ar
bra in
Ġà§§à§¯à§¬ à§¦
af il
Ġà¦¨ à¦°à¦ķ
Ġglo bal
ed u
ĠØ Į
> </
Ġà¦Ĩà¦ª à¦¸
à¦¼ âĢĻà¥¤
à¦¤à¦¨ à¦Ĺ
Ġen joy
) (
Ġà§¨ à§¨à§¦
Ġchar act
à¦§ à¦Ĺà¦®
Ġcor onavirus
Ġj am
Ġà¦Ĩà¦¬ à¦Ľ
Ġjournal ism
Ġv e
Ġpro cess
à ³
] ;
à¦· à¦¹
h ref
Ã Ĺ
à¦¼ '
Ġtool bar
x y
Ġà§§à§¯à§Ń à§®
Ġà§§à§ª à§¨à§©
Ġà§§à§¯à§Ń à§¬
et a
co x
Ġth u
loc ation
Ġstud y
à¦¬ à¦ķà¦²
v a
ke y
Ġà¦ļà¦¨ à§°
à¦ħ à¦¶
à¦¼ âĢĿ
Ġa ust
Ġà§§ à§§à§¯
c or
à¦°à¦¸ à¦«
b u
Ġmed ical
Ġt our
scrip tion
à¦ĩ à¦®à¦¨
ri es
à¦¼à¦¾ ...
Ġà¦īà§İà¦¸à¦¬ à¦®
± ÙĦ
Ġc ustom
---------------- ----------------
un t
Ġcong ress
Ġà¦° à¦ĺ
Ġb lock
com m
Ġà¦¹à¦ķ à¦ķ
Ġs ad
à¦ħ à¦¬à¦¸
is ion
à¦¼à§ĩ )
Ġh r
à¦®à¦¸ à¦ľ
à¦łà¦ķ à¦ķ
à¦ª à¦¸à¦¹
lo s
it er
à¦Ĩ à¦Ł
Ġà¦ļà¦°à¦® à¦ªà¦¨
Ġo per
ie f
Ġus ing
à¦ĵà¦² à¦ľ
Ġright s
Ġp ione
Ġà¦¸à¦¨à¦¦ à¦ªà¦¤
Ġà¦ĩà¦ī à¦ıà¦¸à¦¬
à¦Ļ à¦°
to day
Ġh air
à¦ıà¦« à¦ª
Ġà§§à§¯à§¬ à§¨
Ġà§§à§¦ à§¯
Ġbo x
Ġm t
Ġà¦¸à¦¬ à¦ĸ
v r
Ġà¦¸à¦° à¦«à¦°
Ġà¦® à¦¥
ov id
à¥¤ )
Ġm ult
à¦£à¦¬ à¦Ļ
sha hi
Ġbr and
Ġ1 20
à§İ à¦¬
Ġs ure
à¦¬à¦¤ à¦ĩ
Ġf ace
à¦²à¦¨ à¦®
Ġg old
fer ence
Ġsh op
Ġà¦¦ à¦²à¦¨
à¦¶ à¦¸à¦®
à¦Ĩ à¦ĩà¦ķ
Ġà¦¦ à¦®à¦ķ
Ġav ailable
à¦Ĺ à¦Ńà¦¬à¦¨
Ġth ree
à¦¤ à¦¸à¦®
Ġà¦® à¦ł
Ġb azar
Ġt om
ul ation
Ġcour t
Ã ³
Ġem p
à¦°à¦² à¦¸
ad em
à¦ĺ à¦¶
p op
Ġà¦Ĩà¦² à¦Ł
, '
à¦ķà¦¶ à¦ª
Ġà¦ª à¦¦à¦¸
is tic
$ ('.
Ġex per
à¦ıà¦® à¦ıà¦ĩà¦ļ
Ġk on
p ly
Ġà¦¶ à¦°à¦¬à¦¤
Ġà¦ļ à¦¸
Ġ .....
Ġà§§à§¨ à§©
um p
à¦¾ *
Ġan other
à¦¾? âĢĻ
upload s
wor ld
Ġcor re
Ġh ope
c m
Ġsong bad
Ġear th
à¦§à¦¨ à¦¶
Ġm iss
g l
inst agram
Ġà¦ľà¦¨à¦ķ à¦£
Ã «
Ġà¦¯ à¦ľ
Ġr u
Ġd om
Ġpione er
v ers
Ġà¦® à¦Łà¦°
d y
à¦ĩ à¦ªà¦²
g ing
Ġmod el
Ġà¦ħà¦² à¦Ļ
Ġb and
Ġà¦ªà¦¥ à¦Ł
Ġà¦¡ à¦Łà¦ķà¦®à¦ķ
Ġman ag
Ġà¦¸à¦¹ à¦¨
à§° à§±
Ġà§§à§« à§¦à§¦
Ġpo ss
Ġb bc
Ġà¦ı à¦ıà¦¸à¦ª
\" \
Ġ9 9
Ġà¦¶ à¦¤à¦°
à¦¾ ..
Ġyou ng
Ġoffic ial
à¦Ī à¦¶
Ġà¦¸à¦¹ à¦§à¦°
à¦¾à¦ĥ -
Ġf em
urren cy
xxxxxxxx à¦«
h um
val ue
à¦°à¦« à¦ķ
à¦ł à¦Ń
Ġh oy
Ġà¦ħà¦¸ à¦Ļ
d om
ä ¸
à¤ Ľ
Ġ" .
Ġà¦ĵ à¦Ĩà¦ĩà¦¸
i or
201 0
s f
itt ed
c opyright
à¦¨ à¦¬à¦°
Ġm ind
d ition
s un
Ġ ........
Ġà¦¸ à¦²à¦®à¦¨
Ġman ufact
Ġwh ite
à¦¨ à¦Ĩà¦ªà¦¨
v ing
w atch
à¦¨à¦ĵ à¦Ĺ
à¦§ à¦¤à¦¨
Ġp ack
Ġà¦ªà¦¦ à¦Ł
Ġact iv
à¦« à¦«à¦°
to gram
Ùĩ Ùħ
à¦ĩà¦² à¦°
Ġà¦®à¦¨ à¦¤
h d
Ġi r
Ġà¦ĩ à¦¬à¦¤
ob e
à¦Ń à§±
Ġrel ig
Ġà¦¬ à¦¤
aut op
Ġc ult
Ġ4 1
Ġch ud
Ġ5 2
Ġb lo
à¦ı à¦¯
Ġà¦ıà¦¤ à¦Ĺ
à¦ªà¦¨ à¦Ł
à¦¾ à§³
ou nc
Ġlo ad
Ġch ange
à§ĭ âĢĶ
ĠÐ ¿
à¦¨ à¦ħà¦Ń
< =
Ġ7 5
à¦Ĩà¦° à¦ıà¦¸
Ùĩ Ø§
à¦¯à¦® à¦ķà¦°
k ar
Ġà¦¬ à¦ĸà¦¤
s ol
Ġà¦ıà¦® à¦ıà¦¸
à¦Ĺ à¦¹
à¦° à¦²à¦¯
à¦· à¦ªà¦°
: -
ĠðŁĺ Ģ
st ate
Ġco ck
j i
Ġà¦¸ à¦¶
ic y
e conomics
Ġfe ed
à´ ¨
Ġb ur
Ġà¦ıà¦ĩà¦ļ à¦Ĩà¦ĩà¦Ń
à¦ıà¦« à¦¡
Ġà§§à§§ à§¨
Ġà¦ħà¦¨ à¦¸
Ġansw er
w a
v o
Ġà¦Ŀ à¦Ł
à¦Ĩ à¦¬à¦¦
. -
à¥ Į
Ġproble m
" )
à¦°à¦¹ à¦¸à¦¨
à¦Łà¦® à¦¹à¦²
Ġh al
Ġbir th
à¦īà¦¨ à¦ķ
Ġ6 00
Ġx hamster
Ġà¦ħ à¦¤à¦°
Ġl es
à¦Ń à¦¶
Ġï ´
Ġà¦ķà¦² à¦¸
à¦¤ à¦²à¦ķ
iv en
com à¦¸à¦ķà¦²
à¦Ĩ à¦¬à¦°
Ġà¦ĩà¦¨ à¦Ĩà¦ªà¦¨
english à¦Ĩà¦®
d n
Ġb on
ad min
Ġt ell
Ġn arr
à¦£ à¦®à¦¨
Ġincl ud
36 5
ak h
f ree
Ġà¦īà§İ à¦ĸ
tr ading
Ġh aving
s up
am ay
Ġo s
à¦ªà¦¨ à¦¹
Ġà¦īà§İà¦ķ à¦£
à¦ıà¦° à¦ªà¦°
Ġap k
Ġà¦® à¦°à¦ķ
r at
à¦Ĺ à¦¸à¦®
Ġsp ace
Ġ .........
Ġà§§à§© à§«
Ġà¦ļ à¦°à¦«
Ġv ai
Ġun categorized
t l
Ġspe c
Ġà§§à§¯à§¬ à§¬
à¦¾à¥¤ "
à¦«à¦° à¦Ĺ
Ġy e
Ġh on
Ġpres ent
( (
Ġ ^
Ġà¦ħ à¦²à¦ķ
Ġme et
à¦¤à¦¨ à¦Ń
à§ĩà¥¤âĢĻ âĢĻ
à¦Ĺà¦£ à¦ķ
or ial
âĢĶâĢĶ âĢĶâĢĶ
Ġà¦Ĩ à¦īà¦²
à¦¤ à¦ļà¦°
à¦Ĺà¦° à¦ª
m ir
Ġà¦ľà¦² à¦°
à¦¨ à¦ªà¦¨
à¦ªà¦¨ à¦²à¦Ĺ
à¦£ à¦ļ
com bikroy
à¦Ł englishà¦Ĩà¦®
ne y
à¦ħ à¦Ł
Ġser ies
Ġà¦īà§İ à¦ķà¦°
à¦ķà¦¦ à¦®
à¦¦à¦¬ à¦¦à¦²
Ġcol or
Ġent ry
Ġpart y
à¦¾ _
Ġpl us
à¦°à¦¹ à¦ķ
y es
à¦¸à¦¬ à¦ľ
or er
Ġc um
à® Ł
à¦® à¦Ĩà¦ªà¦¨
Ġà¦ĸ à¦¯
Ġsal ts
Ġà¦ľ à§°
" ;
à¦²à¦Ĺ à¦«
à¦Ł à¦¶
Ġà§§à§§ à§§
Ġs ah
Ġc la
à® ©
Ġà¦ļà¦®à¦ķ à¦ª
à¦²à¦¨ à¦Ĺà¦°
à¦°à¦ĩ à¦īà¦Ł
à¦¯à¦Ł à¦ķà¦°
Ġà¦¹ à¦°à¦£
y l
Ġaj ker
ch i
à¦ĩà¦¨ à¦ĺ
c ar
à¦°à¦¤ à¦¬
Ġacc ess
Ġà¦ļ à¦ª
Ġà´ ķ
à¦ľ à¦ķà¦¦
re st
Ġapplic ation
à¦¹ à¦ķà¦ķ
Ġh its
à¦¦à¦ķ à¦¸
à¦£ à¦ķà¦°
Ġsalts ide
f ri
à¦¨ bikroy
Ġwrit ing
à¦¨ à¦°à¦ķà¦®
à¦ª copyright
Ġà¦¹à¦² à¦°
à¦¤à¦° bikroy
à¦īà¦¬ google
Ġnow à¦®
Ġe conom
Ġmovi es
Ġro om
t ra
à¤ Ļ
Ġà¦° à¦®à¦£
Ġst ock
Ġà¦¤ à¦¦à¦¬
à¦ıà¦ĩà¦ļ à¦ĵ
Ġà¦Ĩà¦ĸ à¦¡
Ġe qu
à§¦ à§§à§Ń
oc i
Ġà¦¶à¦¹ à¦°à¦¤à¦²
à¦² à¦¸à¦®
Ġas ian
s ex
à¦¨ à¦¬à¦¸
Ġà¦° à¦¦à¦¬à¦¦à¦²
ed e
led ge
Ġl y
Ġm ach
c ast
n p
à¤ ł
sh an
à¦¡ à¦ľ
Ġà¦¬à¦Ł à¦¤à¦²
Ġmu k
Ġà¦ľà¦¨ à¦ķà¦²
Ġbit co
p ath
vis ion
arch ive
Â§ Â
trading economics
Ġbo th
Ġà¦ıà¦² à¦¡
Ġn av
lat est
Ġm ember
un ch
Ġmanufact ur
à§į à§į
Ġà¦Ŀà¦ķ à¦Ŀà¦ķ
us d
à¦Ĺ à¦¶
Ġà¦ĺ à§°
à¦ª à¦Ļ
com p
à¦ķà¦° à¦Ĺ
à¦ī à¦«à¦²
à¦ī à¦Łà¦¨
à¦¥ à¦ķà¦Ń
à «
Ġ ×
à¦¡ à§°
Ġd as
Ġed it
Ġap pe
Ġact ually
Ġà¦ıà¦ķà¦¨ à¦ľà¦°
à¦ĩà¦¸ à¦°
Ġp ussy
Ġansw ers
Ġà¦Ĩà¦¹ à¦¤à¦°
Ġt urn
er n
d ar
4 00
Ġà¦ħ à¦¦à¦ķ
à¦¨ à¦ľà¦°
Ġà¦Ń à¦°à¦¤
g est
à¦ĩ à¦Łà¦ķ
Ġc reat
and a
Ġp la
Ġà¤ Ĺ
Ġap pro
Ġ6 5
app endto
Ġsin ce
Ġà¦ĸ à¦ª
Ġà¦¬à¦¸à¦¤ à¦ĺà¦°
Ġà¦°à¦® à¦°à¦®
Ġ5 6
Ġatt ack
Ġà¦Ĩà¦² à¦ķ
Ġm ill
Ġth ing
à¦® à¦¦à¦ķ
in ation
Ġt ue
Ġà¦ħà¦¨ à¦Ń
à¦¬à¦° à¦Ł
j o
Ġv id
à¦Ĺà¦ł à¦¨à¦ķ
à¦²à¦ķ à¦¨
à¦¼à¦¾ ?
Ġnet work
u ff
Ġg l
à¦ķ à¦®à¦²
Ã £
à¦« à¦ľ
âĢĿ -
Ġ5 3
Ġâī £
Ġg ames
Ġà¦¹ à¦Łà¦²
Ġà¦Ĩà¦¶ à¦«
Ġask ed
is ed
n ar
ĠØ ²
z t
Ġg ang
is on
Ġà¦ı à¦ŀ
Ġà¦ªà¦¦ à¦®à¦°
à¦Ĩ à¦°à¦ĩ
à¦ľ à¦ªà¦°
Ġr ub
à´ ķ
Ġus a
Ġo thers
Ġl in
Ġà¦¡ à¦¬à¦²
à¦¦ à¦ĸà¦²
Ġb rit
Ġà¦ıà¦² à¦ª
cl us
Ġà¦«à¦² à¦®
ver val
bo ard
Ø§ Ùĥ
Ġà¦¸à¦ļ à¦°
dis qus
à¦Ĩà¦ĩ à¦Ĩà¦°
Ġh os
Ġg er
Ġà§§à§¯à§Ń à§Ń
à¦· à¦ªà¦¥
Ġà¦ĵà¦ªà¦° à¦ĩ
m u
à¦ıà¦ĩà¦ļ à¦¸
Ġà¦Ń à¦£
Ġh or
= âĢĿ
istr ict
Ġà¦¤ à¦²à¦¦
Ġà§§à§¯à§¬ à§Ń
ond on
Ġcomm on
à¦¥ à¦¡
Ġ5 4
ou d
1 10
Ġi ii
à¦Ľ à¦®
Ġà¦Ĩà¦ª à¦Ĺ
Ġnat ok
à¦ĵ à¦¬à¦¨
âĻ¥ âĻ¥
Ġg re
Ġass oci
Ġcont rol
Ġag e
Ġà§§à§¨à§¦ à§¦
Ø§ ØŃ
Ġà¦ķ à¦¤à¦¬
Ġà§§à§¯ à§¦
à§İ à¦ľ
read y
g gle
Ŀ ¤
Ġw ish
z y
Ġg a
Ġà¦Ĺ à¦ŀ
Ġà¦² à¦£
Ġà¦ıà¦ĩ à¦°
Ġar ound
idd en
Ġunder stand
à¦Łà¦° à¦Ĺ
Ġà¦¨à¦¬à¦¬ à¦§
Ġsec urity
Ġà¦¯ à¦®à¦ľ
n n
Ġse cre
st ore
Ġà¦ıà¦¸ à¦ķà¦²
à¦Ł à¦¡
ction s
Ġare a
Ġguy s
Ġre f
Ġtrans l
à¦¦ à¦¯à¦¨
à¤ ¥
is lam
Ġraj shahi
pro t
Ġà¦® à¦Ĺà¦¬
Ġà¦¹ à¦ĩà¦ļ
Ġmam ata
ĠØ¨ Ø§Ø¨
autop ager
Ġà¦ª à¦®
m r
Ġc a
Ġm ir
Ġà¦ħà¦¨ à¦¡
m od
Ġà¦¬ à¦ªà¦¨
à§° à¦®à¦£
Ġs ave
' ll
ident ifier
Ġcry pt
Ġf av
Ġà¦ľà¦¨ à¦¦
Ġb ed
ĠØ¨ ÙĨ
Ġà¦ħà¦¬ à¦¯
Ġf ut
Ġk ing
Ġà¦Ŀ à¦²à¦¸
Ġdig ital
Ġà¦Ĺà¦łà¦¨ à¦®
( $(
à¦ļà¦ª à¦¦à¦¸
à¦ľà¦ķà¦¤ à¦¤
Ġf ew
à¦¨à¦¬ à¦ľà¦®
u a
Ġbo ard
! )
Ġle ft
Ġcon f
... à¥¤
Ġ5 7
Ġh our
à§°à¦¤ à§°
Ġ4 00
Ġsm all
umb ai
re move
Ġà¦¥ à¦°
g irl
Ġ5 8
Ġà¦Ĩà¦® à¦²à¦ķ
Ġà¦®à¦¤ à¦ª
Ð° ÑĢ
Ġl if
à¦ª à¦¸à¦®
c ore
à¦¿ à§į
à¦ªà¦¤ à¦¨
Ġà¦¯ à¦¤à¦¬
e vent
Ġà¦® à¦°à¦Ĺ
Ġà¦ı à¦ıà¦ĩà¦ļ
st y
à¦¨ à¦ļà¦°
Ġà¦ľ à¦¬à¦°
i en
à¤ ¼
k ash
Ġet c
à¦ķ à¦ĸà¦¨
is amay
Ġn ob
es ome
à¦¿? âĢĻ
Ġà¦ħ à¦ĺ
Ġh ab
n ull
Ġ2 000
Ġrec ent
Ġsu ccess
Ġr ad
Ġbd fish
Ġce le
Ġs em
ant y
à¦¨ Ã±
Ġcas ino
Ġà¦¦à¦° à¦ĸ
à§® à§¦à§¦
Ġo il
Ġsub ject
tw ttr
Ġà¦ħà¦ª à¦¶à¦ķ
Ġf air
01 9
Ġ il
Ġvol ume
Ġy ork
Ġà¦Ĩà¦° à¦ıà¦¸à¦ıà¦¸
) âĢĻ
Ġà¦ıà¦¨ à¦Ń
à¦Ĺ à¦ķà¦°
ÙĬ Ø«
Ġamaz ing
m ay
us er
ins ert
Ġà¦īà¦ª à¦ķà¦®
Ġim g
à¦² à¦ªà¦¤
à¦¿ Â¤
Ġâĸ ł
Ø§ ÙĤ
Ġcent er
Ġt al
à¦¨à¦¤ à¦¤
à¦¶ à¦§
à¦¯ à¦¯à¦¨
Ġà¦Ĩà¦ĩ à¦ıà¦®
m ing
Ġq uran
Ġword press
fe ature
à¦¾ [
à¦īà¦ľ à¦¡
Ġà¦ķ à¦Łà¦¨
p arent
à¦Ĩ à¦Ĩ
tr ans
Ġà¦¨ à¦®à¦¸
Ġà¦¬à¦Ľà¦° à¦ĵ
Ġi q
à¦¬à¦¶ à¦¤
Ġà¦ı à¦Ĩà¦ĩ
Ġent er
à¦£ à¦¬à¦¯
Ġc ra
à¦²à¦ķ à¦¸à¦¹
Ġà¦Ī à¦¦à¦ķ
à§Ī à¥¤
u z
à¦¬à¦² à¦Ĺ
ĠÙĤ Ø§ÙĦ
ul y
b une
Ġw al
Ġà¦ı à§°
Ġso ci
Ġt ut
ĠØ§ÙĦ Ø´
qu ote
Ġà§Ń à§«à§¦
Ġà¦ħà¦² à¦ª
Ġco st
âĢ¡ `
ØŃ Ùħ
Ġsm art
Ġà¦Ĩà¦² à¦Ń
à¸ ²
Ġz o
à§ĩ _
à¦® à¦°à¦¨
à¦ľ à¦°à¦¤
à¦²à¦ķ à¦¡
Ġà§¯ à§¯à§¯
Ġà¦Ĩà¦¨ à¦ķ
à¦¾à¥¤ '
ug e
Ġset timeout
Ġà¤ ²
; \
à¦¨ à¦¶à¦Ł
Ġ5 1
Ġb b
Ġm ight
m it
Ġs end
âĢĻ !
k b
Ġwor ks
Ġprevious scroll
k g
à¦®à¦² à¦®à¦¤
k w
Ġà¦ļ à¦®à¦¤
r om
fri end
Ġà¦ı à¦¥
Ġà¦ħà¦¸à¦¹ à¦¯
f ire
Ġà¦ħà¦ªà¦° à¦Ł
Ġà¦¸ à§İà¦ķ
à¦ĸ à§°
down load
Ġfre sh
ĠÂ £
Ġà¦ħà¦¸ à¦®à¦¤
in ed
Ġc at
à¦°à¦Ľ à¦¡
l ight
Ġâ ŀ
Ġh i
id ge
Ġsecon d
Ġ$ ('#
Ġlo c
ĠÌ ĥ
à¦Ń à¦¤
Ġch rist
us ed
Ġà¦Ĺà¦¡ à¦«
Ġst ore
à¦· à¦ķà¦²
à¦ľ à¦¤à¦²
Ġd ou
à¦°à¦¤ à¦ķà¦°
Ġà¦¸ à¦ĩà¦¤
Ġà¦ħà¦¨ à¦¤
Ġp ot
Ġà¦Ĩà¦¨ à¦ľ
Ġdo g
Ġsp an
ri e
} #
Ġn am
ra h
Ġstart ed
Ġwel come
Ġ???? ???
h om
à¦¨ à¦Ľà¦¡
ro b
Ġà§§à§¯à§¬ à§«
Ġà¦Ĺ à¦«à¦°à¦Ĺ
Ġà§§à§¨ à§§
à¦ļà¦² à¦ļ
ug u
à¦Ĺ à¦°à¦¦
Ġà¦Ĩ à¦ĵà¦²
Ġjan abd
à¦®à¦¨ à¦ķ
à¦Ĺ à¦ľà¦¨à¦ķ
à¦Ľ à¦²à¦¤
à§° à¦£à¦¤
à¥ĩ à¤Ĥ
à¦Ł à¦ľà¦¨
à¦Ń à¦Ĺ
ur i
ing er
Ġà¦° à¦£à¦ķ
× Ļ
Ġinv est
Ġà¦¬ à¦īà¦ķ
Ġà¤ ļ
em a
à¦® à¦Ĺà¦£
Ġ5 9
à¦ī à¦ŀ
Ġà¦ķ à¦ĵ
Ġà¦Ĩà¦® à¦¬
ash i
Ġt ub
Ġà¦ķà¦° à¦®
Ġne ar
pe at
à¦¤à¦¨ à¦¶
n ov
it ive
à¦ĵ à¦¥
ig ation
Ġ7 1
Ġà¦¶à¦¹ à¦°à¦ķ
Ġà¦Ĩà¦ļ à¦°à¦¨
Ġg ul
d b
à¦¥ à¦¦à¦£
à¦¹ à¦ł
Ġc redit
Ġcox sbazarnews
à§Ģ âĢĻà¥¤
à¦¹ à¦¶
Ġis s
w an
if rame
Ġb ag
dh ury
Ġmo ther
Ġaust ral
e c
à¦ĸ à¦ļ
Ġcr ime
Ġqu ote
Ġà¦Ł à¦°à¦¨
à¦Łà¦¨ à¦ķ
Ġg reen
Ġd one
Ġp ain
Ġbook mark
h el
.) -
Ġà¦¹à¦² à¦«à¦¨
Ġs ent
Ġà¦ļ à¦°à¦£
Ġà¦¸à¦¹à¦ľ à¦Ń
ib r
Ġu nt
Ġd a
ÙĪ Ùħ
Ġde f
pub lish
à¯ Ī
Ġà¦¦à¦° à¦Ĺ
Ġch ang
Ġp ra
à¦¨à¦¤ à¦²
Ġà¦¨à¦¬ à¦Ĺà¦ł
à¦ĩ à¦¥
à¦¬à¦Ľà¦° à¦ĩ
Ġà¦®à¦¨ à¦¯
Ġ' );
Ġà§¨à§ª à§¦
Ġk umar
à¦·à¦£ à¦Ń
ĠâĤ ¬
á ¹
Ġlo cal
b re
ĠØ ·
Ġà¦¸à¦¬ à¦²
Ġserv ices
Ġn ay
Ġlook ing
Ġà¦¸à¦¹à¦® à¦¤
à¦¨ à¦§
Ġpro file
à¦¶ à¦ļà¦¨
Ġwa it
Ġà¦Ń à¦¸
à¦°à¦¬ à¦ķ
Ġg ov
Ġs en
Ġà§©à§¬ à§¦
Ġcour se
z d
ÙĬ Ø©
Ġà¦Ĩà¦¹ à§°à¦£
Ġd istrict
on i
ur b
à¦Ĺ à¦ļ
à¦īà¦¨ à¦Ł
à¦Ł à¦¸à¦¨
la c
Ġà¦ıà¦® à¦Ł
Ġm aking
g i
Ġarticle à¦°
à¦¬à¦° à¦¨
Ġpre v
Ġr ay
Ġra in
Ġcam era
ist ry
à¦¨à¦ĵ à¦Ń
b as
à¦Ĥ .
Ġj apan
à¦¹ à¦ĵ
Ġà§§à§© à§¨
Ġsk y
à¦ľ à¦ķà¦¨
Ġà§§à§¯ à§«à§ª
Ġà¦īà¦ª à¦ª
à§ĩ !!
à¦¶ à¦£
Ġtra vel
à¦¿à¥¤ '
Ġ- âĢľ
Ġa ch
Ġstr ong
à¥¤ -
b or
du ct
Ġinst all
Ġpar tic
Ġs or
Ġà¦® à¦°à¦¶
iv ed
à¦¹ à¦°à¦¨
1 20
bl ank
Ġdire ct
or ity
ĠÙ ±ÙĦ
Ġv otes
à¦²à¦¨ à¦ķà¦°
Ġà§¨à§¦ à§ªà§§
l er
Ġ} */
à§¨à§¦ à§¦à§¦
Ġà¦¶ à¦²
Ġres er
Ġà¦Ĺà¦² à¦«
Ġcan ada
Ġà¦ª à¦ļà¦¨
à¦¿) -
Ġme ans
à¦Ĩà¦« à¦Ĺ
Ġà¦¹à¦ĩà¦ļ à¦ĩ
à¦ļà¦² à¦Ĺ
Ġc opyright
st ar
******** ********
Ġfact ory
ms bd
Ġc ertain
Ġb ill
à¦¡ à¦¤
Ġcont act
k k
c at
ter s
ĠØ§ÙĦ Ø¹
Ġid ent
Ġnot e
Ġ3 60
Ġà§¨à§¦ à§¨à§¨
Ġins urance
Ġm m
Ġà¦ľà¦¨ à¦¶
Ġâ ĺ
Ġho st
an o
kh o
Ġd ra
are d
Ġs ob
iv al
Ġbanglanews paper
h as
Ġprot idin
Ġpr im
Ġs ide
ĠØ£ ÙĨ
Ġan im
Ġm atch
\ -
à¦² à¦¸à¦¨
or m
Ġà¦Ĺà¦² à¦¦
Ġà§§à§¯à§¬ à§ª
Ġp un
Ġà¦Ĩà¦ĩ à¦¸à¦²
p al
? !
Ġà¦ıà¦ķ à¦§
ad u
Ġ6 9
Ġà¦ıà¦¸à¦ıà¦® à¦ĩ
Ġse o
am ent
Ġl ar
Ġx videos
à¦¹ à¦¨à¦¤
à¦¡ à¦¦
à¦ķà¦Ł à¦°
à¦¨ à¦ĺ
0 01
à¦¾à¥¤ à¥¤
e ch
à¦£ à¦ĩ
lo y
à¤ Ī
à¦§à¦¬ à¦¦
à¦ı à¦ĩà¦¡
Ġb all
à¦¼à§ĭ ,
à¦¬à¦° à¦Ĺ
Ñģ ÑĤ
à¦¤à¦¨ à¦¬
ap ers
à¦ıà¦® à¦Ĩà¦ĩ
Ġà§¨ à§§à§¦
à¦¸ à¦®à¦¤
à¦ī à¦ªà¦¨
d im
t u
Ġà¦Ľ à¦«
y ear
Ġ Ñ
± Û
Ġle vel
ĠØ§ÙĦ Ø¯
Ġwom an
Ġà¦¡ à¦®
ersh omoy
à¦¡ à¦ĩ
Ġcrypt oc
Ġpharm acy
à¦¥ à¦ĵ
Ġà¦ıà¦ķ à¦ĺ
à¦¶à¦¨ à¦ĵ
Ġaw ay
Ġà¦ĺ à¦°à¦®
Ġc over
Ġl ondon
ol ution
Ġs uck
à¦¿à¦Ĥ )
in article
Ġmys msbd
à¦ĩ à¦®à¦°
à¦Ŀ à¦ªà¦¥
s ung
Ġc i
Ġà¥¤ âĢĿ
à¦² à¦®à¦°
it es
à¦ĩà¦¨ à¦ļ
g d
Ġe ast
Ġsa w
à§İà¦¸ à¦ķà¦ķ
Ġà¦Ĩà¦ľ à¦Ĺà¦°
à¦¯ à¦Ĺà¦£
Ġdhak atimes
à¦¤ à¦¡
à¦¨à¦¸ à¦ĩ
s d
à¦£ à¦¸à¦¹
Ġimport ant
à¦¬ à¦Ĺà¦¤
Ġà¦ħ à¦ªà¦ķ
à¦¶ à¦§à¦°
à¦ıà¦¨ à¦¡
Ġind ust
Ġcirc le
Ġcan cel
tag s
Ġà¦¬ à¦°à¦¦
ch ar
Ġe asy
à¦ī à¦ıà¦ĩà¦ļà¦ĵ
ĠÐ ²
à¦²à¦¤ à¦¬
Ġwon der
ĠØ§ÙĦ Øª
Ġmicro soft
rel ated
Ġhom esms
à¦¿? âĢĿ
à¦² à¦°à¦¦
Ġà¦Ł à¦¬
Ġà¦® à¦¬
à¦Ĩà¦° à¦ıà¦²
Ġm ass
ro om
à¦Ń à§İà¦¸
end er
Ġà¦Ľà¦Ł à¦«à¦Ł
Ġà§§à§ª à§«
Ġ à§ĭ
Ġpost next
Ġà§§à§¨ à§¨
id a
Ġà§§à§¨ à§Ń
à¦¾ à¦¿
Ġà¦ļ à¦£
v g
Ġà§« à§¦à§¦à§¦
Ġy et
Ġà¦Ĩà§° à¦ķ
id ed
à¦ĩà¦ī à¦¸
ÙĪ Ø¯
Ġsoci ety
Ġà¦ľà¦² à¦ľ
Ġ$ .
k ing
ok e
Ġà¦Ĩà¦° à¦¡
Ġsing h
à¥¤ ''
à¦ĩà¦¨ à¦Ĺ
Ġpro pert
Ġà¦ħà¦¨ à¦¬à¦°à¦¤
Ġà¦® à¦ķà¦°
Ġà¦ľà¦² à¦¦
Ġe isamay
Ġhe ight
à§Ģ ),
il led
Ġal low
op tion
à¦ĩ à¦¸à¦¹
à¦¦à¦¸ à¦ĩ
ah oo
Ġc ur
Ġn tv
à¦¯à¦¸ à¦ļ
h r
à¦ľà¦¨ à¦¸
Ġcryptoc urrency
Ġà¦ħ à¦ĺà¦Łà¦¨
Ġm ath
Ġà¦¡à¦² à¦«
Ġà¦¶ à¦¬à¦¨à¦®
ater ial
Ġp ad
à¦¾ ....
% ';
m ax
Ġl ess
Ġg row
Ġreview ed
Ġà¦ķà¦¤ à¦ĸ
are nd
. à¥¤
Ġc aption
à¦ķ à¦ªà¦ķ
ang le
Ġban ani
Ġc m
Ġiss ue
à¦ł à¦Ł
à¦ĩà¦« à¦īà¦¦
to ggle
Ġà¦ıà¦° à¦Ĩà¦Ĺ
Ġpolit ics
d c
cox sbazarnews
mo st
Ġhe art
Ġà¤ °
cial is
insert after
Ġà¦®à¦¨ à¦ª
our ces
est yle
à¦ĸà¦¨ à¦¤
ob t
ess ore
i que
k al
ott om
Ġà¦īà¦ªà¦¸ à¦ļ
ens ion
Ġà¦¸à¦¹à¦® à¦°
g g
Ġevery one
à¦°à¦¬ à¦ļ
Ġd etails
Ġw ife
% ;
à§¯à§¯ à§¯
Ġà¦Ľ à¦¹
à¦¼à¦¿ âĢĻ
Ġà¦¸à¦¬ à¦¦
Ġà§§à§¨ à§ª
":" ","
Ġs ug
Ġjo hn
à¦ĵ à¦Ľ
à¦¹ à¦°à¦ķ
v itra
Ġà§§à§¨ à§¬
Ġam ad
Ġà¦ļ à¦Łà¦ķ
Ġpur b
à¦²à¦ķ à¦¬
Ġg ra
à¦ļ à¦ľà¦¨à¦ķ
sp ort
Ġà¦« à¦¡
Ġupd ates
Ġà¦¸ à¦īà¦¦
Ġfr ont
à¦¤à¦ķ à¦¦
à¦¬ à¦ļà¦¨
so on
Ġt an
Ġà¦¹à¦¤ à¦Ń
aut o
v ement
ad ian
Ġà¦Ĩà¦ľ à¦®à¦²
Ġà¦ķ à¦ĩà¦²
à¦¨ à¦ħà¦¨
Ġep is
pri yo
t t
scri be
à¦ĵ à¦¹à¦°
Ġà¦ķà¦¦ à¦®à¦¤à¦²
pad ding
Ġa ction
Ġf an
à¦¶à¦ķ à¦ķ
à¦¾âĢĻ -
ak a
ser if
ed er
Ġà¦¤ à¦Ľà¦¨
Ġperson al
Ġà¦ĩ à¦¹à¦¸
Ġà¦Ĩà¦ĩà¦¨ à¦ķ
Ġm ast
à¦ĩà¦¸ à¦Ĺ
à§° à¦Ł
istr ation
à¦² à¦¬à¦°
Ġï´ ¿
à¦°à¦ķ à¦ķ
Ġ î
en ed
Ġà¦ıà¦ķà¦¬ à¦Ľà¦°
à¦ļ à¦²à¦¨
p ut
Ġus b
Ġcre ate
Ġà¦¸à¦«à¦° à¦°à¦¤
Ġb ash
à¦ĸ à¦Ĺ
cept ion
Ġà¦°à¦¥ à¦¯
à¦Ĩà¦° à¦ıà¦«
Ġhand le
Ġà§§à§¯à§¬ à§®
Ġde part
Ġà¦ħà§± à¦¶
Ġph ys
s al
à¦¤à¦® à¦¯
à¤ ĸ
Ġan t
à¦° à¦¬à¦¸
à¦ī à¦Ĺ
à¦·à¦£ à¦®
Ø§ Ø¬
à¦ķà¦ľ à¦®à¦ķ
Ġv alo
Ġpres ident
h ing
à¦¬à¦¶ à¦°
Ġ8 5
Ġmanag ement
à¦¬ à¦ªà¦ķ
Ġfore x
Ġà¦ĩ à¦£
12 3
à¦° à¦īà¦ĩà¦¨
à¦ª à¦Łà¦¨
Ġà¦īà¦ª à¦¶à¦®
Ġpr ic
Ġà§§à§Ń à§«
à¦ıà¦® à¦ķ
à¦« à¦°à¦®
Ġcomp lete
Ġdis like
' re
à¦ıà¦ĩ à¦ļà¦Ł
à§ĭ âĢĻà¥¤
t m
à¦¼à¦¾ à¦ģ
s pe
c w
re peat
Ġd an
az ine
Ġsam sung
Ġch ild
Ġà§§à§¯à§¬ à§§
Ġk ha
Ġa lam
, âĢĻ
Ġà¦Ĩ à§±
Ĥ ¬
à¦Ĩ à¦¹à¦®
Ġi bn
Ġo h
Ġhind i
Ġà¦¬ à¦Ĺà¦²
b ed
à¦ľà¦¨ à¦ĵ
Ġfut ure
à¦¶ à¦¶
à´µà´ ¸
v q
con fig
Ġ200 6
Ġf ight
cr im
à¦® à¦®à¦¨
Ġà¦ıà¦ĩà¦ļ à¦ª
Ġtem pl
Ġfollow ing
ÙĦ Ùĩ
Ġfriend s
à¦ĩ à¦°à¦¯
pos ition
à§ĩà¥¤ ''
Ġà¦ħà¦¨ à¦°
Ġre ce
] ],
for d
à¦¦ à¦¸à¦®
Ġlo ans
à¦ª à¦ĸ
Ġs an
f ect
à¦°à¦¹ à¦Ł
à¦ķ à¦ĺà¦°
Ġà¦ıà¦ĩ à¦Ĺ
Ġà¦¤à¦Ľà¦¨ à¦Ľ
Ġtr an
Ġt ai
Ġà¦¦à¦ĸ à¦²à¦ķ
à¦¬ à¦ĺ
Ġch ow
Ġk atha
Ġgu ide
à¦£ à¦ł
Ġà¦ĺ à¦Łà¦ķ
à¦ķ à¦Ĺà¦£
à¦ıà¦« à¦Ĩà¦ĩ
Ġpre scription
Ġ/ //
Ġarticle à¦¨
Ġt ur
m ob
à§± à¦¨à§°
Ùħ Ø§
à¦ıà¦¨ à¦Ł
on th
Ġfun ny
Ġ6 000
à¦ľà¦¨ à¦ª
Ġà¦ľ à¦²à¦ķ
k y
clus ive
Ġcons ider
Ġà¦ħà¦« à¦¸
Ġà¦ī à¦¶
w ater
Ġcommun ity
à¦¦à¦¨ à¦ĵ
à¦Ĺà¦£ à¦¤à¦¨
Ġ9 8
Ġvis its
à¦¸ à¦°à¦¨
Ġt un
il er
f s
ru ct
Ġs le
Ġà¦ļ à¦°à¦ķ
Ġs qu
g as
Ġup on
is al
à¦ľà¦¨ à¦Ĺà¦£
Ġà¦®à¦¨ à¦Ĺà¦¡
à¦ķà¦Ł à¦¸
ot al
Ġbl ue
h z
m us
h ow
Ġar r
à¦ĩ à¦¬à¦¨
Ġbeaut iful
; &#
à¦°à¦¹à¦£ à¦®
Ġp ast
Ġà¦ĭà¦£ à¦ĸ
Ġà¦īà¦² à¦Ļ
Ġb er
Ġà¦ªà¦¥ à¦¶
à¦°à¦² à¦¸à¦Ń
Ġtr ade
Ġà¦ªà¦¦ à¦¯
Ġà¦ķà¦¨ à¦¡à¦®
Ã °
à§Ģà¥¤ âĢĻ
Ġx d
l in
Ġthe me
Ġdes cription
Ġmed ic
Ġà¦ıà¦ķ à¦¹
enews bd
Ġdo ctor
Ġcal led
à¦ª à¦¦à¦ķ
fa q
à¦ħ à¦¯
Ġà¦īà¦ªà¦° à¦ĩ
à§ģ /
à¦¸ à¦¦à¦ķ
Ġm atter
Ġà§§à§¯ à§©à§¦
Ġà¦Ŀ à¦¨
à¦¦ à¦ĵà¦¯
Ġà¦ħà¦¸ à¦®à¦¯
Ġà¦¦à¦¶ à¦ľà¦¨
Ġbol lywood
Ġc Ã¶
Ġmo hammad
Ġc ell
Ġim p
à¦¼ "
Ġà¦¬à¦¨ à¦Ĺ
it i
à¦¯ à¦¶à¦¸
Ġy obt
Ġà¦ħà¦« à¦²
Ġj oy
à¦¾? âĢĿ
Ġkh obor
à§° à¦ª
à´ ¥
à¦¿ âĢĿà¥¤
Ġpost previous
à¦ł à¦°
à¦ľà¦¨ à¦ķà¦Ń
Ġà¦ħà¦¤ à¦Ł
à² ¨
Ġà¦ĵà¦ªà¦° à¦ĵ
Ġà§§à§ª à§¨
Ġà¦ĩ à¦ľà¦°
Ġà¦¦à¦² à¦¬
ÙĨ Ø§
à§¬ à§¦à§¦
Ġà¦ıà¦° à¦ĵ
Ġtop ic
rep lace
à¦®à¦¤ à¦ķ
Ġl iter
w hat
Ġà¦¶à¦¤ à¦¤à¦®
ad esh
à¦¯ à¦ªà¦Ł
s ans
à¦°à¦ķ à¦°à¦£
Ġp ract
Ġn ok
Ġmo der
à¦¿à¥¤ "
Ġà¦ıà¦ĩ à¦¦
à¦ĩ à¦ķà¦Ł
à¦¨ à¦ķà¦²
ind ian
à¦ªà¦¦ à¦Ĺ
p ital
Ġà§§à§¯ à§«à§¬
Ġà¦¹ à¦Łà¦¸
Ġadd ed
' ]
j on
Ġpar b
à¦¯ à¦°à¦¸
Ġch ildren
Ġp ab
Ġà§§à§¨ à§¯
Ġd ream
Ġà¦¶à¦°à¦£ à¦ĸ
Ġs ound
Ġà§§à§© à§¬
ab ly
à¦¨ à¦§à¦°
7 00
à¦· à¦¸à¦¹
Ġà¦ıà¦ıà¦« à¦¸
à¦§ à¦¹
amp le
Ġm or
Ġà¦ħ à¦¤à¦¨
Ġà¦ħà¦¸ à¦¹à¦¨
b ind
Ġs us
Ġ1 01
a ff
Ġam ong
aj ax
à¦¿à¥¤ à¥¤
Ġ// $('.
f ull
Ġw r
Ġà¦ĺà¦° à¦¬à¦¨
à§¨à§¦ à§¦à§¬
à¦¤ à¦§
à¦ĩà¦« à¦Ł
iv id
Ġd ut
à¦¼à§ĭ à¥¤
à¦¯à¦ľà¦¨ à¦ķà¦Ń
Ġa y
Ġs ut
Ġdo i
Ġà§§à§¯ à§«à§®
à¦ı à¦ķà¦¬
Ġà¦ĵ à¦¤
Ġà¦ıà¦¡ à¦ĵà¦¯
ish ed
m ary
Ġt reat
Ġà¦ħà¦¸ à¦Ń
Ġà¦ıà¦¨ à¦ª
Ġin cre
à¦¤ à¦ĸ
ams ung
Ġà§¬ à§«à§¦
u la
Ġar my
book s
à¦Ĺ à¦Ńà¦Ļ
Ġf our
Ġà§§à§¬ à§«
udd in
Ġà¦° à¦ļà¦¯
à¦¸à¦¨ à¦¬
Ġà¦¬à¦² à¦°
Ġà¦Ĩà¦¦ à¦¬
p i
Ġà¦Ł à¦Ł
Ġp ath
o logy
Ġa st
15 0
Ġà¦¤ à¦¬à¦²
sp ace
^ à¦¾
à¦¼à¦¿ à§³
Ġt um
Ġc and
m ud
v d
Ġk ort
v m
Ġà¦ª à¦¸
à¦¶à¦¨ à¦¸à¦¹
e y
Ġà´ ®
Ì Ħ
Ġcol lection
Ġlabel s
Ġo bs
à¦¯à¦¬ à¦¶à¦¤
ch a
à¦¯ à¦ªà¦ķ
Ġhow ever
Ġrec ipe
Ġà¦ıà¦® à¦ıà¦²
à¦¸à¦¹ à¦¯
ys is
Ġm c
à¦ĩ à¦²à¦¨
Ġben ef
à¦ļ à¦ĵ
Ġut tar
à¦ĩ à¦®à¦²
Ġany one
Ġsl ide
à§° à¦ľ
Ġeuro pe
ax y
Â ·
Ġà¦¤ à¦°à¦¬
Ø° Ø§
Ġà¦¸ à¦°à¦£
à§§ à§¨à§¦
à¦¿ à§ģ
Ġà¦®à¦¤ à¦Ń
Ã ª
Ġà§¨à§© à§¦
Ġd ol
Ġà¦ıà¦² à¦ıà¦¨à¦ľ
ou th
s amsung
à¦°à¦ĸ à¦°
7 28
à¦¾ !!
Ġà´ ª
pl at
à¦Ĭ à¦¦
er ror
Ġexc ell
Ġà¦ħ à¦¹à¦¨
à¦°à¦® à¦°
Ġg y
à¦Ł à¦°à¦¬
à¦ķ à¦ªà¦¥
c ia
à¦Łà¦° à¦°
Ġd en
ra j
Ġd et
Ġwor ds
Ġà¦Ĩà¦ĩà¦ıà¦¸ à¦ª
à§¦à§¦ à§¦à§¦
Ġà¦ľà¦¨ à¦¬à¦¹
Ġà¦¹ à¦ĩà¦¨
à¦¥ à¦ķà¦¤
Ġso fa
Ġt ru
Ġà§§à§« à§©
Ġà¦ĭ à¦¦
à¦°à¦ª à¦¥
!!!!!!!! !!!!!!!!
Ġà§« à§«à§¦
Ġ à²
ĠÐ ½
Ġt ouch
ĠØ§ÙĦ ØŃ
b ir
Ġà¦® à¦¶à¦ķ
Ġko tha
bt n
Ġinstit ute
ian s
à¦ħ à¦¬à¦°
Ġs elf
à¦ª à¦ľà¦²
Ġen c
ÙĢ ÙĢ
Ġon ce
Ġr at
Ġm at
la p
Ġà§§à§© à§Ń
Ġà¦ıà¦® à¦ıà¦®
à¦¸ à¦ŀ
Ġà¦Ĩà¦Ĺà¦¬ à¦¢
ath i
Ġà¦ĭà¦£ à¦Ĺ
à¦¾ &
Ġà¦¯à¦¤ à¦Ĺ
Ġw all
Ġamad ershomoy
à¦¬ à¦īà¦¦
ag oj
Ġà§° à¦ĸ
Ġà§§à§¯ à§ªà§¯
Ġc ad
Ġ6 7
und hara
Ġt ang
er o
ad h
Ġnarr ated
st at
Ġchat togram
z h
Ġcon dition
Ä į
à¦¶ à¦ªà¦¤
Ġg ar
n ect
à¦ıà¦ķ à¦ĩ
arend ra
ge ther
Ã ¤
à¦²à¦ķ à¦®
Ġ8 8
Ġv illa
Ġà¦Ĩà¦²à¦® à¦¡
ch im
Ġmu hammad
Ġj ah
Ġ ).
m et
Ġthought s
à¦ľà¦¨ à¦¬
Ġà§§à§© à§®
Ġn ak
à ¶
block quote
' ve
Ġmess age
Ġà¦¸à¦¹à¦ľ à¦¤à¦°
Ùİ Ù°
Ġ8 9
end ed
Ġp et
/ #
à¦¸à¦« à¦°à¦®
Ġa vi
à¦¯ à¦¦à¦²
Ġf el
Ġg az
Ġi phone
01 8
Ġà¦® à¦°à¦¬
Ġj ag
il i
à§§à§« à§¦
à¦® à¦¹à¦°
Ġa rab
Ġaw esome
à¦¦ à¦ĸ
om b
Ġà¦¨ à¦¸à¦°
. [
à¦¼à¦¾ ;
ure d
Ġ- >
Ġwork ing
ou ps
à¦° à¦Ĩ
à¦¤à¦° à¦Ĺ
al d
Ġde ad
Ġas ia
Ġm orn
Ġà¦«à¦² à¦Ł
à¦ıà¦® à¦ıà¦®
n m
Ġà§§à§© à§¯
land s
à¦°à¦® à¦¯
Ġà¦Ĩà¦ķ à¦¬
s ing
Ġst ates
Ġtri bune
Ġà¦Ĺ à¦¤à¦°
Ġsong s
,, ,
à¦ķ à¦ĩà¦¨à¦«
in cre
ĠÐ º
su ccess
........ ....
Ġm aster
Ġso on
re m
Ġà§§à§ª à§©
Ġà¦¸à¦° à¦Ĺà¦°à¦®
ha el
à¦¥ à¦ªà¦°
. ;
j ib
Ġà§§à§ª à§§
Ġg ay
ab angla
Ġgov t
Ġk ill
Ġ! =
Ġbelie ve
à¦¡ à¦¬à¦²
ord ing
à¦ľà¦¨ à¦Ł
à¦¸à¦¬ à¦ķ
à¦¸à¦ķà¦¦ à¦²
m itted
à¦ĺ à¦¤à¦®
________ ________
Ġcharact er
97 0
Ġ7 8
Ñ ĸ
à¦¡ à¦²à¦¸
Ġà® ķ
n ow
à¦ĵ à¦ĵ
Ġc oup
Ġ% >
Ġà¦Ľ à¦ķà¦Ĺ
j ust
â Ĥ¬
Ġà¦ĸ à¦¦
Ġ à¦£
à¥¤ (
Ġpol icy
à¦ī à¦ªà¦°
ï ´
Ġco ol
Ġtut orial
Ġ6 8
Ġ8 6
à¸² à¸
re g
Ġ< %
Ñ Ī
à¦¿à¦ĥ :
op h
à¦¸ à¦Ĩà¦²
Ġà¦ªà¦° à¦Ľ
Ġà¦ı à¦ĵà¦¯
Ġjust in
Ġre views
ur u
à¦ªà¦¦ à¦ľà¦¨à¦ķ
Ġr uss
Ġse en
à¦ł à¦ķà¦°
Ġp lot
Ġà¦¶ à¦°à¦¤
à¦ıà¦® à¦ĵ
Ġà§° à¦ľ
â Ŀ¤
à¦° à¦¹à¦®
Ġ Ï
ak er
Ġ ill
à¦¿âĢĻ -
Ġ1 25
bd st
Ġcor por
h ub
Ġà¦¨ à¦ļ
Ġtr ad
++ ++
Ġà¦ľ à¦®à¦¤
à¦ªà¦¥ à¦Ĺ
ore d
à¦¸à¦¨ à¦¦
r as
cy c
à¦¯ à¦ļà¦°
Ġap art
i od
Ġà¦ħà¦¹ à¦°à¦¹
Ġstud ents
w rit
Ġtar get
^ {
Ġà¦® à¦²à¦¦
Ġf ather
i ers
Ġà¦® à¦Łà¦°à¦¸
er d
à¦·à¦£ à¦ĩ
Ã ¨
on ment
im a
Ġb ul
Ġà§§à§« à§«
ĠØ¹ÙĦ Ùī
m ah
à¦°à¦¨ à¦®
à ½
+ "
Ġsh omoy
Ġcont ribut
cre ate
à¦ľà¦¨ à§°
Ġ$(" .
por ter
Ġà¦ĩ à¦·
Ġ6 6
à¦®à¦¯ à¦ľ
Ġfil lelementwithad
Ġb ha
Ġfish eries
or o
po int
à¦Ĩà¦° à¦ı
Ġà¦ı à¦ļ
Ġà¦ıà¦¸à¦¬ à¦ĩ
c ul
Ġk ah
Ġger man
à± į
y our
Ġ9 5
Ġsha k
b ig
we ight
ak al
Ġstud ent
on j
Ġà¦¹ à¦°à¦«
Ġbrow ser
Ġc rit
Ġà¦§ à§°à¦£à§°
Ġà¦īà¦ª à§°
Ġà¦Ĩà¦® à¦°à¦£
§ Ĺ
à §Ĺ
à§ĭ âĢĿ
Ġà§į ÌĦ
Ġdo ing
Ġj ay
ch an
à¦¯à¦ķà¦° à¦Ń
p ers
Ġà¦ħ à¦Ĺà¦¤
u es
Ġà¦Ĩ à¦°à¦¤
âĢĻ à¦¾
Ġc ovid
Ġamar bangladeshonline
Ġà¦¬à¦¨ à¦ľ
Ġw b
á º
à¦· à¦ĸ
à¦ĸ à¦ĵ
Ġdis play
à¦ıà¦« à¦ı
Ġnot ice
Ġà¦ıà¦« à¦ıà¦®
Ġà¦ľà¦¨ à¦¸à¦¹
à¤ ı
Ġse ason
Ġbas ed
amarbangladeshonline amarbangladeshonline
à¦£ à¦ļà¦°
Ġà¦° à¦ľà¦¤
Ġc c
Ñ ħ
à¦® à¦®à¦¯
Ġà¦ıà¦°à¦ķà¦® à¦ĩ
ch ange
Ġà¦Ń à¦°à¦£
v an
ile d
Ġsh am
Ġd er
à¦¼à¦¾ (
Ġt ab
Ġlif estyle
à¦¯ à¦¨à¦¤
à¦ľ à¦ľ
Ġà¦ħ à¦®à¦¸
à¦¼ ),
Ġro ck
Ġknow ledge
à¦¿ ..
Ġ} ;
Ġ01 7
à¦¨à¦¤ à¦ķ
à¦· à¦¡
Ġameric an
Ġwik ipedia
Ġà§© à§¨à§¦
Ġj ack
Ġà§§à§ª à§Ń
à¦¦à¦° à¦Ĺ
Ġed ition
p n
Ġr ising
Ġis bn
ag ue
w d
Ġà¦ħà¦ķ à¦ªà¦Ł
à¦· à¦¶
Ġopt ion
Ġ/ >
Ġhind u
Ġà¦® à¦²à¦®
Ġà§§à§© à§ª
à¦ıà¦¨ à¦Ĩà¦ĩ
Ġph p
Ġà¦ıà¦ķ à¦Ŀ
Ġhos pital
Ġà¦¨à¦ĵ à¦«
q l
à¦ı à¦ıà¦¸
Ġà§§à§¯ à§ªà§«
à ¬
à¦ªà¦ķ à¦¤
à¦° à¦¡à¦¬
Ġarticle à¦¦
à¦ĸ à¦ķà¦ķ
Ġà§§à§ª à§©à§¯
Ġpict ure
Ġde al
ÙĦØ§ Ùħ
Ġarch ive
Ġà§© à§¦à§¦à§¦
os or
Ġk ash
Ġl ng
Ġà¦Ĳ à¦¸à¦¬
Ġà§§à§« à§¨
Ġe arn
à¦° à§İ
Ġac adem
Ġà¦¸à¦« à¦°à¦¸à¦Ļ
Ġpolit ical
Ġch o
res ult
à¦¤à¦°à¦£ à¦ķ
Ġde ep
à¦ī à¦£
Ġw ent
Ġm umbai
oun ter
Ġà¦ī à¦ĩà¦ľ
Ã º
Ġp leas
c ss
ew h
c ap
plat form
Ġk ab
à¦ĩ à¦Ļ
à¤ §
Ġà¦ĩà¦īà¦ıà¦¸ à¦ı
cont act
Ġal ready
âĨ Ĳ
g v
Ġg on
Ġme th
Ġwhat s
Ġà§§à§¯ à§«à§«
à¦¬à¦ķ à¦¬
à¦®à¦¦ à¦®
Ġm aterial
d in
à¦¬à¦¨ à¦¨à¦Ĺà¦°
à¦ıà¦ĩà¦ļ à¦ıà¦¸
ede kho
à§Ī ,
Ġà¦ľ à¦¬à¦¸
ÑĢ Ð¾
Ġpric edekho
Ġ( )
' ',
Ġs ell
Ġe i
Ġsc roll
Ġth ough
Ġà¦Ĩà¦ĩ à¦ĵà¦ıà¦¸
Ġà§§à§« à§ª
¸ ı
b azar
n or
Ġà¦¸à¦¹ à¦ļà¦°
ad ig
Ġcomm ission
æ ĸ
Ġis o
h and
g ood
à¦¨ à§±
Ġp as
t oy
à¦¸à¦ķ à¦²à¦ķ
b est
Ġaustral ia
ĠÙ Ģ
Ġà¦ıà¦« à¦Ĩà¦ĩà¦Ĩà¦°
Ġà¦ı à¦ľà¦²
a is
Ġ à¨
Ġis su
Ġà¦¸à¦® à¦ª
Ġc opy
Ð° ÑĤ
Ġd ue
Ġà¦Ī à¦Ĺà¦²
36 0
Ġshe ikh
à¦£ à¦¶
Ġfr an
te faq
Ġpr ime
Ġà¦² à¦¬à¦Ļ
d hak
m w
f ace
à¦¿ âĢĺ
Ġà¦¦à¦ĸà¦² à¦®
loc ations
Ġà¦Ĩà¦¹ à¦ķ
Ġarticle à¦¶
an na
à§¨à§¦ à§¦à§§
à¦¸à¦ķ à¦ķ
à§Ģ "
Ġà§§à§¯à§¬ à§©
Î »
Ġs ony
à¦² à¦ŀ
Ġï ģ
Ġà¦īà§İà¦ª à¦²
m iddle
à¦·à¦£ à¦ª
à¦¼à¦¾ '
0000 0000
Ø§ ÙĪ
o st
Ù ¤
Ġd am
à§Ģ à§³
Ġ Ú©
Ġà§§à§¯ à§¨à§¦
à¦¿à¦ĥ -
à¦¸à¦¬ à¦ļ
à¦īà¦Ł à¦¸
Ġ15 00
ins ign
à¦¨à¦ķ à¦ķ
p u
à¦¿à¥¤ [
à¦¸à¦ķ à¦Ĺ
à¦« à¦¦
Ġà§§à§« à§§
â ľ
Ġc ert
back ground
Ġh old
======== ========
log insign
Ġn ude
Ġt or
Ġà§§à§© à§©
s i
as k
à¦¼à§ĩ à¦ĥ
Ġà¦ħà¦ķ à¦¥
iction ary
à¦Ĺà¦¤ à¦¤
Ġbre ak
Ġm i
à¦ľà¦¸ à¦ľ
Ġà¦ı à¦¤à¦¬
à¦¤ à¦ªà¦°
Ġd icks
à¦¡à¦īà¦ĩ à¦¥
à¦¦à¦° à¦Ł
Ġà§§à§¯ à§ªà§¬
Ġc ast
Ġà¦Ĺà¦£ à¦¯
vi agra
Â¦ Â°
fil es
Ġà¦ħà¦¬ à¦ļ
à´ Ł
ibr ary
à¦ħ à¦¦
Ġà¦ħ à¦ªà¦¤
Ġgh osh
à¦¿ _
aug ht
à¦·à¦ķ à¦¸à¦¹
Ġ> .
Ġà¦ª à¦Łà¦²
Ġà¦ıà¦¨ à¦Ĩà¦ĩà¦¡
ic ally
Ġz v
Ġle ader
Ġdepart ment
com loginsign
Ġup hom
Ġuphom esms
Ġspe ed
Ġà¦Ł à¦ķà¦¶
Ġd at
Ġm id
Ġinst ru
h al
Ġà¦ĸ à¦°à¦Ĺ
Ġ7 6
Ġà§¨à§¬ à§¦
Ġst ay
Ġà¦¬à¦¨ à¦¶
à¦ī à§İà¦¸à¦¬
à¦¬ à¦¦à¦°
Ġwho le
Ġà¦Ĩà¦ªà¦¨ à¦ľà¦¨
ob r
,' _
Ġà¦¸à¦¬ à¦°à¦ķà¦®
ÑĢ Ñĥ
ĠØ§ÙĦ Ø¥
ÙĪ Ø¨
Ġu dd
Ġw ood
if f
Ġadd ition
Ġreser ved
à¦¦à¦ķ à¦®
à¦¬à¦ķ à¦¨
Ġà¦Ĩà¦¨ à¦¯
à§Ģ âĢĻ,
Ù ¦
à¦¡ à¦¸à¦¨
Ġexper ience
Ġind ivid
à¦ĩà¦¨ à¦°
Ġnew locations
Ġpray er
Ġclo se
Ġj er
oc us
Ġà¦¤à¦°à¦« à¦¦
Ġ7 2
à¦ıà¦¸ à¦ıà¦¸à¦¸
Ġà§§à§¯ à§«à§©
Ġfor um
Ġse ver
Ġmar ri
Ġà¦¹à¦¤ à¦Ńà¦®
à¦ķà¦° à¦ª
Ġdis e
à¦¾) -
Ġà¦Ĩà¦īà¦Ł à¦¡
Ġbeaut y
à¦ĥ) -
Ġi v
à¦¦ à¦Ĩà¦¤
Ġà¦¦à¦² à¦¬à¦¦à¦²
Ġà¦Ĳ à¦¦
Ġà§§à§¬ à§¨
at f
r ul
Ġà§§à§ª à§¬
Ġg and
h on
à¦ĥ ,
add class
Ġà¦¶ à¦®à¦¸
Ġà¦ĩ à¦¸à¦ķ
Ġa lex
à¦¬à¦° à¦ª
à¦§ à¦¸à¦®
Ġtra ining
Ġto gether
Ġà¦Ĳà¦ķ à¦®à¦¤
Ġmun sh
Ġà¦¨ à¦²à¦Ľ
ĠØ§ Ø³
vir onment
r up
Ġà¦ĩà¦ī à¦¯
Ġà§§à§© à§§
Ġ12 8
Ðº Ð°
à¦§ à¦Ľ
g es
Ġà§§à§¯ à§«à§Ń
~~ ~~
à¦¸ à¦ľà¦¨
à¦® à¦¥
Ġà§¨à§® à§¦
Ġà¦ıà¦ıà¦ĩà¦ļ à¦ıà¦®
c ip
ank a
mal ink
Ġit ems
Ġn az
Ġd ie
Ġà¦¹à¦² à¦Ĺ
Ġhad ith
Ġwith in
à¦·à¦ķ à¦Ĺà¦£
25 8
Ġg am
Ġà¦ªà¦¥ à¦Ń
Ġà¦ħà¦¸ à¦¦
Ġ6 2
à¦¸ à¦¸à¦®
n at
v s
à¦¬ à¦¤à¦®
kh obor
Ġà§§à§ª à§®
Ġà¦¶ à¦°à¦¨
Ġs lo
Ġn ation
Ġb art
à¦¼à§ģ ,
related à¦Ĩà¦°à¦ĵ
Ġevery thing
Ġà¦Ĩà¦® à¦Ĺ
Ġ}; */
Ġ à¸
Ġth ak
Ġ= >
Ġch ief
t c
(" **
Ġdid n
Ġà¦ħ à¦°à¦ķ
ent ial
Ġrel ation
à¦Ĺ à¦ĺà¦¨
Ġchod a
Ġs ir
Ġde p
y an
Ġ. :
à§¨à§¦ à§¦à§ª
Ġà¦Ĩ à¦ĵà¦°
Ðµ Ð½
b la
Ġà¦ıà¦¨ à¦Ĩà¦°à¦¬
à¦°à¦Ń à¦Ļ
Ġà§§à§ª à§¯
Ġà¦Ķ à¦·
Ġà¦¸ à¦Ĺ
Ġfeature s
Ġfoot ball
à¦ıà¦¸à¦ĩ à¦ıà¦ķ
h ot
Ġchow dhury
incre ment
â ķ
ep end
Ġà¦¥à¦® à¦¥à¦®
pr im
Ġrequ ired
à¦· à§İ
à¦¸à¦ıà¦¨ à¦ĩà¦ī
Ġà¦ı à¦²à¦ķ
de c
ato a
Ġaf ric
Ġth ird
inst a
k antho
à¦¨ à¦¤à¦°
Ġgal axy
Ġs ens
ap r
Ġà¦ıà¦ĩ à¦¤
Ġle vitra
à¦¸à¦ıà¦¨à¦ĩà¦ī à¦ıà¦®à¦ıà¦ķ
t ain
pa Ã±
ir m
Ġw arr
adig anta
à¦īà¦ľ à¦Ĺ
fb id
Ġd ark
ber t
Ġà§§à§¬ à§¬
Ġà¦§ à¦¨à¦¬
sk y
à¦·à¦£ à¦Ł
Ġsome one
= $(
Ġà¦ıà¦¸ à¦Ł
à¦ªà¦° à¦®
Ġkar atoa
à¦¨ à¦īà¦²
Ġoriginal à¦¸à¦¦à¦¸
Ġà¦¨ à¦Īà¦®
à¦° à¦¡à¦ķ
Ġà¦ħà¦¤ à¦²
à¦Ĺà¦® à¦Ĺà¦ŀ
Ġà¦ĵ à¦ıà¦¸
ï´ ¾
Ġà¦®à¦ľ à¦¹
Ġà§§à§® à§«
Ġsk in
log ical
Ġà¦ī à¦²à¦ķ
Ġà¦ıà¦® à¦Ń
15 8
Ġà¦Ĩà¦ĩ à¦ļ
Ġà¦ħ à¦ĸà¦£
Ġà¦ļà¦°à¦® à¦Ń
à¦ģ à¦¾
st e
Ġà´ µ
à¦¤à¦° à¦ªà¦¤
u se
à¦· à¦²
à¦¾à¥¤ [
Ġà¦ľà¦² à¦¢
Ġd ip
Ġdr ug
Ġà§§à§« à§¯
Ġpe ace
Ġmy timer
Ġin verval
Ġs ark
à¦®à¦°à¦£ à¦¸à¦Ń
Ġmanufactur ers
à¦ĩ à¦Łà¦¨
Ġà¦¸ à¦ªà¦ķ
my timer
à§¨ à§«à§¦
Ġà¦Ĩ à¦īà¦¶
Ġà¦¬à¦²à¦¬ à§İ
Ġà¦Ķ à¦¦
Ġc ash
à¦§à¦¶ à¦¤à¦ķ
Ġm is
Ġ7 7
Ġà¦ľ à¦Ĺà¦²
ere porter
- à¦¿
crim ereporter
Ġf all
Ġe b
Ġà§§à§« à§Ń
Ġmag azine
Ġsl ider
Ġà§©à§¬ à§«
Ġindivid ual
Ġst ep
Ġ6 3
Ġà¦Ĩà¦® à¦«
Ġt amil
à¦ĩà¦®à¦¸ à¦ķ
Ġà¦Ĺà¦£ à¦§
lic a
Ġop in
Ġà¦¬à¦Ľà¦° à¦Ł
Ġup load
d x
str ong
à´ Ļ
n av
à¦ķ à¦Łà¦¨
Ġp p
! =
à¦ĩà¦ľ à¦Ń
Ġbab y
Ġà¦ı à¦Ļ
Ġà¦Ĩà¦¬ à¦¹à¦®
Ġqu e
à¦£ à¦®à¦¤
Ġcampus live
Ġà¦¦ à¦®à¦¦à¦®
Ġà¦¦à¦² à¦ĵ
Ġper fect
Ġanal ysis
Ġbd today
t otal
Ġh am
is ource
u i
à§ĩ ]
Ġà¦ī à¦ľà¦¬
à¦Ń à§°
$ ("
f uck
Ġy ours
Ġgul shan
Ġs sc
Ġà¦¸ à¦¬à¦°
Ġà¦° à¦¸à¦¦
b us
à¦ħ à¦¥à¦¬
- âĢĺ
Ġà¦ĸ à¦ļ
Ġà¦ıà¦ĩ à¦ľà¦¨
à¦ĩ à¦¥à¦¨
â Ī
- (
à¦Łà¦° à¦Ł
à¦¦ à¦°à¦¤
Ġs we
Ġà¦Ĺà¦¨ à¦¤à¦¨
Ġà¦Ĩà¦® à¦¡
Ġà¦ª à¦¬à¦¨
à§¨à§¦ à§¦à§«
Ġ" **
â ĺ
_ {
man ager
push state
op osh
Ġblo od
ro du
dim ention
Ġn as
Ġ"** ");
sc ont
á »
Ġb udd
Ġmic hael
Ġh ill
à¦ļ à¦ªà¦°
ÙĮ ØĮ
Ġra k
à¦® à¦·
: #
Ġr ate
m as
Ġp y
01 6
n u
oposh chim
à¦¤à¦°à¦£ à¦¬
Ä ±
load disqus
Ġg iven
Ġà¦Ĩà¦° à¦ª
à¦°à¦¶ à¦ķ
Ġà¥¤ âĢĻ
à¦¯à¦® à¦Ł
Ġepis ode
Ġà¦Ĺ à¦¢
Ġn i
Ġd ictionary
am in
oposhchim bd
Ġdefin ition
al ed
Ġà¦Ĩà¦° à¦«
Ġzo om
em p
se c
Ġre ason
Ġà¦īà¦¦ à¦°
à¦¬à¦¬ à¦Ļ
Ġà¦īà¦ĩ à¦ĺ
* ,
Ġaud io
???? ????
j un
âĨ Ĵ
à¦¶ à¦Ľ
Ġà¦ıà¦Ĺ à§°
à¦¥ à¦¯
Ġn arendra
onth osor
Ġf at
Ġmu kh
u ation
en o
Ġit tefaq
Ġcon cer
à¦« à¦ª
à ·
p f
Ġn ah
à¦Ĩà¦ĩ à¦ıà¦¨
Ġexcell ent
Ġdo or
Ġà§§à§¯ à§«
Ġk m
à¦¬à¦° à¦¬
Ġà¦Ĩà¦Ĺ à¦¨
à® °
Ġsecre t
Ġs and
un der
tw eet
Ġt i
Ġh us
Ġpurb oposhchimbd
Ġà¦ħ à¦Ľ
Ġà¦ħà¦¬ à¦¬
Ġà§¦ à§§à§¯
à¦ĥ à¦ĥ
Ġà¦¤ à§İà¦¸
Ġal ong
Ġany thing
Î ±
Ġsay ing
Ġobs er
à§± à¦ķ
at ar
sp lit
à¦® à¦Ŀ
Ġà¦ħà¦ªà¦° à¦ľà¦¨
Ġbang lar
Û °
Ġstand ard
Ġ2 20
Ġre v
ash ion
Ġpre t
it em
Ġreg ard
Ġsup pl
Ġabd ul
Ġ à§ģ
(' '
à® ²
Ġà¦§ à¦¨à¦ķ
à¦²à¦Ĺ à¦Ł
Ġbd t
à° ²
rad har
tal k
à¦£ à¦¨à¦Ĺà¦°
Ġà¤ Ĩ
à¦² à¦ĺà¦°
Ġc bn
Ġa aj
Ġà§§à§« à§®
Ġà¦ıà¦ķà¦ķ à¦¥
à¦°à¦¬ à¦¹
à¦ľ à¦¸à¦®
Ġà§§à§Ń à§¬
Ġà¦ĸ à¦¬
Ġ, '',
à¦¶ à¦°à¦¤
Ġi e
ve y
à¦°à¦¬ à¦®à¦¯
Ġb orn
à¦¨à¦¨ à¦Ĺà¦°
s ource
ic o
Ġcut off
Ġà¦Ĩà¦ĩà¦ıà¦® à¦ıà¦«
Ġbirth day
pr inter
in y
Ġà¤ Ľ
se int
Ġà¦Ĺà¦£ à¦ħà¦Ń
ÙĬ Ø¹
c irc
Ġà¦ıà¦¡ à¦¸
b et
à¦ĩà¦¨ à¦¸à¦¹
ad hy
ph ot
Ġà¦ĵ à¦ļ
Ġdire ctor
Ġà¦¸à¦¬ à¦§à¦°à¦¨
Ġà¦§ à¦®à¦¨
Ġdisc uss
j ar
à¦® à¦¶à¦¤
ad al
Ġaw ard
à¦°à¦ķ à¦£
Ġà§¨ à§§à§«
Ġk az
Ġà¦ıà¦® à¦ľ
ob i
à¦Ĺ à¦²à¦¨
! "
ĠÐ ¼
à¦¬à¦¸ à¦ķ
à¦ı à¦ķà¦¨
à¦¼à¦¾ ),
à¦¤ à¦¬à¦¸à¦®
ÙĬ Ø¨
Ġad vert
em e
Ġfeature d
porn o
Ġà§¨à§¨ à§«
n l
Ġa i
t ual
Ġen vironment
à¦ķà¦¸ à¦ķà¦²
Ġbuild ing
à³ į
à¦¤ à¦®à¦¤
à§Ń à§¦à§¦
Ġj av
à§ĩ! âĢĻ
à¦¸ à¦Ĩà¦ª
à¦¬à¦¨ à¦¸à¦Ļ
at ely
Ġro b
w z
Ġ à¦ŀ
ok al
Ġsug gest
Ġper malink
Ġnat ural
Ġà¦ķ à¦ľà¦¨
de fer
emb eds
Ġà¦Ńà¦¬à¦¨ à¦Ĺ
Ġà§§à§« à§¬
ro s
ĠØ§ ÙĨ
g lo
Ġsut radhar
à¦¥ à¦¬à¦¹
à¦¸ à¦°à¦²
la d
Ġà¦Ĩà¦¨ à¦²à¦ķ
ĠâĪ ļ
x n
à§¨à§¦ à§¨à§§
Ġhel lo
Ġcurrent scroll
Ġter ror
c ity
à¦¡ à¦ķà¦Ń
à¦¹à¦¯ à¦°à¦¤
scont ainer
Ġtang ail
Ġv ict
Ġd al
à´ ®
Ġsing le
Ġà¦¨ à¦Łà¦°
erk onthosor
à¦¹ à¦ĸ
aa a
Ġwant ed
æ ľ
à¦¬ à¦®à¦¯
ib ility
Ġfb id
Ġfb container
df pm
Ġà¦¨ à¦Ĺà¦£
^ ='
u u
Ġcomm er
tf margin
p c
Ġ7 100
iddle ad
dfpm iddlead
fb container
Ġà¦ıà¦ª à¦¸
1 000
Ġà¦¶à¦°à§İ à¦ļà¦¨
a ction
re w
e v
à¦Ĩ à¦Ļ
Ġà¦ıà¦ķà¦ĩ à¦°à¦ķà¦®
à¦ľ à¦ĸ
Ġpoint s
à¦¶ à¦¬à¦¨
Ġlo k
Ġprofess ional
Ġt el
\ /
up d
q v
Ġhe av
Ð½ Ð¾
Ġsor ry
Ġ200 5
à¦¥à¦² à¦ľ
99 9
Ġmach ine
à¦¯ à¦ªà¦°
b ur
ul es
Ġret rie
à¦Ĩ à¦¦à¦°
en ces
à¦¦ à¦Ĺà¦£
Ġh aw
Ġus ers
Î ¹
Ġpos ition
Ġse ction
à¦¥ à¦ĵà¦¯
Ġà¦Īà¦¦ à¦¯
Ġg all
ä¸ Ń
Ġd av
Ġà¦ıà¦¸ à¦¸
w b
à¦ĩ à¦ĩà¦ī
Ġà¦° à¦Ĺ
vi a
Ġà¦ıà¦ĩ à¦®
Ġà§§à§¬ à§§
à¦ķ à§°à¦£
Ġl iving
ÙĪ Ø³
Ġs ister
à¦īà¦¬ à¦ĵà¦¯
Ġà§¨à§« à§¬
Ġd b
Ġà¦¬ à¦ĩà¦²
Ġà¦§ à¦¬
Ġl uck
Ùħ Ø±
ud i
Ġà¦ĩà¦¨ à¦¬à¦ķ
Ġmarket ing
o ve
Ġrep lica
à¦¸ à¦«à¦²
Ġc in
Ġr ss
Ġplay er
Ġà¦ª à¦¸à¦°
à¦°à¦ķà¦® à¦ĩ
od i
Ġr ich
Ġà¦¶à¦° à¦«
Ġj essore
Ġmunsh ig
Ġà§§à§¯ à§«à§§
Ġà¦ī à¦«
Ġf inal
iv il
l ife
à§ĭ âĢĺ
Ġà§§à§¯ à§ªà§¦
y y
Ġà¦ħà¦¨ à¦§
à¦ļ à¦Ļ
Ġà¦ķà¦¨ à¦¡
Ġ8 1
Ġthe ke
Ġà¦¶à¦¤ à¦¶à¦¤
Ġà¦° à¦¨à¦ľ
Ġunt il
Ġâ Ŀ
f re
Ġà¦¦à¦² à¦Ĺà¦¤
Ġarticle à¦ľ
Ġbe come
Ġo cc
Ġà¦īà¦¦ à¦Ĺ
uj a
Ġk aj
à¦¬à¦² à¦¸
w al
Ġinclud ing
à¦¬ à¦ľà¦¯
j ab
o or
à¦¿ [
á ŀ
Ġh uge
Ġsomoy erkonthosor
wik isource
v in
toy ota
Ġra il
pro p
à¦¿. )
Ġt mc
Ġp ahar
Ġà§¦ à§§à§®
à¦Ĺ à¦«à¦²
r ing
Ġ< /
Ġmorn ing
à¦ķà¦Ł à¦®à¦¯
b ottom
Ġà¦ĵ à¦¶
Ġf lash
Ġan ti
à¦²à¦¨ à¦Ł
ist or
Ġà¦¤ à¦¹
be fore
s angbad
Ġà¦Ĩ à¦£à¦¬
Ġmoder n
à¦ķà¦¸ à¦ľ
à¦ł à¦ªà¦°
àµģ à´Ĥ
Ġà§¨à§Ń à§¦
Ġ<< >>
à¦² à¦īà¦¦
Ġfr am
Ġà¦§ à¦¡
à¦Ĩ à¦ļà¦°à¦£
Ġà§¨à§¦ à§§
st ars
Ġ8 4
Ġset t
en ing
n am
9 00
et te
Ġà¦ħà¦ªà¦¶à¦¨ à¦Ł
Ġà¦ªà¦¦ à¦Ĺ
o h
à¦ķà¦°à¦£ à¦Ł
Ġà¦ı à¦£
Ġp lat
Ùİ :
Ġà¦ıà¦ķ à¦¶à¦¤
Ġà¦«à¦¸ à¦«à¦°
Ġproduct s
ï ¸ı
Ġà¦«à¦² à¦¦
Ġst uff
à§ĭ? âĢĻ
à§¯ à§¦à§¦
Ġab le
à´ ³
Ù «
Ġà¦ķà¦¤ à¦ĩ
2 000
il le
b ol
à¦ª à¦¹
Ġg mt
à§ĩ ......
Ġh ate
Ġbd live
Ġp ing
create element
à¦°à¦¹ à¦¶
om i
al ign
à¦¬à¦ľà¦¨ à¦ª
Ġlo ss
à¦£ à¦ªà¦£
Ġà¦Ĺ à¦ļ
un a
à§ĩ [
Ġrespons es
n ic
Ġà§§à§¯ à§©
Ġto ok
Ġà¦¤ à¦²à¦ª
à¦ī à§İà¦¸
Ġmak es
ĠâĻ ¥
il ip
emb ly
Ġ )à¥¤
c in
Ġvilla ge
Ġalo k
d p
h ol
Ġtr ick
Ġà¦ĺ à§°à¦¤
Ġj ok
à¦¿ *
1 25
Ġà¦Ĺà¦£ à¦ķà¦¬à¦°
kn own
er al
à§§à§¯ à§Ńà§§
er alo
Ġc op
g reen
so y
ar h
Ġquest ions
Ġo x
Ġpass word
Ġw alk
Ġsim ply
à® ´
Ġhe ard
Ġc bd
Ġà§¨ à§§à§¨
ph oto
Ġassoci ation
à¦¤à¦ķ à¦ķ
Ġmod ified
à§ĩ à§į
Ġnay adiganta
an cy
Ġà¦ĸà¦¬à¦° à¦ĵ
om a
à¦ĩ à¦ıà¦¸
Ġà¦ĩ à¦Ľà¦²
Ġà¦ħà¦¤ à¦ªà¦°
Ġà§§à§¯ à§«à§¯
Ġà¦¶ à¦¤à¦¬
Ġà¦Ĩ à¦ķà¦²
t able
adhy ay
à§ĩâĢĻ -
Ġm art
Ġà¦ľà¦¨à¦¸à¦® à¦ķ
Ġà¦Ĩà¦® à¦¤
Ġ3 20
Ġà¦® à¦ĵà¦¸
Ġk ap
Ġv ia
Ġle ast
Ġk b
à¦ħ à¦Ļ
Ġmah mud
Ġp ie
id ence
Ġà¦ľ à¦Łà¦²
Ġr is
? )
Ġarticle à¦Ń
Ġtr ust
Ġkort e
ĠÐ ±
Ġp ics
Ġrad io
à¦Ĺ à¦°à¦ķ
ch ild
Ġtra ck
Ġval ue
3 20
Ġad s
ward s
Ġwh e
Ġà¦¦à¦² à¦®à¦¤
Ġà§§à§¬ à§Ń
w ho
crip t
à¦¤à¦° à¦ŀ
f lo
Ġà¦Ĩà¦²à¦¬ à¦¦à¦°
Ġp in
Ġs ix
Ġà¦¬à¦² à¦¦
Ġà§¨ 0
Ġ8 00
Ġretrie ved
à¦Ĩ à¦Ľ
de al
Ġd ick
Ġread y
o ct
à¦Ł à¦§
isha kh
Ġs i
Ġ" ,
Ġ7 4
zv d
Ġ6 1
att anews
Ġà¦Ĳ à¦ļ
à¦ĩà¦® à¦ļà¦°
à¦¿ ....
Ġd c
il ar
Ġx m
Ġb es
à¦Ĺ à¦ĩà¦¨
Ġst re
Ġm ap
à¦¹ à¦·
à¦¹à¦¹ à¦¹à¦¹
Ġudd in
Ġ9 6
arm a
à¦°à¦¨ à¦ķ
Ġind epend
Ġcount ries
à§¨à§¦ à§¦à§©
Ġapp ly
à¦¦à¦¨ à¦®
àµ Ģ
à¦ı à¦°à¦¶
Ġparb attanews
Ġit al
à¦Ĩ à¦ĩà¦°
Ġcent ral
Ġà¦ĺ à§°à§°
g s
Ġà¦¸à¦® à¦Ń
à¦¾à¦Ĥ à¥¤
Ġà¦Ĺ à¦ľà¦²
è ª
b order
w in
Ġfor ce
Ġsol ution
à¦· à¦¤à¦¬
Ġà¦¨ à¦ĵà¦°
er b
Ġrising bd
Ġess ay
l al
Ġwarr anty
Ġà§° à¦Ļ
Ġà¦ļà¦Ł à¦ªà¦Ł
à¦®à¦ĩ à¦°à¦¹
il ities
Ġto ld
Ġcla im
Ġdisc over
Ġà¦¬à¦² à¦ª
daily sylhet
Ġà§§à§Ń à§¨
×Ļ ×
Ġcan adian
Ġstr ateg
ab ility
on se
Ġm ention
Ġtransl ation
Ġtak es
Ġt aking
à¦°Ã¦ à¦¤
f eb
à¦ĩ à¦īà¦¬
à¦¬ à¦ķà¦Ł
m ag
Ġ8 7
!= ''
à¦Ļ à¦Ľ
Ġwe ight
Ġapart ment
Ġm ail
Ġà¦ı à¦§à¦°à¦£
Ġà¦®à¦¹ à¦¬
Ġ7 3
Ġcha p
8 00
à¦ħ à¦¡
à¦Ĩà¦ĩ à¦ĵ
Ġà¦ĵ à¦ĩà¦Ł
Ġk illed
id ing
à¦¶à¦Ĺ à¦¡
à¦¥ à¦ļ
Ġà¦¦à¦² à¦¬à¦¦
} \
Ġà¦ķà¦® à¦²à¦¨à¦Ĺà¦°
Ġà¦ħà¦ľ à¦Ĺà¦°
Û Ĵ
à¦Ĳ à¦ķ
k an
Ġà¦ĩà¦ī à¦Ń
Ġà§¨ à§§à§©
for man
ÙĪ Ùĩ
Ġfav or
as ha
à¦¸à¦® à¦ķ
Ġide a
Ġà¦ĸ à¦¬à§°
à§¨à§¦ à§¦à§¨
Ġpro vide
Ġz e
Ġà¦ĩ à¦ıà¦¸à¦ª
ar row
x i
or i
itt ing
à¦·à¦£ à¦ĵ
Ġrelig ion
pro duct
Ġe th
Ġfile d
Ġcle an
à¦ķ à¦Ĩà¦īà¦Ł
Ġà¦¸ à¦¦à¦ķ
Ġf ur
Ġno thing
Ġà¦ªà§° à¦®
Ġà¦ļà¦²à¦¨ à¦¬
po se
pt op
Ġtrad ition
Ġ7 9
à¦ĺ à§°
à§İ à¦¶
24 0
Ġmeth od
Ġà¦īà¦ª à¦¶à¦¹à¦°
à¦¨à¦ª à¦ª
Ġgr and
des k
re me
Ġ10 3
à¦°à¦¹ à¦¨à¦ķ
Ġà¦Ĩ à¦Ľà¦°
à¦°à¦¨ à¦¬
e ed
Â¤ à§į
la w
Ġà¦² à¦ĸà¦¨
Ġk agoj
Ġà¦Ĺ à§±
n one
à¦¡ à¦²à¦ķ
Ġà¦¤ à§°
hy dra
Ġcon nect
!!!! !
Ġrem ember
Ġà¦¨ à§±
Ġà§§à§¬ à§©
Ġif rame
ens ive
Ġre main
Ġresult s
Ġh rs
Ġkash mir
à§ĥ à§ĥ
à¦¦à¦¶ à¦®
ĠÌ §
Ġà¦Ĩà¦° à¦ıà¦«
c are
à¦¦ à¦¶à¦ķ
à¦īà¦ľ à¦ª
Ġde b
Ġac cept
ad ow
ian o
z s
Ñ Ĩ
Ġkon o
à¦Ĺà¦² à¦ª
Ġaut om
f nt
p p
ĠØª Ø¹
Ġsub scribe
w k
à¦¸ à¦®à¦¨
Ġjo in
y ahoo
Ġà¦ĵ à¦«
Ġteach er
Ùĥ Ùħ
fin ed
Ġà¦Ĩà¦ķ à¦®à¦²
in ews
à¦°à¦¯ à¦¨
Ġview ed
Ġà¦¸à¦¹ à¦¶
ar ing
fo ot
r is
Ġà¦¸ à¦¦à¦¯
à§Ģ )à¥¤
Ġtun er
f av
z o
Ġh it
Ġo d
2 20
Ġ12 3
Ġà¦ľà¦¨ à¦¸à¦®à¦°
Ġà¦¸à¦° à¦ľà¦®
æĸ ĩ
en afil
Ġà¦ĩ à¦ĵà¦°
Ġà§§à§¬ à§®
Ġf ix
Ġà¦ıà¦ķ à¦Ń
; #
Ġper iod
Ġr om
Ġtra iler
à¦·à¦£ à¦¤
à¦ĸ à¦°à¦ļ
Ġà¦°à¦ķà¦® à¦ĩ
Ġà¦ĩ à¦¹à¦°
à¦ªà¦¤ à¦Ļ
Û ¹
à¦¬à¦² à¦ľ
à¦¸ à¦¬à¦¨
ant o
Ġ7 00
Ġac ross
w g
Ġissu es
Ġd im
à¦¸à¦¹ à¦ľ
Ġcomp an
t ed
ĠØ§ÙĦ ÙĤ
ith er
à¦® à¦ªà¦ķ
Ġà§§à§¯ à§ªà§¨
Ġà¦Ĩà¦ĩ à¦ıà¦«
Â¦Â ¿
Ġg ives
à¦¨ à¦°à¦¸
à¦£ à¦ĸ
c am
ar ian
Ġr oman
Ġdou ble
Ġj ug
Ġstat us
Ġ{ \
à¦®à¦¨ à¦Ń
ian ce
Ġà¦¤ à¦¤à¦¬
st ory
Ġm iz
ĠØ± Ø¶
Ġà¦ļ à¦·
Ġà¦® à¦°à¦®
Ġeconom ic
ch o
Ġà¦®à¦¹ à¦¨
ant or
Ġh ub
ub lic
Ġ ),
Ġflo or
Ġo ly
à¦¿à¦ĥ )
Ġà§§à§¬ à§¯
Ġà¤ ī
à¦¯à¦® à¦£
ĠØ§ÙĦ Ø¬
Ġà¦ıà¦¨ à¦°
Ġà¦ªà¦° à¦ľ
Ġbis soy
Ġre ach
à¦ľ à¦¤à¦¬
Ġr out
Ġfi el
Ùħ ÙĨ
à¦Ĩà¦°à¦ĩ à¦ī
à¦¿) :
at r
Ġdev ices
Ġelection s
à¦¶ à¦¬à¦°
1 30
Ġà¦¦ à¦¬
Ġf ul
Ġal b
Ġà¦Ĺ à¦Ĺà¦¨
à§Ī à¦ĥ
Ġwe ather
Ġà¦īà¦ªà¦° à¦ĵ
it ation
Ġrequ est
sup er
Ġm ature
Ġà¦Ĩà¦ĩà¦¨ à¦ª
à¦¾! âĢĻ
c ode
/ =
Ġb ah
Ġye ah
Ġb ak
ÑĤ Ð¾
h istory
sh e
Ġact ress
n od
Ġd est
Ġpol y
à¦ĵ à¦ļ
à¦¹ à¦ĩà¦¯
Ġà¦°à¦¸ à¦Ĺ
Ġ16 0
er ation
Ġreport ed
Ġpriv ate
Ġcre ated
Ġcorre ct
Ġj u
w as
à¦ıà¦« à¦ĩà¦īà¦ľ
r k
st art
Ġà¦¹ à§°
Ġf ocus
Ġà¦ī à¦¥
Ġshe ers
Ġà¦®à¦° à¦Ľ
ff ic
Ġà¦ĸà¦°à¦ļ à¦ĵ
Ġbro ther
Ðµ Ð»
Ġà¦® à¦ķà¦¸
Ġc ross
à¦ĭ à¦¤
Ġcom es
à¦¹ à¦¸à¦¹
Ġim pro
p ng
Ġà¦īà¦ª à¦¸à¦¹à¦ķ
Ġles b
oo th
ire s
Ġà¦Ĺ à¦Ľ
Ġcent re
c f
Ġg raph
à¦¾- à¦¾
à¦¨à¦ĵ à¦¦
Ġ? âĢĿ
ang er
al ert
Ġp ages
Ġfil es
Ġà¦Ĩà¦® à¦ľà¦¨à¦¤
m ic
Ġvi ol
Ġs el
im port
Ġj ud
Ġengine ering
ir t
èª ŀ
Ġsa f
à§ĭ /
Ġà¦ľ à¦ŀ
Û ²
à¦¾ "à¥¤
Ġà¦Ŀà¦Ł à¦ªà¦Ł
à§Ģ âĢĺ
à¥¤ \
ex press
à¦¸à¦¨ à¦¤à¦¨
à§° à¦ªà§°
Ġà§© à§©à§¦
àµ ĩ
air s
à¦Ĩà¦° à¦ľ
à¦ıà¦² à¦¡
Ġà¦ĩà¦ī à¦²
à¦Ĩ à¦ĸ
Ø§ÙĦ ÙĦ
à¦ĩà¦ľ à¦®
Ġin ch
Ġà§§à§Ń à§Ń
Ġà¦® à¦°à¦²
ist ing
Ġà¦ĸ à¦²à¦¨
à¦Łà¦¤ à¦ĩ
à¦Ĥ )
Ġf und
if a
sh ik
à¦Ĩà¦ĩ à¦ĩà¦¡
f ly
à¦ľ à¦Ĺà¦¨
Ġ18 0
adal afil
Ġà¦Ńà¦¬ à¦ĺ
Ġposs ible
Ġà¦¤ à¦ľ
Ġacc ording
Ø³ ÙĪÙĦ
Ġ200 4
à¦Ĥ ...
Ġà§§à§Ń à§§
à¦· à¦·
Ã§ ais
à¦¼ âĢĻ,
à§Ģ _
g t
Ġà¦® à¦²à¦¯
à¦Ĺà¦¨ à¦Ń
str ing
r ar
à¦Ļ à¦¬
Ġà¦ıà¦¸ à¦ıà¦¸
à¦Ŀ à¦¨
Ġà§§à§® à§©
Ġà§¨ à§§à§ª
ew ith
Ġb order
kh on
Ġp u
à¦¬à¦° à¦Ĺà¦ŀ
Ġback ground
Ġ9 7
Ġcare er
ag on
forman ce
18 0
Ġà¥ Ń
Ġping back
Ġ __
à¦²à¦ķ à¦²
Ġà§§à§® à§¨
Ġtre nd
b ah
categ ories
à§ĩ, âĢĿ
Ġlar ge
Ġfem ale
atter y
Ġà¦ħà¦Ĺà¦£ à¦¤
Ġà¦īà§İà¦¸à¦¬ à¦ķ
à° ¿
Ġfuck ing
Ġà¦¬à¦¨ à¦§
Ġà¦Ĩà¦¹à¦® à¦¦à¦ķ
Ġà¦® à¦ĸ
à¦ıà¦« à¦Ł
ic ation
Ġ1 30
Ġà§® à§«à§¦
Ġà¦ĭ à¦¨
Ġà¦¬ à¦°à¦¬
à¦ªà¦¦ à¦¬
à¦¸à¦ķ à¦®
Ġà§¨à§« à§¦à§¦
comment s
s um
à¦¡ à¦ıà¦«
à¦£ à¦®à¦¯
Ġà¦ıà¦ķ à¦¤à¦²
Ġone k
à¦ļ à¦ĺ
Ġch in
Ġass embly
end ing
à¦ĩà¦Ń à¦¸
al lah
Ġn y
Ġcomp let
Ġà¦Ĩà¦¤ à¦¶à¦¬
Ġopin ion
ag ed
Ġf ive
my success
my error
Ġassam ese
Ġbash undhara
Ġc art
à¦¯à¦¬ à¦¯
Ġà¦Ĩà¦¦ à¦®à¦¦
oo se
Ġà¦® à¦°à¦¸
Ġà¦¤ à¦¨à¦¯
Ġ\( \
à¦ĸ à¦ªà¦¤
à¦Ī à¦«
Ġoly mp
Ġr ash
ĠÐ ´
à§ĩ? ?
Ġmo s
Ġkh ub
rs quo
Ġà¦ĸà¦¬à¦° à¦¦
Ġfuck s
Ġl ibrary
upd ated
Ġbitco in
feature s
post ed
à¦° à¦ĭà¦£
à¦« à¦¯
Ġpar seint
ck et
Ġp ul
z i
Ġà¦ħà¦Ĺ à¦¸
à¦°à¦ľ à¦Ĺà¦¤
à¦·à¦ķ à¦¬
sh op
b en
Ġà§§à§Ń à§ª
Ġ( âĢĺ
Ġout brain
Ġà¦ħà¦ª à¦ł
out brain
à¦¼à§Ģ )
Ġpict ures
ut sch
Ġg el
99 99
prot idin
Ġà¦Ĩ à¦ĸà¦²
Ġf ant
anch al
Ġs av
Ġb hab
ew all
à¦ļ à¦«
Ġà§¨à§¨ à§¨
c as
bla ck
Ġp v
à¦¥ à§°
à¦¼à¦¾ .
Ġd ual
ĠÐ ¾
Ġap pre
à§ĥ âĢĻ
à® ¯
à¦ıà¦² à¦ľ
Ġsim ple
à¦¤à¦« à¦¸
d el
à¦¦à¦¨ à¦ª
ÙĬ Ø³
v at
Ġlock ed
Ġh obe
à¦ıà¦®à¦¨ à¦ķ
Ġà¦ĩà¦¨ à¦·
Ġcol lect
Ġb n
Ġ Ã±
ap e
Ġ àª
à¦ıà¦¨ coxsbazarnews
Ġle ague
à§ĩ --
àµ Ĩ
b ab
à¦§ à¦§à¦°
Ġv irus
à¦ª à¦ľà¦¯
âĢĿ .
à´ £
Ġà§° à¦¸
44 6
à¦Ł à¦°à¦¯
im um
à¦ª à¦¬à¦¯
Ġsit es
ut ions
âĢĿ ,âĢĿ
re y
à¦¦ à¦¶à¦¨
Ġà¦ħ à¦¶à¦¨
Ġpart s
ÑģÐºÐ¸ Ð¹
à¦ľà¦¨ à¦Ĺ
à¦ī à¦ī
Ġsle ep
Ġpret ty
as i
à¦ĸ à¦²à¦¨
\ \
Ġà¦Ĩà¦¶ à¦ķ
Ġà¦¦à¦² à¦ªà¦¤
Ġform at
Ġsum mary
à§ģ ;
Ø¨ Ø±
Ġà§§à§ª à§¦à§¦
à¦Ń à¦²à¦ªà¦®
Ġk ob
Ġb ow
Ġc ivil
Ġb ish
r ome
ĠÐ ¸
Ġà§§à§Ń à§©
à¦ķ à¦®à¦¨
Ġper form
Ġcr im
Ġmill ion
ad s
à¦ª à¦¸à¦¨
Ġinf lat
h im
Ġà¦ĩ à¦Ĺ
Ġà¦Ĩà¦Ĺ à¦°à¦ĵà¦¯
à¦¤à¦° à¦¬
Ġn b
Ġal t
à¦¯ à¦Ŀ
sk i
Ġà¤ ĩ
Ġsh all
à¦ķ à¦¨à¦¸
à¦¤à¦¨ à¦ĵ
Ġo l
Ġfin an
Ġà¦° à¦£à¦¦
à¦Ĩ à¦¸à¦¬
Ġà¦¦à¦² à¦¬à¦²
Ġà§¨à§¦ à§¨à§©
rep lac
h id
Ġà¦¸à§İ à¦ķà¦°
Ġà¦Ĩ à¦ĸà¦¨
Ġà¦¨à¦Ĺ à¦°à¦ķ
à¦Ĩ à¦Łà¦ķ
à¦« à¦²à¦ķ
Ġsim ilar
p ay
Ġdiv ision
à¦¨à¦ľà¦¨ à¦ĩ
Ġmin ute
Ø§ Ø©
à¦ķ à¦¸à¦®à¦¯
p in
Ġà¦ħà¦ª à§°
Ġt ah
Ġà¦ĩà¦¤ à¦¸
sh i
Ġgand hi
w i
à¦ĺ à¦¸à¦®à¦¯
Ã ¥
fr om
) /
Ġ9 1
Ġà¦ħà¦¨ à¦Ĺ
Ġg i
Ġà¦Ĩ à¦¤à¦°
Ġlo an
s iz
à¦ľà¦¨ à¦¨
d tl
à¦ıà¦² à¦ĵ
Ġà§ª à§¨à§¦
à¦² à¦ªà¦°
Ġn ike
Ġcult ure
Ġà¦ıà¦ķà¦ĩ à¦¦
à¦¬à¦² à¦¬
Ġà¦ķ à¦ĩà¦¤
Ġà¦ħ à¦Ŀ
Ġl al
à¦ıà¦¨à¦ı à¦Ń
Ġà§¨à§¨ à§ª
Ġweek ly
Ġ- ---
r ation
Ġh sc
Ġbang al
Ġag ency
à¦¬à¦§ à¦²
Ġnot un
10 5
Ġà¦ıà¦¨ à¦Ĺ
Ġà® ª
Ġad mission
à¦¯à¦¬ à¦ĩ
r ay
10 7
Ġrec ord
g ree
s an
Ġar rest
) }
à§ģ âĢĿ
Ġ å
ig er
Ġbe gin
à¥ §
Ġt on
à¦¼à¥¤ "
Ġ8 3
Ġà¦¸ à¦ĵà¦ľ
à¦®à¦¤ à¦ª
à¦·à¦£ à¦¬
à¦¯ à¦¸à¦¬
à¦ļ à¦Ľ
Ġh u
Ġs ak
Ġshar ing
Ġà¦ħà¦ªà¦¤ à§İà¦ªà¦°à¦¤
i am
Ġ ou
Ġà¦¬ à¦¦à¦®
Ġà¦®à¦¹ à¦°à¦°à¦®
Ġà¦Ĺà¦£ à¦Ĩà¦¨
à± Ĩ
Ġb ri
à¦ľà¦¨ à¦¸à¦¹
og n
Ġd ont
replac ewith
l ong
Ġà¦®à¦Ł à¦°à¦¶
lo re
à¦ıà¦« à¦¬
Ġcon ference
à¦ıà¦® à¦Ĩà¦°
d en
Ġi os
Ġalok ito
à¦¼ (
Ġmo vement
Ġth ewall
200 9
Ġà¦ıà¦° à¦«à¦²
ho st
!='' )
Ġà¦ľà¦¨à¦Ĺ à¦¨à¦ķ
at ra
Ġ9 3
Ġà¦§ à¦ķà¦²
à¦¤à¦° à¦Ń
Ġà¦Ŀ à¦°à¦Ľ
Ġr as
Ġà¦¶à¦¹ à¦°à¦¬
ĠØ§ÙĦ Ø²
s ide
à¥ ĥ
Ġfore cast
Ġà¦¬ à¦Łà¦Ĺ
j ul
Î ½
Ġr ana
Ġhelp ful
_ %
Ġà¦ªà¦° à¦ª
b rit
k om
à¦Ľ à¦ļ
Ġgr oups
Ġà¦ªà¦° à¦Ĺà¦£
Ġà¦ī à§°
Ð° Ð½
Ġà¦ľà¦¨ à¦¬à¦¸à¦¤
at ors
Ġà¦°à¦£ à¦ľ
se e
à¦ıà¦® à¦Ł
à§İ à¦¨
Ġg iving
stat us
Ġà¦¬à¦Ľ à¦°à¦ķ
Ġfore ign
à¦¤à¦° à¦¦
Ġim m
Ġshare d
Â ®
Ġtru th
à¦ķà¦¬ à¦Ľà¦°
11 1
Ġdoes n
Ġla unch
r t
Ġcom ing
ÙĬ ØŃ
Ġmon itor
à¦ıà¦®à¦ĩ à¦ıà¦°
Ġb ob
Ġex ample
Ã ®
ch at
is a
t or
à¦¾à¦ģ âĢĻ
od es
Ġd ress
Ġà¤ ¯
Ġev ent
Ġcap ital
im edia
Ġà¦ªà¦¶ à¦®
Ġme h
à¥ ī
Ġà§¨ à§§à§Ń
ÙĬ Øª
Ġ( -
ail kantho
ä¸Ń æĸĩ
Ġc ro
er gy
Ġst aff
ol es
à¦Ł à¦§à¦°
à¦¯ à¦ªà¦¨
Ġh at
à¦« à¦¡
Ġn one
ing h
Ġab s
Ġsh ip
Ġman ager
set ting
l ik
Ġjon no
12 8
Ġfish es
Ġe le
media fire
à¦ľ à¦²à¦ķ
à¥¤ âĢĺ
à¦¸ à¦¯à¦ľ
Ġ10 8
Ġuse ful
f ic
j j
à¦Ĩ à¦°à¦ķ
Ġt it
Ġc ow
ee ee
Ġwr ong
Ġà§¨à§¦ à§«
w er
Û ³
Ġà¦Ĩà¦ĵà¦° à¦Ļ
fo x
Ġpar k
Ġexp ert
à¦°à¦¤ à¦ĵ
d ash
Ġext ra
âĢĻ :
ath e
........ ..
Ġà¦ķà¦¥ à¦¨
contact s
? '
enn ai
Ġà¦Ł à¦¨à¦ķ
Ġà¦¸ à¦²à¦¨
Ġà¦¤ à¦°à¦¤
Ġ( "
Ġre du
Ġmast urb
Ġkn own
à¦®à¦¤ à¦Ń
Ġg t
Ġà¦¤ à§İ
Ġc ook
ĠÙħ Ø§
Ġà¦ķà¦¬ à¦ľ
Ġà§§à§® à§¦à§¦
à¦¹à¦¤ à¦Ń
p es
à¦¤ à¦Ļ
Ġà¦¤ à¦ªà¦¸
à§ĩà¥¤ )
à¦¤à¦° à¦ĵ
Ġà¦¸à¦® à¦¬à¦¯
Ġà§¨ à§§à§®
à¦¬à¦² à¦²
à¦ķ à¦¤à¦¨
Ġw az
if i
ĠðŁĺ Ľ
à¦² à¦ļà¦°
el an
Ġlat er
Ġmon soon
Ġbe g
Ġà¦ª à¦¯à¦°
ent y
Ġà§§à§Ń à§®
h in
à¦¦à¦¨ à¦®à¦¯
ex ception
Ġab ove
ãĢ ģ
à¦¿à¦ĥ ,
Ġr iver
end ar
f c
à¦¦ à¦ĺà¦¨
Ġ11 5
sp orts
kh el
Ġag ree
16 0
v n
Ġb old
Û µ
Ġsever al
Ġd os
à¦ħ à¦ŀ
à¦· à¦°à¦ķ
à¦¸à¦ªà¦¨ à¦¡
à¦Ł à¦ªà¦°
Ġ2 003
à¦ľà¦² à¦¦
Ġnar ay
Ġcommer cial
10 8
æ Ĺ
Ġp and
Ġaw ards
Ġà¦Ĩà¦¸ à¦Ĺà¦°
g anj
Ġà§§à§® à§Ń
** *
y er
Ġn ature
ins urance
Ġà§§à§® à§¯
is es
Ġo w
as cript
Ġauthor ity
Ġà§§à§Ń à§¯
Ġe yes
à¦°à¦¶ à¦®à¦¨
Ġmedic ine
Ġf est
lo k
à§ģâĢĻ à¥¤
ra f
Ġb or
Ġà¦Ĭ à¦·
Ġk iv
Ġsub mitted
Ġdr ive
24 7
à¦¶ à¦²à¦Ĺ
Ġà¦ļ à¦¹
à¦Ĺà¦² à¦¦
Ġpo et
à¦¬à¦¨ à¦ĩ
Ġà¦® à¦¸à¦¨à¦¦
iv ery
Ġbar isal
x t
Ġth er
id eb
Ġint el
à¦¸ à¦¶
Ġfi eld
Ġà¦§à¦¨ à¦ŀ
Ġre ve
Ġt en
p g
Ġn aj
Ġappre ci
ed i
Ġs la
att ach
Ġà¦¬ à¦ļà¦¨
Ġà¦ĺà¦° à¦Ĺ
ie ber
à¦ĸ à¦®à¦£
à§ĩ! âĢĿ
à¦°à¦¤ à¦¹
à§ĭà¦ģ ,
à§ĭ âĢĵ
à§ĭ? âĢĿ
Ġb bb
Ġwhats app
à¦®à¦¸ à¦ļ
Ġre lease
Ġà§§à§® à§§
Ġà® ¤
à¦ī à§°
Ġà§§à§¯ à§¨
Ġmin istry
n an
à¦ļ à¦¦à¦¶
à¦ī à¦ĩà¦¦
à¦¬ à¦²à¦ķ
à¦¹ à¦ĵà¦¯
Ġwonder ful
Ġbe hind
Ġla yout
à¦ı à¦ĵ
Ġch anchal
Ġà¦ĩ à¦ķà¦¨
à¦ħ à¦¸à¦¹
r ics
à¦ª à¦«
Ġc ause
à¦ĸ à¦ĸ
Ø± Ø¬
Ġint rodu
Ġtempl ate
at ory
Ġrep ublic
Ġtak en
à¦¤à¦® à¦ŀ
Ġà¦¬ à¦ľà¦°
à¦ªà¦° à¦¬
Ġal most
ÑĢÑĥ Ñģ
o i
à¦ıà¦ĩà¦ļ à¦ıà¦¸à¦¸
Ġhand s
Ġà¦¬à¦² à¦ķ
Ġà¦ªà¦¤ à¦Ļ
emb ed
Ġp ick
Ġc tr
Ġmar gin
il t
ind a
Ġ10 5
à¦¼à§ĩ ;
kh an
s omoy
à¦¬ à¦ĵà¦¯
à¦°à¦¨ à¦¯
val id
im ate
prim enewsbd
Ġah mad
Û ·
ic on
25 9
à¦ļà¦² à§°
à¦ķ à¦®à¦ķ
Ġe paper
Ð° Ðº
Ġà¦Ŀà¦° à¦Ŀà¦°
à¦ıà¦¨ à¦ķ
. '
Ġc ht
Ġkor a
ant i
(" .
ĠÛ ±Û
Ġ8 2
f ort
Ġmy khel
Ġun known
Ġà¦¨à¦ķ à¦Ĩà¦īà¦Ł
à¦·à¦£ à¦¸
Ġass ist
Ġà¦ħ à¦¯à¦¤
à¤ Ŀ
Ġt ill
à§į âĢĻ
Ġex pl
Ġtr ading
h our
ls d
he alth
à® µ
Ġ9 4
Ġsat kh
Ġe ye
à¦°à¦® à¦ĵ
à¦ī à¦¹
Ġà¦ľ à¦ĵà¦¹à¦°
Ġtra in
h or
ĠØ§ÙĦ Ø·
yout u
Ġh ur
à´ ª
and an
/ \
à¦ĸ à¦ĩ
Ġameric a
Ġà¦¸à¦ķà¦² à§°
ild o
Ġn ir
Ġà§¨ 01
ch ase
à¦¤à¦ķ à¦¡
10 6
Ġear ly
che ck
Ġn ur
it ing
Ġmember s
it ely
à¦¼à§ĭ -
ed om
à¦¼à¦¾ /
k en
Ġak ther
à¸ Ļ
Ġr ank
Ġmo de
Ġà¦ĵ à¦°à¦ķà¦®
14 9
Ġà§¨ à§§à§¬
Ġfound ation
Ġr ang
Ġres pect
Ġal ter
à¦¤ à¦ªà¦¨
à¦ł à¦¤à¦®
à¦°à¦£ à¦°
Ġz one
Ġbas ic
mo vi
ser v
Ġà§§à§® à§ª
Ġbon us
ed in
Ġstud ies
c ell
Ġbr ing
Ġv ac
Ð ¶
Ġf low
Ġk he
Ġto t
Ġ9 2
ÙĦ Ùĥ
Ġf ashion
Ġc able
à¦¿ !!
el la
Ġhol lywood
th read
à¦°à¦¶ à¦¹à¦°
Ġafric a
à§ĩ... à¥¤
à¦¤à¦¨ à¦Ł
à¦·à¦ª à¦ŀ
Ġà§§à§® à§¬
Ġà¦ıà¦® à¦Ĩà¦ĩ
Ġs os
à¦ī à¦ĩà¦°
à¦¿ à§ĩ
lsd exception
lo ve
ia ble
Ġneed s
Ġcha ir
Ġinterest ing
1 18
Ġà¦¶ à¦ĩà¦ķ
Ġl ength
Ġinflat able
Ġst age
Ġmil it
à¤ ĩ
à¦ľà¦¨ à¦°
---- -
Ġà¦ķà¦ĸà¦¨à¦ĵ à¦ĩ
Ġf arm
ØŃÙħ Ø¯
m ens
ud a
Ġst ra
à¦¡à¦īà¦ĩ à¦ļ
end s
Ġbh orer
Ġà¦ĩ à¦²à¦¤
Ġà¦Łà¦® à¦Łà¦®
à¦ľ à¦¬à¦¨
Ġà§§à§¯ à§©à§®
Ġà¦¬à¦° à¦ŀ
à¦ĵ à§±
Ġà¦ľ à¦ª
Ġsp ot
à¦·à¦£ à¦¸à¦¹
Ġw i
o on
Ġp i
à¦Ńà¦¬ à¦ªà¦°
iv ely
Ġcomm and
à¦¾à¥¤âĢĻ âĢĻ
ls quo
ĠâĤ ¹
Ġfiel ds
Ġà§¨à§¦ à§©
à¦¼à¦¾ à§ĩ
à¦ĺ à¦·
as es
à¦Łà¦ķ à¦Ĺ
à¦¤à¦¦ à¦¶
b ul
Ġà¦Ĩ à¦ī
ain s
Ġà¦¦ à¦¹
Ġà§¨à§¦ à§¬
Ġob ject
Ġtry ing
Ġprin cess
h over
Ġà¦Ĩà¦ĩà¦¨ à¦¤
Ġk g
à§§à§¯à§¯ à§¬
à¦¼ âĢĿà¥¤
Ġr an
Ġà¦ĩà¦īà¦ıà¦¨ à¦¡
Ġà§¨ à§§à§¯
al am
à¦¸à¦¦ à¦¦
Ġo v
à¦ħ à¦¨à¦¨
Ġà¦Ĺ à¦¨à¦¨
ra ham
à¦ķà¦ľà¦¨ à¦¦
à¦Ŀ à¦Ľ
Ġà¦¶ à¦°à¦¦
Ġd ia
Û ¸
g ot
Ġà¦§à¦° à¦ª
ones ia
Ġhr k
Ġcom illa
Ġà¦īà§İ à¦«
ou l
à¦ķà¦ª à¦ŀ
Ġà¦ļ à¦°à¦¬
n ed
Ġj ames
Ġ( +
ãģ ®
à¦¼? âĢĻ
Ġp arent
Ð¾ Ð½
Ġv ote
Ġsab ha
00 7
g oo
Ġk y
Ġy a
Ġb io
Ġà¦Ĩà¦ª à¦¦
Ġlo ading
Ġà¦ħà¦¨ à¦Łà¦¨
Ġtop ics
Ġà§§à§¯ à§©à§¬
à§ĩ ^
Ġd d
Ġpl z
ĠØ± Ø³ÙĪÙĦ
Ġpa ul
rob hat
à¦® à¦ķà¦¤
ron ic
à¦ķ à¦°à¦ķ
à¦£ à¦ľà¦¯
à¦°à¦¹ à¦¨à¦¯
à¸ ¢
à§ĩ "à¥¤
Ġà¦¹ à¦°à¦¹
in f
Ġchak rab
h ad
oooo oooo
Ġn ic
il es
Ġx x
or ter
all eng
pro cess
Ġsup robhat
Ġen ough
Ø¨ ÙĦ
Ġmeet ing
à¦¼à¦¾ âĢĻà¥¤
à§° à¦¦à§°
b lowjob
Ġapp le
Ġprothom barta
à¦¾à¥¤ ...
l or
ret urn
à¦¬à¦² à¦¯
Ġà¦ĺà¦¨ à¦«
Ø§Ø ²
Ġquick newsbd
à¦ļ à¦ķà¦Ń
à¦ıà¦¨ à¦ıà¦«
Ġsil k
Ġc ss
Ġà¦¬à¦¹ à¦°à¦®à¦ª
Ġc er
à¦¡ à¦§
en ame
Ġun ion
id i
Ġvis ion
Ġal ert
Ġto y
Ġex cept
à¦ı à¦Ĩà¦°
Ġà¦ıà¦ķà¦ľà¦¨ à¦ĵ
à¦¶à¦² à¦Ł
Ġwrit er
re ed
Ġà¦ıà¦¤ à¦¸à¦¬
Ġà§§à§¯ à§ªà§§
Ġnews bangladesh
st ick
Ġe as
Ġher o
Ġf urn
Ġà§§à§¯ à§©à§¯
à¦¡à¦Ń à¦£
Ġtr icks
à§Ģ ----
Ġp uja
Ġst ation
à¦ĩà¦² à¦ļ
à¦¼à¦¿ à¦ĥ
Ġser ious
à¦¼ à¦ģ
à¦°à¦¬ à¦¦
Ġind ex
Ġsc ient
Ġtreat ment
Ġà¦ªà¦¦à¦ķ à¦ª
Ġà¦ľà¦¬à¦° à¦¦à¦¸
200 8
f d
à¦¨ à¦®à¦¯
à¦ıà¦¸ à¦ıà¦¨
11 4
à¦· à¦¦à¦ķ
Ġr um
à¦Ĩ à¦¸à¦¨
Ø§ÙĦ Ùī
Ġfresh water
Ġd aught
b es
Ġam it
à¦¨ à¦¦à¦¨
Ġl ord
à¦ī à¦ªà¦ķ
Ġà§¨à§¯ à§¦
Ġkhabor online
j y
Ġà¦Ĩà¦¤ à¦¤
Ġpriv acy
Ùĥ Ø±
à¦ļ à¦£
Ġbitco ins
Ġcele br
à° Ĺ
Ġs ri
old er
Ġvar ious
der abad
dhak a
Ġt ax
à¦¸ à¦ł
os c
Ġpr adesh
à¦¤ à¦ĵà¦¯
à¦Ĺà¦£ à¦¨
Ġà¦ıà¦® à¦ıà¦¨à¦ı
à§Ĥ à¥¤
ac ity
Ġlook s
à¦°à¦® à¦¶à¦ĩ
ĠÌ ģ
Ġ1 18
ol i
Ġà¦¨ à§°
Ġà§©à§¦ à§¨
Ġà¦¸ à¦ľà¦¨
Ġhal f
ĠÂ« Â»
Ġà¦Ĺ à¦¨à¦®
à¦ĩà¦Ń à¦ķ
bb c
Ġà§§à§¯ à§ªà§©
Ġà¦®à¦¦ à¦¤
Ġà¦ĵ à¦¤à¦ª
Ġw p
ri al
06 00
Ġloc ation
Ġà¦ķà¦¸ à¦°à¦¤
à¦ĩ à¦īà¦¡
Ġà¦ĭ à¦·à¦Ń
Ġà¦ªà¦¥ à¦ķ
se y
à¦ĩ à¦¤à¦²
Ġà¦¦ à¦¹à¦¨
à§ĩ âĢĺ
ib on
Ġresp onse
s elf
- à§ĩ
Ġà¦¤ à¦²à¦¤
Ġd aw
>> >
v ens
Ġà¦® à¦¶à¦Ĺ
Ġs ud
ang a
h it
t b
11 2
Ġv an
Ġb ath
et able
Ġà§¨à§§ à§§
pos it
Ð¾ Ð»
à¦ıà¦« à¦ıà¦¸
Ġdefin itely
Ġcand id
ort y
à¦ķ à¦¤à¦®
Ġà¦¬à¦¸ à¦¤à¦Ń
Ġà¦Ĩà¦Ł à¦ª
p apers
Ġà¦¤ à¦ĵà¦¹
Ġ3 04
Ġch ennai
p ak
Ġ10 7
Ġà¦¬ à¦¶à¦°
ast e
or ge
h p
à¦¤ à¦¦à¦²
à¦® à¦®à¦°
Ġins ide
Ġindust ry
à¦¼ à§Ī
Ġà¦ĩà¦īà¦ıà¦¨ à¦ıà¦ĩà¦ļà¦¸
Ġà¦Ĩà¦ĩà¦ıà¦¸ à¦ĵ
Ġà¦¬ à¦Łà¦®
Ġap nar
Ã¢ n
à¦Ĺ à¦ľà¦Ł
Ġdise ase
ro ke
à¦® à¦¦à¦°
Ġà¦Ń à¦¡
Ġpartic ular
Ġà¦ıà¦¤à¦¬ à¦¡
u an
à¦²à¦ķ à¦Ł
Ġà¦ĸà¦¨ à¦¨à¦ķ
Ġe id
ewh ere
eb d
ren ch
Ġfinan cial
Ġà§§à§¯ à§ª
b ank
Ġser ver
à¦Ł à¦®à¦¨
à¦ı à¦ıà¦®
à¥¤à¥¤ à¥¤à¥¤
à¦¯à¦ķ à¦¥
Ġla ptop
Ġeng land
à¦Ń à¦²à¦¬
Ġà¦¬à¦¨ à¦²à¦¤
n th
Ġdar pan
Ġag ric
Ġdav id
30 4
à¦°à¦£ à¦ĩ
Ġà¦ĩ à¦¡à¦¬
à¦¾' à¥¤
Ġà¦īà¦² à¦«
tar get
ess ion
Ġà¦¤ à¦¯
à¦¬ à§°à§°
Ġpay day
Ġh az
Ġà¦ĺà¦¨ à¦¬à¦¸à¦¤
Ġh av
Ġà¦¬à¦¨ à¦ª
à¦Ŀ à¦®
// //
à¦¥ à¦¦à¦¨
Ġer ror
Ġoffic er
Ġl ou
Ġà¤ ¤
à¦ıà¦¸ à¦Ĩà¦°à¦ıà¦®
Ġcon ver
àª ¾
ĠðŁĻ ģ
Ġà§§à§¯ à§§
ideb ar
à¦¼à¦¾ âĢĿ
man ent
ÑĢ Ðµ
up ta
s el
Ġà§© à§§à§¦
Ġic on
Ġit em
Ġà¦¨à¦¬ à¦¦
Ġà¦ħà¦¹ à¦Ļ
par se
à¦²à¦¨ à¦ĵ
Ġà§§à§¯ à§¨à§§
ÙĬ ÙĤ
Ġà§¦à§§à§Ń à§§à§©
Ġà¦¶ à¦®à¦¶
Ġra p
Ġm and
ãĥ ¼
Ġà¦Ĩà¦ĩà¦ıà¦¸ à¦Ĩà¦ĩ
ar ial
à¦ķà¦¤ à¦ķ
Ġà¦¬ à¦¹à¦®
Ġà¦¸à¦° à¦²à¦¤
Ġliter ature
Ġarticle à¦ļ
ell ing
11 5
Ġbr anch
à¦® à¦ĩà¦¨
Ġb ik
m at
à¦¬à¦° à¦²
Ġac qu
Ġlet ter
ap t
Ġfor ward
à¦°à¦¸ à¦¤
Ġc d
op adhyay
à¦¼à¦¿ !
Ġeffect s
s ur
à¦®à¦² à¦¤
à¦¤ à¦§à¦¨
Ġb attery
Ġlink s
el ess
à¦Ĺà¦£ à¦®
ĠØ§ÙĦ Ø°
ire ct
st o
s ony
Ġà¦ĩ à¦ķà¦®
ĠØ¨ Ø§ÙĦ
Ġà¦ķà¦¨à¦ķ à¦¨
Ġre comm
Ġtr in
Ġsuppl iers
er nal
d ro
Ġà¦Ĺà¦£ à¦Ĺ
Ġà§¨à§Ń à§«
fa ult
Ġact ive
ru ction
Ġm iddle
15 5
à¦¸ à¦¬à¦²
à¦°à¦® à¦§à¦°
b on
Ġà¦Ĩà¦ĩ à¦¤
Ġcertain ly
Ġà¦¹ à¦ª
Ġb ond
Ġà¦¬à¦Ľ à¦°à¦¬
c n
Ġb ip
Ġ14 0
à¦ķà¦ľà¦®à¦ķ à¦ª
q b
ult an
Ġb ay
ĠðŁ ĳ
1 24
à¦ķ à¦¨à¦ķ
Ġà¦¬à¦ĩ à¦ªà¦¤
fil ter
Ġrep res
Ġporn stars
- "+
Ġà¦ªà¦¦ à¦¬à¦ŀ
à´° à´µà´
Î ¿
Ġà¦ĩ à¦ľà¦®
im ages
Ġab sol
Ġro le
tic al
cyc lop
Ġs ang
Ġf am
ah id
à¦ıà¦¸ à¦Ĩà¦°
Ġent ire
d oc
Ġf er
Ġà§© à§©à§©
rip t
, -
r r
Ġbrit ish
Ġsark ar
ot ing
m n
Ġà¦Ĩà¦¨ à¦«
à¦Łà¦« à¦°à¦®
à¦Ĺ à¦¬à¦¤
Ġoff ers
Ġwant s
Ġcontin u
v j
ut s
× ¨
$ $
Ġà§¨à§¦ à§®
Ġed ited
Ġà§© à§§à§¨
à§§ à§¦à§¦à§¦
Ġin r
rep ly
Ġà§¨à§¦ à§¨
10 9
s in
m ap
ic ial
Ġspec ific
Ġà¤ Ŀ
Ä ĵ
Ġà¦ª à¦łà¦¨
Ø³ ÙĨ
h l
s q
à§ĩà¥¤ -
à¦Ł à¦ªà¦¤à¦Ļ
16 5
12 9
Ġin sp
t k
Ġà¦Ń à§±
}} }
Ġprob ably
à¦¸ à¦°à¦¦
istic s
); }
à¦£ à¦¶à¦ķ
à¦· à¦Ľ
ass am
aw a
Ġà¦°à¦£ à¦¤à¦°
Ġà¦ı à¦ªà¦°
Ġrec ogn
ild enafil
Ġd ildo
Ġdel ivery
Ġmaj or
Ġsatkh ira
s ites
Ġsy ed
Ġf it
Ġà¦Ĩà¦¬ à¦²
à¦Łà¦ķ à¦¥
iz ing
Ġide as
Ġà¦ľ à¦¹à¦°
o a
Ġà¦¯à¦¤ Åĵ
Ġu c
Ġà¦ıà¦ĩà¦ļ à¦ıà¦®
Ġdisc ount
Ġà¦Ĺà¦² à¦ª
lim ited
Ġproble ms
æĹ ¥
n k
à¦¦ à¦²à¦ķ
Ġen cyclop
à¦²à¦¬ à¦ķ
Ġà§§à§¯ à§©à§Ń
Ġch amp
200 7
Ġwatch ing
Ġmom ent
ar ticles
Ġà¦ĩà¦¨ à¦¹
import ant
n ers
Ġà¦® à¦°à¦¨
Ġhe y
à§§ à§§à§¦
à¦§à¦¨ à¦®
Ġof ten
Ġd ak
Ġb att
ur ation
à® £
siz etable
n es
à¦Ĥ /
, âĢľ
Ġà¦¸à¦¦ à¦°à¦¦
à¦ħ à¦¥à¦ļ
Ġab raham
Ġlo ves
Ġtele vision
Ġà¦¸ à¦¯à¦¤
Ġg un
à§ĩ .....
Ġà§§à§¯ à§©à§«
aaaa aaa
b ub
Ġd rop
à¦ĩà¦ª à¦®
Ġtuner page
Ġ' #
ãĢ Ĥ
Ġe lement
Ġpr on
à¦° à¦ĩà¦¯
à¦§ à¦ļ
b ot
à¦¹à¦¨ à¦Ĺà¦ŀ
Ġà¦ªà¦¦ à¦¦à¦²
à¦ĩ à¦¶à¦¤
à¦°à¦£ à¦®
Ġgo es
arr ay
Õ ¥
Ġà¦ı à¦·
Ġvis a
à¦ħ à¦ļ
Ġmem ory
b ag
ann y
à¦¦ à¦°à¦®
Ħ à¸
Ġrup ee
2 30
Ġch an
Ġla k
â Ĺ
à¦ªà¦Ł à¦ªà¦Ł
sp ond
Ġà¦Ĩà¦° à¦¬à¦¦
à¦¼à¥¤ à¥¤
12 7
s im
Ġmonth ly
iv ity
à¦ģ à¥¤
Ġla b
à¦ļà¦¨ à¦Ł
et e
àµ ĭ
Ġh istor
Ġà§§à§¯ à§¨à§¯
n ight
à¦¤à¦² à¦®
ÑĢÑĥÑģ ÑģÐºÐ¸Ð¹
Ġho le
à¦° à¦«à¦²
à¦¹ à¦°à¦¦
& &
paÃ± ol
00 9
display style
Ġ !!!!
Ġmark ed
Â ¶
à¦¬à¦² à¦¡à¦¨
h man
Ġb ach
à¦· à¦§à¦°
à¦¿) âĢĻ
à¦® à§İ
so cial
eb order
pos ed
osh op
y ar
Ġspe ak
Ġann ounc
Ġconst it
à¦¤ à¦¯à¦¶
ol ar
à§° à¦¬à¦¨
à¦ıà¦² à¦Ł
Ġshow s
br idge
Ġà¦¨à¦ľ à¦°à¦ķ
à¦ıà¦« à¦ĵ
Ġhus band
à¦Ĺ à¦§
Ġà¦ı à¦ĸà¦²
à¦¨ à¦ªà¦°
É Ļ
it ure
à¦ªà¦¦ à¦®
à§§à§¯ à§¯à§¯
Ġan s
Ġal p
Î ¼
à¦ķà¦¨ à¦Ĺà¦°
al and
ed uc
à§ĩ à§Ģ
Ġfram eborder
Ġr ip
Ø§Ø ·
ab lish
Ġà¦ĩà¦¸ à¦¤
Ġpropert ies
Ġswe et
Ø¨ Ø¯
Ġin te
à¦¸ à¦°à¦¶
in ent
Ġyou th
Ġn ad
ha ha
h ir
à¦£à¦Ĺ à¦¤à¦®
Ġlo st
à¦Ĺà¦² à¦Ĺ
Ġox ford
. âĢĻ
t est
Ġex act
Ġà¦ĩà¦ī à¦Ľ
ÙĬ Ùģ
ful ly
Ġper manent
a ur
à¦ħ à¦·
âĢ ŀ
10 4
Ġper formance
ĠØªØ¹ Ø§ÙĦÙī
Ġun it
Ġà¦ĩ à¦ĸà¦¤
Ġhy derabad
Ġn ab
h q
à¦Ł à¦¬à¦¦
Ġcom b
Ġch em
Ġm ale
à¤ ¢
Ġà¦Ĩà¦¦ à¦®à¦¶
à¦ķ à¦ļà¦ķ
Ġk u
à® ³
inter est
Ġadv an
Ġhel d
Ġ á
g al
à¦° à¦ĸà¦¨
00 8
à¦¬à¦¨ à¦ĵ
Ġsex ual
Ġà¦ħà¦§ à¦¸
Ġbut ton
Ġ- âĢĺ
Ġmu jib
cor onavirus
Ġb v
Ġà¦ķà¦¤à¦ķ à¦Ĺ
Ġà§¨à§¦ à§¨à§ª
Ġà¦® à¦ļ
Ġs idd
Ð° Ð»
categ ory
Ġzoom bangla
Ġp sy
Ġà¦ĭà¦£ à¦¦
ĠØ ¶
à¦¸ à¦«à¦°
iv a
st ud
à¦® à¦ĺà¦°
Ġdes c
Ġctr l
Ġg ram
Ġà¦Ĩà¦¨ à¦®à¦¨
Ġadv ance
Ġ ç
Ġà¦«à¦° à¦ĵà¦¯
Ġgu ard
sc reen
h ib
\" /\
à¦¤ à¦¤à¦°
Ġsol id
à¦ĸ à¦¸à¦¹
ram a
Ġorgan ization
à¦¨ à¦Ŀ
Ġli ber
à¦¤ à¦ľà¦¨à¦ķ
th umb
à¦ĩà¦¨ à¦Ĩà¦ª
à¹ Ģ
Ġà¦Ľ à¦®
Ġà§§à§¯ à§ªà§ª
à¦¤à¦¨ à¦®
Ġà® ħ
à¦Ń à¦¡
ugu Ãª
ia z
à¦Ł à¦ĵà¦Ń
à¦§ à¦¬à¦¨
à¦Ł à¦Ļ
Ø± Ø¨ÙĬ
Ġqu al
Ġch alleng
Ġdra w
Ġslo ts
à¦ıà¦ĩà¦ļ à¦ıà¦«
à¦®à¦£ à¦ª
à¦¥ à¦¸à¦®
Ġà§© à§§à§«
Ġqu ot
Ġà¦¬à¦¨ à¦¦à¦¸
Ġà¦Ĩà¦ľ à¦Ĺ
ang anj
11 7
Ġà¦ĵ à¦Ŀ
à¦®à¦¤ à¦¤
45 6
Ġ: .
om y
pl es
à¦° à¦ľà¦¯
re port
11 9
Ġà¦ķ à¦Ľ
15 7
m v
' d
ip le
Ġ& #
pe ople
à¦¦à¦° à¦¨à¦Ĺà¦°
Ġx n
Ġà¦¬à¦Ľà¦° à¦ľ
Ġw k
Ġscroll ing
z k
à¦° à¦¶à¦¨
à¦° à¦Łà¦¨
à¦ªà¦¦ à¦¶
Ġà¦ķ à¦ĩà¦Ľ
Ġgu id
Ø³ Øª
à¥¤ âĢľ
à¦Ĩ à¦¹à¦¤
à¦°à¦£ à¦¸à¦¹
shik sha
il s
à¦° à¦ıà¦°
Ġlo l
ans k
à¦ł à¦ķà¦Ł
à¦ĩ à¦®à¦¬
à§Ģ âĢĵ
publish ed
12 6
à¦Ĺà¦² à¦Ł
à¦Łà¦° à¦ªà¦¨
Ġabd ullah
à¦ĩ à¦¸à¦®à¦¯
un de
Ġhol y
sh o
Ġà§¨à§¦ à§ª
ar ia
Ġmean ing
Ġmil f
Î º
right arrow
un ity
Ġà¦¨à¦¦ à¦Ń
Ġà¦Ĩà¦ĩà¦¨ à¦¬
] )
10 2
15 9
Ġl ic
Ġs lot
Ġc ab
Ġarticle à¦Ĺ
Ġm ount
c os
lang uage
17 0
áĢ ¬
à¦¦ à¦¬à¦°
Ġà¦¬à¦° à¦¨
Ġà¦Ĳ à¦ĸ
Ġà¦ĩà¦ī à¦¡
Ġpad ma
à§ĭ "
à¦Ļ à¦¡
Ġrep l
Ġ ì
itt ee
ham med
à¦¼à¥¤ '
à¦Ń à¦ĵ
Ġd j
Ġha que
ot ic
à§§à§¯à§¯ à§®
à¦Ĥ âĢĻ
Ġr on
à¦¥ à¦°à¦ķ
Ġâ ĩ
Ġsa fe
à¦¤ à¦ķà¦²
Ġme as
Ġan ik
17 8
int u
qu est
Ġk er
à¦¼à§ĩà¥¤ âĢĻ
à¦® à¦ł
Ġmur der
Ġà¦ľà¦ĵà¦¹à¦° à¦²
Ġà¦ıà¦ķ à¦ĺà¦°
à¦¬à¦° à¦ĸ
l v
Ġà¦ıà¦² à¦ı
Ġmunshig onj
ĠÙĪ Ø£
Ġalb um
as ed
Ġse ctor
Ġnav igation
16 8
Ġà¦¨ à¦°à¦ª
count ry
load ing
Ġhot el
ap ps
à¦®à¦¸ à¦Ł
Ġp are
et t
11 6
Ġb ud
w ell
í ķ
= \
n ob
Ġ10 4
Ġà¦ıà¦¨ à¦ĩà¦¸
as ab
Ġmot or
ul ated
Ġà® ®
à¨ ¾
zz aman
à¦¬ à¦ī
Ġinter view
Ġ1 à§¨
ĠØ¹ÙĨ Ùĩ
Ġà¦¦à¦¶ à¦¦
Ġr ules
à¦¹ à¦ľà¦®
Ð¾ Ð²
à¦¬à¦¤ à¦¸
ot y
æľ ¬
Ġpri ority
Ġà¦ª à¦¥à¦¨
is ch
à§ģ âĢĵ
Ġbe low
ka al
r im
Ġsc ore
ÂŃ à¦¾
"> <
Ġter m
er c
Ġ 000
Ġdire ction
à¦¾! âĢĿ
pe cia
Ġà¦Ĺ à¦ª
14 0
à¦°à¦¬ à¦²à¦Ń
re search
Ġà¦ĵà¦ļ à§°à¦¤
à§Ģ ]
k d
la b
Ġfre edom
ult ure
à§ĭ ..
Ġfavor ite
à¦¼à¦¿ )
à¦®à¦² à¦Ĺ
Ġà¦ĺà¦¨ à¦ĺà¦¨
ary a
Ġgu est
à¦ļà¦ķ à¦ķ
ors k
10 3
g ap
Ġt am
Ġinter val
Ġsun porno
let ter
Ġn om
Ġpropert y
à¦¼ ----
it an
Ġr ound
à¦ĩ à¦īà¦ķ
Ġà§§à§¯ à§©à§¨
Ġl cd
Ġà¦Ĳ à¦Ł
16 7
à¦Ĩ à¦ŀ
Ġà¦¨ à¦¨à¦¦
{ \
13 5
Ġà¦«à¦° à¦°
Î ·
Ġn ames
hind i
Ġà¦¬à¦Ľ à§°à§°
Ġà¦° à¦Łà¦¨
Ġà¦¨ à¦Ľ
ra v
à¦ĩ à¦¤à¦ķ
th y
Ġdainik shiksha
ur ing
p ower
à¦ıà¦¨ à¦ĩà¦ī
Ġà¦®à¦¨ à¦¨à¦¶
Ġth reat
Ġà¦ĩà¦īà¦ıà¦¨ à¦¬
à¦Ĩ à§°
i q
k u
à¦¸ à¦§
à¦ı à¦ıà¦¸à¦ª
à§§à§¯à§¯ à§Ń
à¦¼à¦¾à¥¤ âĢĻ
Ġprote ction
n ote
à¥¤ #
Ġà¦ªà¦¥ à¦ª
f ol
å ı
à¦ļà¦¨ à§°
à¦¤à¦¬ à¦¬
Ġà¦¬à¦° à¦¯
Ġp ati
e Å¡
Ġt adalafil
Ġnat un
publish er
à§§à§¨ à§©
à¦ªà¦¨ à¦Ĺ
à¦¼ ..
Ġà¦¸ à¦Ł
re al
ed y
Ġb ij
à¦¼à§ĩ .
à¦ħ à¦¹
Ġà¦ħ à¦¢
à§ģ à¦¾
à¦¾ ......
à¦¦à¦¨ à¦¬
Ġ???????? ?
à¦¨ à¦ªà¦²
à¦Ĺ à¦¤à¦°
à¥ĭ à¤Ĥ
em at
n ical
Ġk ich
Ġa e
ab out
à¦¯ à¦Ľ
Ġk at
g ress
à¦¸à¦ķ à¦ª
Ġà¦Ĩà¦ĩ à¦ĵ
à¦¨à¦ĩ à¦ī
Ġ1 24
Ġà§¨à§ª à§«
ĠÙĪ ÙĤ
à¹Ģ à¸
Ġorig in
b v
à¦¤ à¦°à¦¤
Ġo em
l td
w est
à¦¶ à¦¡
Ġà¦Ĩà¦² à¦ªà¦¨
à§į *
Ġdem and
Ġdes i
Ġà¦ķà¦° à¦¸
Ġen ergy
Ä «
Ø§Ø ´
Ġlik ely
ell ig
Ġà§§à§¯ à§§à§Ń
Ġà§Ń à§©à§Ń
à¦ļ à¦²à¦¬
à° ¾
Ġmarri age
à¦¬ à§°à¦¤
à¦¤à¦² à¦Ł
Ġbart abangla
Ġd ating
Ġpop ulation
Ġà§¨à§ª à§¨
Ġ> =
Ġmin s
com ing
Ġà§¨à§¦ à§«à§¦
Ġbb w
à¦¤à¦ķ à¦£
Ġfact s
Ġsett ings
Ġ ice
Ġpm id
2 24
Ġp kr
Ġbl ond
Ġprot est
à¦ıà¦ĸà¦¨ à¦ĵ
à§§à§© à§¦
Ġgall ery
Ġ ens
Ġv ent
Ġà¦¹ à¦ªà¦ķ
Ġre fer
à¦¦ à§İ
se p
Ġjok es
Ġà§© à§ªà§¦
Ġà§§à§¬ à§¦à§¦
Ġro ll
om ain
à¦ł à¦Ĺ
ob arta
Ġà¦ħà¦² à¦¸à¦¤
Ġà¥¤ [
Ġb ieber
Ġ- "
à¦¨à¦Ń à¦Ļ
Ġreg ular
ÙĪ Øª
Ġamaz on
Ġà§¨à§¦ à§Ń
iz er
Ġact or
+ )
Ġlearn ing
Ġqu ite
Ġà§§à§¯ à§§à§®
Ġang el
Ġrepres ent
as ht
Ġg ard
Ġà¦¬à¦°à¦ķ à¦¤à¦®à¦¯
à¦°à¦¤ à¦¸à¦¹
, [
à¦¤à¦° à¦®
à¦ķà¦¦ à¦²
à¦Ĺà¦² à¦¸
à§Į ,
01 5
à§İ à¦°
Ġà¦Ĩà¦¤ Åĵ
mens ingh
Ġ200 2
ast ic
Ġb ib
vis ual
Ġà¦ıà¦ĩà¦ļ à¦Ĩà¦°
Ġ10 6
ounc il
à¦¯ à¦£
Õ ¡
h sc
à¦§ à¦®à¦¨
à¦¾à¦ģ )
à§Ī -
Ġst ruct
25 5
Ġche ats
Ġhd d
Ġad ult
Ġà¦Ŀ à¦ŀ
Ġyours elf
à¦¨à¦ĵ à¦°à¦ķà¦®
Ġpo or
à¦¿à¥¤âĢĻ âĢĻ
Ġk are
à¦¨à¦¬ à¦®
Ġcorre spond
Ġd ied
à¦ī à¦ªà¦¸
Ġà¦¬à¦¨ à¦¸
Ġtai wan
" -
à¦ľ à¦²à¦¬
mob ile
13 9
à¦Ĺ à¦®à¦¯
Ġm el
Ġà¦¬à¦¸ à¦°
Ġk ids
Ġarticle à¦«
j av
................ ........
c our
Ġvar i
Ġà¦ħà¦ªà¦¹ à¦°à¦¨
Ġà¦¤ à¦ŀ
à¦¥ à¦¸à¦¹
Ġà¦¦ à¦ĩà¦¯
Ġà§©à§® à§¦
men u
Ġcoup le
Ġc ounter
Ġj ew
Ġà¦ļ à¦°à¦Ń
13 7
Ġcan not
Ġà¦ªà¦° à¦ĸ
à¦ĩà¦¨ à¦Ń
circ le
à¦°à¦® à¦Ł
Ġà§¨à§© à§«
14 8
v id
Ġcl one
Ġf t
ĠÛ ļ
Ġà¦ħà¦° à¦Ĺ
Ġb s
à¦¬à¦° à¦ĵ
Ġh ay
Ġcl s
à¥¤ ]
Ġ10 9
à¦Ĩà¦¨ à¦¹
Ġind onesia
r b
Ġà§§à§¯ à§¦à§¦
à¦¶à¦¨ à¦ĩ
à¦¿ "à¥¤
à¦ĺ à¦°à¦Ł
à¦ª à¦°à¦¤
Ġ200 00
à¦¬à¦¹ à¦¨à¦®à¦¨
Ġfin ally
Ġà§§à§¯ à§¦à§«
Ġc orn
t its
Ġà¦² à¦Łà¦ķ
à¦ĸà¦¨ à¦¨
qu ake
à¦¦ à¦ļ
Ġm ix
\- à¥¤
Ġre lat
Ġkah ini
Ġà§ªà§® à§¦
de v
à¦Łà¦ķ à¦ķ
Ġrah ul
à¦ķ à¦Ĺà¦¨
' >
o id
Ġà¦ī à¦¤à¦°
Ġm it
Ġ: (
Ġà¦¹ à¦°à¦Ń
11 3
à¦ķ à¦ķà¦°
à¦¿ à¦¿
Ġb at
Æ Ĵ
Ġ ict
à¦ª à§İà¦¸
à¦Ĩ à¦¨à¦¸
Ġà¦« à¦ķà¦°
Ġaff airs
Ġp ow
Ġà¦¬ à¦īà¦¦
Ġsal es
Ġst or
u ages
Ġ10 2
à¦¸à¦¨ à¦¸à¦¹
Ġhab ib
Ġb cs
ph arm
20 8
Ġdaught er
Ġbangladesh er
ast han
ov ery
br and
c ard
ap os
18 7
âĿ¤ âĿ¤
ht m
ab u
17 7
Ġla dy
d on
Ġach ie
Ġvo ices
Ġà¦ı à¦ıà¦¸
h ash
Ġà§¨à§© à§ª
Ġà¦Ĩà¦ĩ à¦¡à¦²
Ġest ablish
à§ĩ !!!
Ġch atter
i los
Ġn ai
à¦®à¦ļ à¦°
Ġrep orter
Ġà¦īà¦ĩà¦² à¦¸à¦¨
Ġiq bal
e ur
Ġk zt
Ġpartic ip
Ġs q
om s
Ġcomm ittee
Ø¹ Ø¯
Ġà¦¸ à¦¶à¦°
Ġà¦īà¦ª à¦§
à® ª
ÑĢ Ð¸
Ġ3 50
19 9
à¦Ĩà¦¸ à¦Ľ
Ġà§¨à§® à§®
à¦¬ à¦Ĺà¦£
à§Ģ âĢĶ
Ġto wards
Ġà§¨à§ª à§Ń
) "à¥¤
t ok
Ġà¦ıà¦Ł à¦°
ÙĬ Ùĥ
Ġà¦ı à¦®à¦ķ
Ġstre et
à§ĩà¦ĥ -
Ġd vd
à¦®à¦¹ à¦¨à¦¨
f low
p on
Ġrecent ly
à¦¼ _
qu es
à¦°à¦Ĺ à¦¨
Ġà§¨à§¨ à§Ń
Ġà¦®à¦¹ à¦°
ĠÃ ¸
d ig
ro ad
Ġsn ap
à¦¬à¦¨ à¦ª
im an
e i
à¦ĩ à¦ľà¦°
cut ta
Ġcin ema
Ġ );
ÙĦØ§ Ø©
Ġà§§à§¯ à§§à§¯
à¦« à¦®
à¦·à¦£ à§°
Ġhe ar
es is
` âĢ¡
Ġà¦¸à¦® à¦®à¦¨
h one
Ġdevelop ed
) âĢĿ
port al
com mer
Ġse ems
cr icket
Ġ ing
... âĢĿ
Ġtv à¦¸à¦¦à¦¸
d em
ÙĨ Øª
n on
k olkata
Ġchap ter
us a
Ġra ins
Ġchod ar
a à¦¸à¦¦à¦¸
t an
Ġà¦¬ à¦¢
à¦¶à¦¨ à¦¶
Ġg es
Ġh ous
r n
Ġde posit
Ġtr uly
Ġstat ement
Ġm ont
Ġex clusive
Ġn ag
Ġà§§à§¯ à§©à§ª
us ion
à¦ªà¦ķ à¦¦
Ġà§¨à§« à§«
Ġv ed
à¦« à¦¸à¦¹
à¦¤à¦° à¦ĩ
Ġm v
à¦² à¦°à¦°
in ar
13 8
Â¬ à¦¾
à¦ķà¦¸ à¦Ļ
Ġà¦Ĩ à¦īà¦¨
Ġà¦ħà¦§ à¦®
Ġdem oc
w f
Ġrelig ious
Ġpract ice
ad o
iz z
à¦ķ à¦°à¦¤
Ġà¦ıà¦¨ à¦«
) ...
by e
à¦¶à¦ķ à¦ª
Ġà§¨à§¬ à§«
Ġp ills
âĸ ¡
à¦« à¦£
23 5
Ġb har
Ġf u
à§İà¦¸à¦ķ à¦¸à¦¹
àª °
c reat
à¦ı à¦Ĩà¦ĩ
13 6
Ġemp loy
âĪ Ĵ
v k
Ġà§¨à§¦ à§¯
à¦ĩà¦ķ à¦ª
à¦Ł à¦¤à¦°
er ed
Ġp ix
Ġn ik
Ġsp andan
Ġbangal ore
à¦Ĩ à¦®à¦²
à¦£ à¦¸à¦®
ac cess
Ġdog gy
Ġî Ļ
type of
Ġà¦Ńà¦°à¦£ à¦ª
Ġà§° à¦ļà¦¨
à§¨à§¨ à§¨
Ġà¦ħà¦Ĺ à¦Ń
Ġf x
15 6
wh ere
Ġn u
à« Ģ
= /
z ip
à¦Ń à¦°à¦ª
Ġg an
ÙĪ Ùģ
Ġà¦ĩà¦¸à¦ķ à¦¨
Ġà¦¹à¦² à¦®
Ġin come
Ġuser one
Ġà¦¬à¦¦à¦² à¦Ĺ
Ġspe ech
Ġsit uation
Ġla d
Ġà¦² à§°
Ġra b
ay un
... âĢĻ
à¦¯à¦¬ à¦¤
and om
Ġà¦§ à¦ĩà¦°
Ġw ow
Ġset interval
ĠâĪ Ĵ
Ġe at
Ġcon ne
unde fined
h idden
Ġop port
th ere
à¦ĩ à¦ķà¦°
lay out
ĠÂ ±
Ġà¦ļ à¦°à¦ª
Ġam in
al ing
0000 00
2 16
Ġc s
el le
à¦ª à¦¸à¦Ł
Ġdev ice
Ġch f
Ġà¦Ĺà¦£ à¦¹
Ġhigh est
Ġà§¨à§¬ à§¨
à¦¥à¦² à¦Ń
14 5
æĹ¥ æľ¬
à¦²à¦¨ à§°
Ġsp ort
à¦°à¦¶ à¦¤
ach al
e en
à§ĩ? "
Ġc ute
Ġpay ment
Ġà¦īà¦ª à¦ķà¦°à¦¨
à¦ļà¦¨ à¦Ĺ
Ġcharact ers
Ġpack age
à¦§ à§°à¦£à§°
Ġ19 2
Ġmag ura
Ġ:: :
Ġchakrab orty
Ġb ok
à¦ª à¦ĩà¦¯
Ġmay be
hum i
am ool
Ġsp ir
s ft
sh ots
à¹ ī
Ġpro per
à¦Ĺ à¦Ńà¦°
à¦ķà¦° à¦¦
Ġmuslim s
Ġe ither
dn is
Ġfur ther
Ġà¦ĵ à¦°à¦¸
Ġbr l
à¦°à¦ķ à¦¬
Ġà¦² à¦ĸ
Ġhigh er
Ġvisit ors
à¦¨à¦¤ à¦¤à¦°
Ġne g
Ġex e
cl ub
Ð° Ñı
Ġà§¯ à§«à§¦
à¦¡à¦Ń à¦¨
à¦Ĩ à¦ķà¦¸
Ġà¦Ĩà¦ĩ à¦®
Ġà¦īà§İà¦¸à¦¬ à¦Ł
Ġacadem y
à¦ª à¦Ŀ
à¦® à¦ªà¦¤
à¦¹à¦° à¦ª
te le
s om
22 2
Ġà§§à§¯ à§¨à§¬
Ġun limited
à¦°à¦¤ à¦ľ
Ġcr ic
à¦¬à¦¨ à¦¨
Ġà¦ľà¦¨ à¦°
b oy
mark et
Ġactiv ities
Ġregard ing
p ass
ig anj
Ġstop s
Ġà¦Ĩà¦¦ à¦®à¦ľ
Ùħ Ø¹
Ġsat is
Ġlik es
à¦² à¦£
Ġà¦®à¦¦ à¦¸à¦¹
spe cial
Ġre ference
Ġahmed abad
Ġcap t
Ġk iss
sh ar
à¦¨ à¦ĺà¦°
Ġà¦ķ à¦ļà¦²
m ph
Ġu g
ach i
âĢĻ ?
à¦¹ à¦¨à¦Ĺ
Ġà¦« à¦¸à¦ķ
à¦¨à¦¬ à¦ķ
ent ly
Ġpo v
Ġtr ump
Ġnak ed
Ġf ly
Ġnaray anganj
à§¨à§¦ à§©à§¦
à§Ĥ à§į
d t
act ive
Ġà¦Ĩà¦ĩ à¦Ľ
aaaa aaaa
p edia
) ?
à¦ıà¦¨ à¦Ĩà¦°à¦¸
Ġh ai
ĠâĢĶ âĢĶ
Ġsil ver
Ñ Ĭ
Ġem er
Ġde gree
m il
Ġext rem
Ġc u
load er
ĠÐ½ Ð°
à¦¸ à¦¥
Ġm ission
Ġfe et
Ġà¦¹ à¦łà¦ķ
j b
k l
19 6
Ġde kh
à¦Ń à¦£
à¥ ®
à¦°à¦¶ à¦®
Ġà¦ĵ à¦ıà¦¸à¦¡
à¦²à¦ķ à¦ļ
Ġ>> >
p ic
Ġà§¨à§¨ à§®
à¦² à¦Ĺà¦£
e ad
Ġreg istration
f m
Ġh p
à´² à´¯
Ġà¦ĩ à¦Łà¦ª
17 6
Ġelect ric
ÑĢ Ð¿
Ġy ang
ĠÐ ·
Ġà¦ħ à¦¹à¦®
Ġà¦ĩ à¦¬à¦²
qu ot
Ġ20 01
Ġà¦Ĺ à¦¨à¦¸
Ġà¦ķà¦² à¦°
Ġà¦Ĭ à¦¨à¦¬
Ġdr ink
ðŁ Ĵ
Å Ł
Â§Â į
à¦¤à¦¬ à¦¦à¦²
pe cted
à¦¶ à¦¤à¦ķ
à¦ķà¦ľà¦¨ à¦ĵ
Ġkr ish
à¦Ĺà¦¬ à¦Ĺ
k it
Ġch oose
Ġbh attach
Ġro t
Ġà§© à§¨à§®
Ġlesb ian
f an
Ġr b
à¦°à¦Ń à¦ķ
Ġro ot
c lo
c ra
Ġà¦ı à¦«à¦Ł
Ġà¦° à¦ĩà¦¸
à¦ī à¦ıà¦²
Ġ11 1
Ġpl ant
ug h
r id
it ment
Ġre leas
Ġà¦Ń à¦ľà¦¨
Ġpublish ing
Ġà¦ľ à¦ĩà¦¶
Ġpol l
Ġprim ary
à¦ıà¦¸ à¦ĵ
à¦¬à¦¨ à¦¸
Ġà¦¸à¦® à¦ķà¦ķ
à§° à¦ŀ
Ġc ant
Ġtool s
Ġkab ir
18 8
Ġà§¨à§¨ à§©
Ġt ro
à¦ªà¦¨ à¦ª
Ġc os
Ġa x
Ø± Ø©
àµ ¾
à¦¦ à¦¡
à¦Ĩ à¦¯à¦¹
Ġgr adu
Ġ12 7
z er
Ġm ut
Ġà§§à§¯ à§©à§§
à¦¦à¦¨ à¦¹
Ġmy mensingh
Ġà§¨à§© à§¯
à¦ı à¦ıà¦¸à¦Ĩà¦ĩ
Ġm ist
s at
Ġà¦ĵà¦ĩ à¦ĸ
p at
Ġà¦ĩ à¦¹à¦ķ
Ġ ÛĮ
l c
Ġà§¨à§¨ à§§
v y
Ġdist ribut
Ġaaj kaal
à¦ı à¦ĩà¦Ł
à¦ªà¦£ à¦ķ
or ig
Ġh ung
Ġn ut
m ath
Ġmen u
Ġà¦Ĩ à¦ľà¦¨
Ġà¦ĩ à¦ĸà¦²
Ġwik i
as ing
Ġt ay
Ġn d
à¦²à¦¬ à¦¶à¦¤
à¦ªà¦¦ à¦¤
Ġsp y
m or
Ġà¦ħà¦¸ à¦®à¦°
sh ot
ony m
à¦ĩ à¦¶à¦¦
mar athi
Ġsur vey
ĠØ§ÙĦ Ø¨
Ġ24 0
à¦ĩ à¦®à¦¤
Ġpre p
à¦°à¦¸ à¦ļ
Ġf ine
Ġk an
tr ick
t ab
Ġtrin amool
Ġà¦ıà¦ĩ à¦ķ
Ġs d
à¦¬à¦° à¦ļà¦¨
oy on
Ġà¦ªà¦¦ à¦§
18 9
à¦°à¦¬à¦¨ à¦¤
ous and
âĻ ł
Ġbrow n
à¦¹ à§°à¦£
Ġint ellig
Ġà§§à§¯ à§§à§§
à¦ļ à¦¤à¦®
Ã ´
Ġà¦¬ à¦ļà¦¸
Ġà¦ļà¦Ł à¦ľà¦²à¦¦
Ġà¦¬à¦ĩ à¦ª
um n
os is
v ille
Ġà¦ħà¦ª à¦¦à¦¸
Ġ10 80
Ġter ms
b ani
Ġs old
ak i
à¤ «
Ġg m
Å Ľ
Ġearth quake
n x
set timeout
ĠîĻ Ł
Ġà¦Ĩà¦¬ à¦Ĺ
] :
à¦ª à¦²à¦ķ
à¦§ à¦¨à¦¯
à² ¡
Ġà¦Ĩà¦¸à¦¨ à¦Ĺ
ĠâĢĶ -
Ġmin i
Ġbl u
Ġf ake
ber ry
Ġpos itive
à¦¤ à§°à§°
Ġà¦īà§İ à¦¯
Ġpar am
Ġà¦¦à¦² à§°
Ñ Ĺ
Ġ/// /
2 12
à¦§ à¦£
Ø§ Øµ
Ġg ave
à¦¾) :
à¦ĵ à¦ĸ
ong o
protidin bd
4 04
re nd
Ġse a
fi q
20 5
Ġà¦Ĭ à¦¨
r ate
Ġb id
à¦¨ à¦°à¦ķ
Ġà¦Ľ à¦²à¦¨
à¦¦à¦¨ à¦Ĺ
à¦¾' ,
à¦¨ à¦ıà¦ĩ
Ġà¦ıà¦ķà¦ľà¦¨ à¦ĩ
à¦¸à¦® à¦Ĺ
ber g
he ader
ens us
Ġrequ ire
à§ĩà¥¤ (
Ġà¦ĺ à¦·à¦¤
Ġà¦ħà¦¸ à¦¤à¦°
Ø³ ÛĮ
Ġa la
Ġà¦īà¦ª à¦²
Ġb od
Ġà§¨à§Ń à§§
?! ?!
ĠØ±Ø¶ Ùī
Ġsup ply
Ġsongbad protidinbd
à¦« à¦²à¦¤
à¦ĩà¦¨ à¦¦
ĠØ§Ø¨ ÙĨ
................................ ................................
Ġchand ra
Ġwork ers
ex clusive
Ġc pu
Ġp une
p ager
Î µ
à¦ĩà¦¨ à¦ľ
Ġà§¨à§® à§¬
n ik
à¦ĩà¦ľ à§°
à¦ĺ à¦ľ
Ġr ather
Ġam ount
âĻ¥âĻ¥ âĻ¥âĻ¥
à¦ĸ à¦®à¦¨
Ġ3 000
Ġj al
Ġb og
àª ĵ
Ġà¦ıà¦ķ à¦¶à¦¨
Ġà¦ıà¦² à¦Ł
Ġà¦¹à¦°à¦Ń à¦ľà¦¨
ord an
3 26
Ġà¦¹ à¦°à¦°
Ġà§§à§¯ à§¨à§¨
Ġl ives
Ġà¦Ĩà¦® à¦¸
Ġà¦ıà¦®à¦ı à¦ľ
c ur
Ġ ÑĤ
Ġc v
pe cial
17 5
à§© à§«à§¦
à¦®à¦°à¦£ à¦ķ
Ġà§§à§¯ à§©à§©
Ġj ab
Ġà¦ħ à¦®à¦¤
ĠØ§ÙĦ Ùģ
Ġ+ =
bl r
Ġgon na
Ġà§¨à§¨ à§¯
Ġà¦ķ à¦¶
à¦ı à¦¸à¦®à¦¯
as ian
ct able
Ġà¦Ĩà¦²à¦® à¦¸à¦¹
cl cb
j it
Ġs ac
Ġgr ound
à¦Ĩ à¦ªà¦¦
à¦¦ à¦®à¦¸
it ude
18 6
Ġv ers
à¦® à¦²à¦ķ
à¦¤à¦¨ à¦Ĺà¦°
Ġà§¨à§© à§Ń
s en
Ġà¦ħà¦ķ à¦¸
Ġcomp et
à© °
ic i
med i
Ġtalk ing
Ġhoy e
Ġh all
Ġw arn
ce ed
Ġà¦ħ à¦ĩ
Ġà¦¬ à¦°à¦ķà¦²
à§° à¦ľà¦¨
Ġà§§à§¯ à§¨à§ª
Ġs ort
Ġarticle à¦ķà¦°
Ġà§© à§¨à§¨
Ġc ouncil
Ġb ot
Ġra pe
à¦¼ [
à§ģ à¥¤âĢĻ
Ġà¦Ĩà¦ĩà¦¨ à¦¸à¦Ń
in c
Åĵ à¦¤
Ġm ol
Ġ11 3
Ġprin cip
Ġ<% =
â Ķ
Ġà§¨à§© à§®
à¦ľ à¦ªà¦¤
Ġà¦ĵ à¦²à¦Ł
q i
pr ice
Ġom r
and roid
à¦¥ à¦¨à¦ķ
à¦Łà¦ķ à¦¹
for um
Ġleg al
à¦¸à¦¨ à¦ĵ
Ġarticle à¦¤
à¦ķà¦° à¦Ń
Ġà§© à§¨à§«
à§Ģà¥¤ âĢĿ
Ġexp lore
um er
ļ à´¨
fl u
re ams
gh anta
2 26
Ġpre par
Î ¬
à¦ªà¦¨ à¦ĩà¦²
Ġon es
Ġà§©à§¦ à§ª
ÙĪ Ø¹
Ġlang uages
Ġjapan ese
Ġhd porn
à¦¤ à¦¹à¦¤
à¦ıà¦¸à¦ıà¦®à¦ıà¦®à¦ĩà¦ī à¦¤
Ġà¦ĩ à¦¦à¦²
Ġà¦¹ à¦¡
el ves
Ġà¦¨à¦¤ à¦ľ
co in
à¦¹à¦® à¦¯
à¦Ĺà¦£ à¦ª
Ġ11 2
Ġne cess
14 7
Ġà¦Ł à¦Ĺà¦¬à¦Ĺ
Ġs ildenafil
Ġcho ice
h igh
ĠÃ ¢
r ank
à¦ĩ à¦°à¦ķà¦®
Ġà¦®à¦°à¦£ à¦¬
âĢ ł
Ġà¦Ī à¦·à§İ
à¦Łà¦¬ à¦²à¦ķ
le v
à¦ĩà¦¨ à¦¡
à¦¤à¦¨ à¦¸à¦¹
à´°à´µà´ ļà´¨
ug ht
Ġus ually
Ġà§§à§¯ à§¨à§®
Ġà¦ī à¦Ń
Ġap ni
ĠÙĥ Ø§ÙĨ
e a
Ġà§© à§§à§¬
à¦²à¦¤ à¦ĸ
dimention div
ersh ip
Ġà¦ĵ à¦ķà¦¸
Ġh op
Ġthe ory
Ġà¦ıà¦¸ à¦ľ
Ã µ
Ġà¦Ĺ à¦¸
Ñģ ÑĮ
Ġà¦ªà¦° à¦¹
bus iness
im s
Ġd ance
Ġarticle à¦¹
Ġst ream
14 6
Ġhon est
Ġà§¨à§¨ à§¬
l en
Ġf ans
Ġro se
Õ¡ Õ
à§ĩà¥¤ \
st roke
2 27
Ġpre gn
à§¯à§¯ à§¦
Ġcor ona
Ġf ab
Ġek ta
Ġà¦ľà¦² à¦ªà¦¥
itch en
Ġequ ip
Ġà¦ĸ à¦Ł
Ġselect ed
à¦ķ à¦¥à¦¨
à¦²à¦¨ à¦¸à¦¹
à¦«à¦² à¦Ĺ
Ġsp read
Ġbo i
ester n
Ġacc ident
Ġprob ashi
à¦¹à¦° à¦Ĺà¦ŀ
om en
Ġs low
l t
à¦¯à¦¬ à¦ĩà¦¯
14 4
Ġchatter jee
Ġcre am
Ġà¦ĺ à§°à¦²
à§İ à¦¸à¦¨
à¦ĩ à¦Ĩà¦°à¦¸
20 9
Ġà¦ĩà¦¸ à¦®à¦¤
ĠÃ ¿
à¦¿ &
à¦Ĩ à¦¶à¦°
12 1
des cription
à¦® à§İà¦¸
Ġà¦¶à¦° à§İà¦ķ
ig arh
Ġgre y
Ġmo on
Ġdom ain
Ġchin ese
w u
Ġg ur
n f
à¦¬à¦° à¦¸à¦¹
flo at
à¦®à¦ķ à¦¥
inter national
n ab
Ġà§¨à§ª à§ª
Â§Â ĩ
à¦¹ à¦°à¦¤
Ġà§©à§¦ à§§
Ġà§§à§© à§¦à§¦
Ġsh ik
à§į !
à¦ķà¦² à¦¸
Ġà§¨à§¯ à§¯
16 9
à¦²à¦¨ à¦ª
Ġà§© à§§à§©
Ġnor mal
pub lic
Ġr ag
Ġmo ve
Ġjust ice
à¦¯ à¦²à¦¯
Ġà¦ª à¦Ĺà¦¬
Ġd ial
Ġlin con
20 6
à§§à§¯à§¯ à§«
Ġà§¨à§© à§©
à¦¨à¦Ĺ à¦¡
æĹ¥æľ¬ èªŀ
m os
Ġpre vent
Ġà¦ľ à¦¬à¦°à¦¦
à¦² à¦ļà¦¨
à§ĭ âĢĻ,
Ġm ine
Ġ11 6
nod ename
Ġà¦¨ à¦²à¦¡
Ġà§© à§©à§«
ri ed
à¦® à¦ľà¦¯
Ġà¦īà§İ à¦ķà¦¨
Ùĩ Ø±
âĢĻ âĢĶ
r in
à¸ £
Ġà¦Ĺ à¦¬à¦°
Ġchrist ian
Ġà¦ĵ à¦ļà§°
Ġà¦¨ à¦¬à¦°
à¦Ĩà¦¹à¦® à¦¦
Ġres ources
Ġeuro bdnews
Ġe c
2 10
Ġlo ved
à¦īà¦¥ à¦ĩà¦¸
Ø¹ ÙĦ
ĠâĢĻ âĢĻ
Ġsur pr
Ġà¦Ĩ à¦ĵà¦¡
Ġi pl
Ġsuck s
h alo
à¦¼à¥¤ ...
Ġà¤ķ à¤°
Ġinv ol
Ġsh ot
13 4
Ġà§§à§§ à§¦à§¦
Ġcan cer
à¹ Ħà¸
Ġbha i
f it
Ġi ran
à¦ıà¦² à¦ı
Ġcorpor ation
à¦¿! âĢĻ
path name
Ġà§¨à§Ń à§¨
Ġcent ury
Ġà¦ħ à¦ĸà¦¨
Ġph ilos
Ġà¦ı à¦¹à¦¤
... )
Ġf ail
Ġpri y
2 23
and er
à¦°à¦®à¦£ à¦ª
à¦¸à¦® à¦®
Ġwas hing
Ġà¦ħà¦ª à¦¦
r ika
Ġrem ov
ren g
Ġwhe ther
ust r
Ġà¦Ĩà¦Ĺ à§°
Ġà¦ľà¦¨à¦Ĺà¦£ à¦ĩ
wor ds
Ġpun jab
Ġincre ase
j u
c ovid
Ġtrans fer
l ng
Ġà¦¬à¦ĩ à¦ĵ
Ġes paÃ±ol
0600 2018
à¦ıà¦« à¦ıà¦«
Ùį Ùĳ
à¦Ľ à¦ĵ
Ġà¦¢ à¦Ļ
à¤ ģ
Ġheav y
Ġà¦°à¦ĵ à¦¨à¦ķ
Ġp apers
Ġreg ister
Ġà§¨à§¦ à§¨à§«
à¦łà¦ķ à¦ĵ
à¦¿à¦Ĥ !
à¦ĩà¦² à¦¬
Ġfl ip
à¦ĩà¦¨ à¦ĵ
à§ĥ à§į
Ġc ru
à¦°à¦ª à¦²
author s
} ,
Ġp ush
Ġk id
Ġà¦®à¦¨ à§°
Â¦Â ¬
c em
à¦£ à¦ªà¦¨
Ġà§§à§¯ à§§à§ª
Ġ4 50
à ¼
Ġt td
Ġ? âĢĻ
lo ok
à§§à§¯à§¯ à§¦
Ġà§§à§¯ à§¨à§©
Ġà¦ĸ à¦¬à¦°à¦ķ
Ġs mar
à¦ľà¦Ĺ à§İ
Ġbra via
Ġyou porn
à¦ī à§İà¦ª
itt y
Ġà¦Ĩà¦ĩ à¦¶
Ġsh arma
ðŁ ĳ
Ġsom et
Ġnar ailkantho
Ġst rip
à¦Ĺà¦£ à¦¤
Ġprodu ction
< <
à¦ĩà¦¡ à¦¸
Ġà¦¬à¦¶ à¦¬à¦°
Ġà¦Ĺ à¦ľà¦¬
z l
ill in
âĺħ âĺħ
à¦¹ à¦ľà¦¨
à¦ľà¦¨ à¦®à¦¤
Ġj odi
Ġre move
Ġes p
w ah
ØŃ Ø¯
à¦¯à¦Łà¦¨ à¦ķ
Ġà¦Ĩà¦ĩà¦ıà¦¸ à¦ıà¦²
Ø± Ø¨
Ñĥ Ðº
Ġim ag
Ġkam al
Ġneed ed
à§ĩ, âĢĻ
Ġà¦ĺ à¦°à¦ķ
Ġpab na
à¦¤à¦ļ à¦°à¦¬
Ä ĥ
à§į à¦¾
à¦¦ à¦®à¦¨
Ġt d
à¦¾. -
post s
Ġ.... ...
Ġkhe la
pe g
Ġc b
Ġà§© à§¨à§ª
Ġto wn
Ġim ran
ran ath
Ġmam un
Ġkap oor
19 0
26 4
Ġbec ame
à¦¤ à¦ļà¦ķ
Ġclo s
p en
Ġ* /
Ġun ique
Ġ11 4
Ġdif fic
Ġà¦§ à¦ª
Ġadvan ced
à¸ Ń
Ġ19 71
18 5
Ġf ill
el ly
Ġarticle à¦¯
Ġz ar
à¦ĵ à¦¨à¦ķ
bar ia
Ġm ia
¡ Ù
Ġà¦ıà¦« à¦ı
à¦° à¦ľà¦®
Ġcons ult
à¦· à¦ļà¦¨
Ġth ousand
Ġautom atic
Ġk v
à¦Ł à¦Ľà¦¡
Ġl ate
ag o
Ġ// });
Ġà¦Ł à¦ķà¦Łà¦ķ
à§İ à¦¦
Ġà§¨à§© à§¬
Ġas if
Ġtak a
Ã¼ rk
vir tual
à¦ļ à¦ķà¦Ł
19 5
à¦¬à¦¨ à¦¤
cc i
Ġweb sites
Ġgrow th
is ation
Ġfire fox
à¦ªà¦¨ à¦¸à¦°
à¦¬ à¦ľà¦¨à¦ķ
j d
Ġà¦Ł à¦¨à¦¸
Ġv a
Ġà¦Ĳ à¦¨
* ;
à¦°à¦¸ à¦ª
Ġà§« à§§à§¨
à§§à§¯à§¯ à§ª
us es
Ġà¦¬à¦² à¦¨
Ġmag ic
l u
Ġà¦¸à¦® à§°
Ġà¦ıà¦° à¦ļ
Ġin j
Ġà§¨à§ª à§§
à¦¬à¦ª à¦¦
ck s
Ġs s
à¦¼à¦¾ "
Ġà¦ĸ à§°
che ap
' ></
Ġla g
op les
ml http
m iss
24 9
Ġchar ge
Ġsho es
; -
à¦¾ +
(' ');
Ġà§¨à§ª à§©
à¦¶ à¦ľà¦¨
op s
Ġh ell
tal et
Ġà¦Ĩà¦§ à¦ĺà¦£
16 4
h en
ak es
à¦·à¦ķ à¦ĩ
à¦Ĺà¦² à¦®à¦¹à¦²
); */
à¦ķ à¦¦à¦°
à¦¬ à¦ķà¦¤
. :
Ġà¦Ĩà¦ĩà¦¨ à¦Ĺà¦¤à¦Ń
+ %
à¦ª à¦ªà¦°
à¥¤ ,
à¦¾à¥¤ ''
Ġà§§à§¯ à§¨à§«
sp ons
à§ģ ),
à¦ļ à¦°à¦®
un ty
ĠØ¥ ÙĨ
Ġja ipur
Ġma ind
à¦ī à¦ªà¦¦
ar ies
Ġà§¨à§« à§©
h ouse
ĠÙ ¤
ÙĨ Ø¯
19 8
lat lng
Ġdr iver
à¦Ĩ à¦²à¦¬
à¦Ĩà¦ĩ à¦ĩà¦ī
Ġà¦¸à¦¦à¦°à¦¦ à¦ª
Ġg lass
ent ry
à¦¤à¦¤ à¦ªà¦ķ
Ġbe at
Ġb aj
Ġà¦Ĩà¦Łà¦ķ à¦¦
Ġ} .
ent al
Ġ Ð°
Ġà¦Ĩà¦¦ à§°
Ġkh ul
Ġbr un
blog ger
Ġcam bridge
Ġext ension
li ament
Ġà¦ħà¦¸ à¦¸
Ġbold sky
lo l
Ġt dn
à¦ļà¦¨ à¦ĵ
ì ĸ
Ġà¦¡ à¦Łà¦¨
f ast
Ġit eration
reng th
in ary
Ġà§© à§¨à§©
Ġbro ad
Ġnewlocations latlng
an ik
Ġg lad
Ġ11 7
ê µ
ķ à²¨
24 8
Ġsc r
à¦¬ à¦ļà¦ķ
à¥ Ń
Ġam r
à¦ļà¦ķ à¦Ĺ
Ġindividual s
Ġf ear
Ġà§¨à§© à§¨
w ide
p cs
Ġà¦¸ à¦¦à¦¨
à¦ĩ à¦¸à¦¨
Ġà¦¶à¦ªà¦¥ à¦Ĺ
Ðµ ÑĤ
à¦¥ à¦ªà¦¥
Ġà§© à§¨à§§
Ġsilk city
Ġà¦Ĩà¦« à¦Ł
à¦Ń à¦ľ
l n
Ġd ub
à¦®à¦¶à¦¤ à¦¬à¦°
f ar
o z
Ġfant astic
à§ĩ, ,
ra in
Ġroy al
Ġà§¨à§© à§§
Ġbl ess
Ġà§© à§§à§®
à¦²à¦ķ à¦°à¦£
t n
à¦« à¦ĸà¦°
Ġbang l
Ġdiffic ult
k m
Ġtech nical
[ [
Ġl u
Ġà¦īà¦ªà¦ķ à¦£
Ġw ire
) \)
Ġà§«à§¬ à§¦
ĠâĢ ¡
Ġfr ance
Ġcas es
à²¨ à²¡
à¦¼à§Ģ âĢĻ
Ġà¦ī à¦Ľ
() ){
al y
Ġsky pe
f x
à§§à§¬ à§¦
ien ces
Ġà¦¹à¦ķ à¦¸à¦¹
it ial
Ġà¦ī à¦ĩà¦¸
ot ion
Ġx af
Ġkam agra
Ġà¦Ĩà¦Ĺ à¦®
Ġe gp
24 5
Ġ} )(
à§§à§¯à§¯ à§§
stick ys
Ġch ick
à¤¼ à¤¿
stickys idebar
Ġà¦¸ à¦°à¦¯
Ġa head
hs an
Ġà§Ń à§¨à§¦
à¦ĩ à¦¸à¦®
à¦² à§±
ĠÙģ ÙĤ
eder lands
Ġà§¨à§® à§«
à¦²à¦¶ à¦¹à¦°
à§§à§¯à§¯ à§¨
ist ani
Ġ13 5
s ir
à¦¤à¦ķà¦° à¦¨
o la
Ġr ing
Ġà¦ı à¦ıà¦¸à¦ıà¦®
Ġc n
à¦ªà¦ķ à¦¹
à¦Ĺà¦£ à¦¹à¦¤
à¦Ł à¦²à¦®
ha i
Ġà§¨à§¬ à§¬
Ġom g
Ġvir al
the ia
bp y
Ġaw are
t el
Ġà¦ķ à¦ŀ
et ic
Ġopt im
Ġpo em
Ġ- ----
Ġà¤ ¡
ĠÙħ Ø¹
à¦Ľ à¦²à¦®
à¦ļà¦² à¦¸à¦¹
theia stickysidebar
last height
à º
Ġis n
s am
ank ar
Ġà¦¬à¦¦ à¦¹à¦ľà¦®
m es
Ġblog ger
hand le
or ds
ub er
Ġ14 5
Ð½ Ñĭ
Ġà¦ĩà¦īà¦ıà¦¸ à¦¡
× ĳ
Ġg v
Ġm oto
Ġw il
16 6
à¦¿' à¥¤
Ġlast off
last off
Ġ/* }
Ġ/// });
("** "
Ġh v
Ġr ange
13 3
Ġ/* $(
job s
à§§à§¯à§¯ à§©
w q
à¦° à¦ħ
à¦¹ à¦Ļ
Ġp ure
Ġmir ror
à¦¦ à¦īà¦¦
Ġw ide
os hi
ee k
Ġfam ous
Ġconne ction
ad es
a ign
à¦¸à¦Ł à¦ª
Ġà§© à§¨à§¬
Ġmys elf
ed it
... !
i us
Ġro bert
Ġtable t
Ġfeed back
àª ¤
it is
last ic
ìĸ ´
à¹ Ī
Ġsen ior
ther n
Ġphot oshop
Ġà¦ħà¦® à¦Ļ
pop up
Ġ13 2
200 6
. (
Ġà¦Ĩà¦° à¦Ń
Ġsc ene
th on
33 3
ãĥ ³
Ġbis was
à¦ļ à¦Ń
Ġà§¨à§¯ à§«
we ather
Ġà¦ľà¦® à¦ľ
est amp
j h
à¦ı à¦ķà¦ķ
Ġ11 9
Ġà§¨à§§ à§¦à§¦
Ġà¦¸à¦® à¦²
Ġà¦Ĩà¦Ł à¦ķà¦°
ric info
à¦ĵ à¦¸à¦®
z one
") );
pecial ly
à¦¸à¦¬ à¦ĩ
Ġ5 000
à¦¶ à¦®à¦¤
Ġà§§à§¯ à§§à§¨
à¦°à¦Ĩ à¦¨à¦ķ
à¦ļ à¦°à¦ķ
Ġ... à¥¤
à¦¿à¦ĥ à¥¤
Ġpar a
Ġnaj ar
à¦² à¦®à¦¤
Ġà¦ī à¦ĩà¦¦
Ġro kom
Ã³ n
- âĢľ
Ġ( ){
à¦Ĩà¦¤ à¦Ļ
à¦ķà¦° à¦¬
ain ed
19 4
Ġà¦ĩ à¦Ĺà¦¨
Ġnov el
à¦² à¦¸à¦ķ
leg ate
Ġà¦¨à¦ľà¦° à¦¬à¦¨
Ġexe cut
Ġauto load
à¦¤à¦¨ à¦¦
Ġà¦ĸà¦¬à¦° à¦ĩ
Ġrun ning
à¦¾ !!!
ext ern
Ġdesign ed
in ik
Ġf az
à¦¨à¦¸ à¦¤
29 9
à¦°à¦®à¦£ à¦Ń
à¦Ĩà¦² à¦¹
Ġg ift
Ġà¦¹ à¦°à¦ķ
Ġres ident
à¦Ĩ à¦īà¦¯
Ġà¦ıà¦ĩ à¦¸à¦®à¦¯
Ġfr u
à§° à¦¤à¦¤
Ġ2 30
Ġap n
Ġk intu
Ġh un
Ġà¤ «
Ġà¦Ĺ à¦ĵà¦¹à¦°
à¦ĩà¦« à¦¯
jan o
á» ĩ
Ġ" );
à´ ¸
à¦ĩ à¦ĸà¦¨
Ġà§© à§©à§®
Ġà¦Ĺà¦£ à¦¸à¦ļ
20 7
ia omi
× ķ
ug ins
à¦¦à¦°à¦® à¦¹à¦²
Ġcric info
Ö ¼
Ġà¦ħà¦ª à¦¶
Ġà¦Ĩà¦° à¦ıà¦¨à¦ı
Ġbenef its
Ġmaind iv
Ġhar ry
à¦¤à¦° à¦ĸ
lo ven
Ġà¦¬à¦¦à¦° à¦Ĺà¦ŀ
s ome
in verval
Ġcomp lex
Ġb ase
as p
as ia
Ġapp endto
Ġrun scroll
dash array
research widget
à¦¬ à¦®à¦¹
à§§à§¦ à§¯
19 7
Ġw ifi
Ġthink ing
Ġhill bd
Ġm all
01 0
Ġà¦Ĺà¦°à¦® à¦ķ
Ġl ick
Ġà§¨à§¯ à§®
Ġcorpor ate
Ġà§©à§¦ à§«
load more
Ø¥ ÙĨ
ak ar
Ġà¦ıà¦¸ à¦Ľ
à§¦à§¦ à§Ń
Ġ' %';
Ġà§©à§Ń à§«
Ġà¦ĩ à¦¶à¦ķ
à¦²à¦Ĺ à¦¸
à§® à§®à§¦
Ġb low
Ġà¦Ĩà¦ĩ à¦ı
Ġcon cept
Ġident ifier
Ġà¦ħà¦® à¦°à¦¤
c is
c all
Ġs ik
Ġà§¨à§« à§Ń
ib ly
Ġà¦Ĩà¦° à¦ļ
ch en
à¦Ĺà¦² à¦¬à¦¨
Ġà§¨à§« à§§
25 6
sh ips
Ġk es
Â§ âĢ¡
à¦¼? âĢĿ
à¦¤ à¦ĺ
à¦·à¦¦ à¦Ń
ĠÂ ®
Ġplay ing
Ġt as
Ġà¦ªà¦¥ à¦ĵ
à¦¬ à¦®à¦¨
Ġà¦ķà¦® à¦¬à¦¯
v est
à¦² à¦ľà¦¬
à¦ľà¦¸ à¦Ń
âĢĶ âĢĺ
Ġbr idge
íķ ľ
e z
Ġà§¨à§ª à§®
m eta
n ode
Ġp ink
te ach
Ġà¦ĩ à¦Łà¦¨
Ġà¦Ľ à¦ķà¦Ł
Ġra bind
,,,, ,,,,
Ġchand igarh
à¦ª à¦¦à¦¨
q a
à« ģ
Ġm outh
Ġà¦Ĩà¦Ł à¦ĺà¦°
Ġeconom y
av es
2 15
Ġà¤ ¥
Ġwh oles
Ġper cent
Ġstock bangladesh
Ġpre mi
Ġreal ity
Ġpla ces
Ġà§© à§§à§ª
your name
Ġk om
à§§à§¨ à§«
Ġà¦¸à¦¦à¦° à¦ª
ĠÌĦ âĢĻ
w s
à¦¯ à¦¤à¦¬
âĢ ¬
à¦°à¦ľ à¦¬
Ġb urn
Ġà¦¡ à¦°à¦®
Ġà¦ªà¦¥ à¦ĩ
Ġsam akal
Ġà§« à§ªà§¦
ch ina
Ġpost date
(" -"
à¦¦à¦° à¦ľ
Ġre dd
Ġde ar
Ġassist ant
("-" )[
à§ĩà¥¤ âĢĺ
à¦· à¦¬à¦°
Ġà¦ĺ à¦¨à¦®
à§©à§¬ à§¦
Ġrepl ied
à¦¼ âĢĻ-
à¦ı à¦ķà¦®
Ġse em
........ ...
Ġmet e
Ġnok ia
Ġà¦°à¦ĵ à¦ľ
Ġplat form
Ġinst a
à¦§ à¦®à¦ķ
Ġr h
à¥ ¯
à§ĭ ....
à§ĩ' à¥¤
à¦¬à¦ľ à¦Ĺà¦¤
Ġcult ural
Ġap i
à¦°Ã¦ à¦ª
Ġà¦®à¦¹ à¦°à¦¤
Ġgener ation
end ra
Ġbre ast
Ġdi am
al t
Ġà¦Ĩà¦¹ Ã¿
qu ality
Ġsu ff
log o
f ix
Ġs gd
en c
iv o
ind er
Ġche at
h ag
Ġà§¨à§ª à§¬
gr m
à§§à§¦ à§¬
à¦¥à¦ª à¦°à¦¤
Ġà¦¨ à¦ľà¦®
à¦ļ à¦¶à¦¤
Ġbang ali
Û ±Û
áĥ Ĳ
à§ĭ à§ĩ
à¦Ĩ à¦¹à¦¬
is is
ox ic
Ġcorrespond ent
à¦²à¦¨ à¦ķà¦¶
Ġg p
Ġà¦¤ à¦¸
Ġm ig
Ġdis k
à¦ļà¦¨ à¦¤
à¦° à¦ĩà¦¸
Ġman ual
Ø±Ø¨ÙĬ Ø©
Ġw it
i ar
Ġcert ific
Ġtw enty
Ġth under
ro te
Ġrespons ible
à¦¿à¥¤ ...
Ġà§© à§¨à§¯
Ġporn hub
Ġraj asthan
à© Ģ
Ġfeel ing
af ar
mar ks
à¦ªà¦ķ à¦ķ
ĠÌĦ ^
Ġà¦Ĩà¦« à¦Ľ
Ġsup reme
b iz
à¦¥ à¦¸à¦Ń
à§§à§® à§Ń
um i
k he
Ġt ight
Ġtem ple
Ġshar if
à¦¬à¦¨ à¦¦
à¦ıà¦® à¦¡à¦¬
Ġà¦Ĩà¦¸ à¦ĵà¦¯
Ġmilit ary
Ġparent s
m am
Ġ2 10
Ġd iye
Ġà¦ıà¦ķ à¦«
ä º
Ġcar ry
Ġà¦Ī à¦ķ
pharm acy
Ġà¦Ĩà¦¬ à¦¬
Ġ9 00
à§° à¦ķà¦²
ss ss
à¦§ à¦¬à¦ķ
à¦ĩà¦Ń à¦ľ
Ġcal cutta
Ġdiffer ence
Ġj h
word press
à¦« à¦¹
$ ("#
à¦°à¦® à¦¶à¦ķ
i lo
à¦¶à¦¨ à¦ľà¦Ł
Ġà§ª à§ªà§¦
Ġopt ions
ank s
Ġd ed
Ġà§§à§¯ à§§à§©
Ġ12 00
Ġà§¯à§¯ à§¦
_ (
g m
ct ure
Ġsh ut
Ġexp la
Ġnew z
Ġ16 2
Ġ}); */
Ġgu ess
Ġà§§à§¯ à§¨à§Ń
w rap
à¦ī à¦°à¦¨
Ġste el
Ġà¦Ĺ à¦ľà¦¨
Ġmas ud
p et
st on
à§§à§¯ à§Ńà§«
ÑĥÐº ÑĢÐ°
Ð» Ð°
à¦²à¦¨ à¦¸
Ġmc q
Ġblond es
r ia
Ġv ip
à¦¹ à¦ļà¦°
Ġà¦ī à¦ĵà¦°
Ġà¦¸à¦® à¦§
à¦ĩà¦ľà¦¨ à¦ĩ
àª ľ
ĠÛ ²
Ġqu otes
Ġindepend ent
Ġsheers ha
l ines
à¦¤ à¦Ĺà¦£
Ġc ities
03 9
Ġnajar band
à§ĭ )à¥¤
Ġkh al
h li
à¦¬ à¦īà¦²
Ġtim estamp
ant e
ip es
od on
th o
el ine
Ġà¦ĩà¦īà¦ıà¦¨ à¦ĵà¦°
v c
Ġà¦ª à¦ĩà¦¡
Ġal one
Ġcustom er
Ġappe ar
Ġà¦¬à§° à¦·
asht ra
Ġà¦Ĺ à¦Ľà§°
à¦¼à¦¾ âĢĻ,
Ġ14 4
ib i
à¦¤à¦¨ à¦ĸ
Ġà¦ıà¦¨ à¦ıà¦¸
2 11
Ġà¦ĭ à¦ľ
à¦¬à¦° à¦ļ
Ġs ag
inst grm
Ġà¦° à¦¸à¦¨
on ic
off ice
Ġk itchen
Ġà¦ĸ à¦Łà¦ķ
v ersion
à¦ı à¦°à¦ķà¦®
à¦ĵ à¦ľà¦¨
ab ase
à¦¿ ??
Ġp anch
Ġà§ª à§©à§¦
à¦¬ à¦¤à¦ķ
Ø§ ÙĬ
Ġex pect
pro thom
e lect
à¦²à¦¨ à¦Ĺ
à¦ĩà¦ª à¦Ĺ
Ġ æ
Ð¾ Ð¼
ajax loader
== =
Ġ3 65
20 4
Ġà§¨à§¬ à§ª
Ġc oo
Ġà¦¬à¦¨ à¦®
Ġtw it
Ġprodu ce
Ġà¦īà¦ªà¦ķà¦°à¦£ à¦Ĺ
à¦« à¦¤à¦°
Ú ¯
à¦Ń à¦²à¦ª
Ġà¦¯ à¦¯
w j
Ġà¦« à¦²à¦¬
gen eric
" ){
30 3
c um
Ġà§¨à§¬ à§¯
Ġ( (
Ġà¦Ŀ à¦°à¦²
Ġincl ude
p b
); //
Ø§Ø± Ø³ÛĮ
à¦¹ à¦¨à¦ķ
Ġà¦Ĩ à¦ĸà¦°
Ġpr ices
Ġim press
') ){
good bye
:: ::
Ġgaz ipur
Å į
Ġà§¨à§« à§®
Ġhum ayun
Ġlo h
Ġ+ $(
Ġhapp en
Ġnb sp
(' :
à¦Ĩà¦ľ à¦¹
à¦® à¦Ĩà¦°
Ġà¦® à¦¦à¦ª
à§ĩà¥¤ #
Ġinst ead
Ġm so
00 6
Ġev ents
Ġread er
Î¹ Îº
] );
Ġà¦¹ à¦ĵà¦ķ
Ġmo p
Ġlim it
Ġà®¤ à®®
êµ Ń
Ġà¦ªà§° à§±à§°
Ġà§¨à§ª à§¯
Ġ13 8
Ġn ations
Ġà¦¬à¦°à¦¬ à¦Ł
z nm
27 8
Ġa se
e g
Ġqu ant
Ġà¦®à¦¹ à¦°à¦®
Ñ İ
à¦¸ à¦·
Ġà¦¯ à¦Īà¦«
har i
Ġp s
Ġbo le
Ġprob ash
à¦¯à¦®à¦¨ à¦¸
lar val
âĢĻ ;
th em
à¦ķà¦¨ à¦«
tw o
Ġspir it
ĠÙĪ ÙĦØ§
y u
17 9
ĠðŁĺ ī
Ġmukh erjee
h ood
à¦ĺ à¦¨à¦ķ
Ġst rength
à¦¬ à¦Łà¦Ł
Ġen able
Ġà¦®à¦¨ à¦Ľ
new st
23 8
Ġ# #
de legate
Ġhapp ened
cut off
à¦ĩ à¦ªà¦ķ
Ġà¦° à¦ĩà¦Ľ
Ġpo re
ÙĪ ÙĤ
Ġare as
__ _
Ġh ang
ĠÙ ¦
Ġ- --------------------------------
Ġtw ttr
Ġbr ought
Ġl ib
Ġà§§à§ª à§©à§®
Ġà¦¹ à¦ĩà¦¸
y as
à¦ī à¦ł
à§§ à§§à§©
Ġg as
Ø¢ ÙĨ
$$ "
Ø´ Ø±
à¦ĵ à¦ı
(" $$"
el low
à¦¦à¦ªà¦¤ à¦¨
à¦¼à§ĩ /
à¦ĩà¦¨ à¦ª
à¦¦ à¦ĺ
à§§à§ª à§¦
ol f
Ġi z
ÑĹ Ð½
à§ģ "
Ġà¦¹ à¦®
h ik
à¦ªà¦¨ à¦¸à¦¹
Ġold er
âĢĿ âĢĿ
Ġj ac
Ġic c
Ġà§¨à§« à§¯
Ġà¦«à¦² à¦Ĺ
Ġimage url
Ġà¥¤ -
j ay
get script
à¦ĩ à¦Ŀ
Ġw ild
Ġstr ing
Ġ'# '
Ġshort name
Ġadmin istration
Ġà¦° à¦°
Ġnews id
Ġruss ian
Ġze aland
% -
con dition
Ġtr ou
current scroll
Ġà¦ıà¦¨ à¦Ĩà¦ĩà¦ı
op hy
Ġnext news
Ġlast height
ÑĥÐºÑĢÐ° ÑĹÐ½
Ġà§¨à§¬ à§§
Ġinstru ments
Ġ( $("
Ġà¦¨à¦ĵ à¦®
on de
Ġqu ar
Ġhim self
Ġboy s
g az
à§ģâĢĻ ,
(" _
n z
=' //
à¦·à¦£ à¦ļ
à¦¯à¦® à¦ŀ
Ġsmar tp
à¦¸ à¦Łà¦¨
Ġth om
à¦ķà¦¬ à¦ļ
'] ").
Ġcontribut or
Ġcbn coxsbazarnews
ĠØ ¸
'] ",
ad btf
ad atf
à¦ķà§° à¦¦
Ġprote ct
z il
Ġà¤ Ķ
Ġ/* $("#
Ġ/* $("
);// $('.
Ġcomment scontainer
twitter widget
comment scontainer
à¦§ à¦·
Ġgr at
) ]
à¦¨à¦Ĺ à¦¦
ong bad
Ġï ĥ
20 3
Ġà§©à§¦ à§©
Ġà§¨à§Ń à§©
ha re
âĸ º
r ir
Ġ3 16
Ġm one
à¦Ĩà¦ĩ à¦ıà¦¸à¦ª
Ġu m
Ġ13 9
à¦ª à¦Łà¦ķ
Ġpro pecia
Ġr ony
Ġfor t
az z
Ġtot ally
à¦ľ à¦Ĺà¦£
Ġà¦¨à¦¬ à¦¯
Ġes pecially
Ø§Ø ¶
Â ¥
ell ite
ĠÙĤ Ø¨ÙĦ
Ġà¦¨ à¦¶
Ġà¦ķà¦® à¦¦
Ġà§ª à§¨à§«
à¦¸à¦° à¦°
il ing
th at
ian a
à§§ à§§à§«
Ġà¦« à¦¸à¦«
Ġb ou
Ġro bi
Ġtech jano
Ġhost ing
à¦¥ à¦°à¦Ł
Ġn cr
Ġmo z
Ġà¦ıà¦®à¦ı à¦ıà¦ĩà¦ļ
] +
à¦ĩà¦ī à¦Ĩà¦°à¦ıà¦²
al og
Ġpa id
à¦°à¦ªà¦° à¦¨
Ġà¦¬ à¦°à¦®
s and
Ġâĩ Ĵ
à¦¾ .....
Ġqu iz
à¦ī à¦²à¦ķ
Ġap on
àªľ àª°
à¦£ à¦ªà¦¤
áĥĲ áĥ
' !
Ġà¦Ĩà¦ĩ à¦Ĩà¦ĩà¦Ł
Ġà¦«à¦² à¦ľ
Ġà¦Ĺà¦£ à¦°
Ġà¤ª à¤¢
Ġà§§à§¯ à§¦à§®
à¦ī à¦ĩà¦²
à¦ªà¦Ł à¦²
chat togram
al es
Ġgu jar
Ġfil ter
2 18
Ġl bp
à¦Ĩà¦ĩ à¦ıà¦«
ah an
à¤ ĥ
Ġk it
Ġ+ ++
Ġà´ ĩ
à¦Ĳ à¦¶
Ġwholes ale
Ġà¦¸à¦« à¦²à¦ķ
Ġred mi
Ġly rics
Ġà¦ĩà¦ī à¦Ĩà¦°à¦ıà¦²
Ðµ Ð´
Ġlin ux
Ġw ays
Ġg one
s outh
à¦°à¦ķ à¦¥
Ġair port
Ġlo ks
à¦¨ à¦ĩà¦¬
am ic
Ġ7 20
Ġgerman y
Ġà¦īà¦ĩ à¦Ļ
Ġà¦ĵ à¦ıà¦®à¦ıà¦¸
ver age
áº ¿
14 1
Ġkey board
âĢĶâĢĶâĢĶâĢĶ âĢĶâĢĶâĢĶâĢĶ
à¦ĥ à¥¤
Ġà¦ĸ à¦Ĺ
ra el
Ġappreci ate
Ġcy clone
à¤ ī
Ġaff ect
Ġwor th
Ġà¦ıà¦° à¦ľà¦¨
h ard
super fly
Ġp our
Ġconver ter
à¦Ĺà¦ª à§İ
Ġf ir
à¦¾- -
Ġbe y
) ){
à¦ī à¦ıà¦¨à¦¬
Ġà§§à§¯ à§§à§¦
à¦§ à¦ķà¦²
Ġu v
ÙıÙĳ ØĮ
ex p
Ġru le
Ġsomet imes
Ġà§ª à§§à§¦
in r
Ġà¦¦à¦² à¦Ń
Ġj ar
nc ricinfo
, $(
virtual page
Ġp superfly
à¦Ł à¦ĩà¦¨
v ol
Ġmah ar
in n
14 3
Ġa unty
Ġà§¨à§® à§¨
Ġwait ing
Ġr adi
Ġkob ita
15 4
Ġbu ilt
à¦ĸ à¦¶
à¦°à¦¨ à¦Ł
Ġà§¬ à§¦à§¦à§¦
Ġser ial
à¦Ĩ à¦ªà¦¤
à¦· à¦²à¦§
eng ers
Ø§ÙĦ ÙĨ
16 2
90 01
g han
à¥¤ *
à§° à¦«
Ġhas ina
Ġalter n
Ġà¦ħà¦¨ à¦ķ
Ġi gn
ir i
ĠÐ ³
à¦¨à¦¬à¦¸ à¦Ń
!!!! !!
Ġà¦Ĩ à¦¬à¦¸
Ġform er
Ġbij oy
Ġess ential
Ġrelation ship
Ġà¦Ĩà¦§ à¦Ł
od a
hh hh
Ġsh uv
Ġsign ific
à¦ĺ Åĵ
Ġà¤ ĸ
à¦ķ à¦Ļ
Ġà¦ıà¦® à¦ıà¦¨
ust y
à¦¨ à¦¬à¦¬
Ġà¦ķ à¦ªà¦Ł
u le
og a
ag reed
24 2
ile y
ĠÛ ĸ
à° °
Ġsum mer
- à¦¾
à¦® à¦¶à¦ķ
Ġà¦ıà¦ķ à¦§à¦°à¦£
à¦¼à§Ģ à¦ĥ
à¦Łà¦¬à¦² à¦ª
ph en
30 6
Ġmuk ul
Ġà¦ī à¦Ĺà¦°
Ġpur chase
Ġnews chattogram
Ġr p
à¦ķ à¦ªà¦Ł
Ġà¦¬ à¦ĩà¦¸
Ġarrest ed
à¦¬ à¦«
Ġà¦¯à¦¶ à¦¸
ipur a
à¦°à¦¤ à¦¦
Ġd y
Ġd kk
16 3
Ġch ance
Ġind ic
Ġloh agar
Ġà¦ķà¦¨ à¦Ńà¦¯
Ġnews portal
ci ent
Ġ25 6
Ġà¦ħà¦¬à¦¨ à¦®à¦¨
à¦ī à§İà¦ķ
à¦¯à¦ķ à§°
af a
Ġà¦® à¦²à¦¤
Ġà§¨à§® à§¯
i os
Ġc ou
à¦¤ à¦¸à¦°
àµ ½
Ù Ĺ
à¦ķ à¦°à¦ķà¦®
d or
à¦Ĺ à¦¨à¦ķ
à¦ĩ à¦ı
Ġà¦ĩ à¦¤à¦°
Ġst one
Ġkr w
Ġfel t
Ġà¦Ķ à¦ľ
Ġshak ib
Ġa id
fr ont
à¦¨ à¦ł
Ġd p
ĠØ® ÙĬØ±
Ġsch edu
à´ Ĺ
Ġdec ision
Ġplay ers
Ġkor ar
Ġpahar barta
à¦¡ à¦¸à¦®
f our
à¦¿. ,
Ġlohagar anews
à¦® à¦Ľà¦¡
ity a
ad an
à¦¿ +
t am
Ġs ense
Ġà§¨à§¯ à§ª
ĠÐ¿ Ð¾
à¦°à¦¹ à¦ª
Ùģ Ø±
à¦¾... à¥¤
Ùĳ Ù°
à¦¼ ]
à¦Ł à¦¬à¦¨
Ġà¦ķà¦² à¦°à¦¬
ex e
Ġà§¨à§Ń à§¬
Ġinterest ed
s n
Ġk ee
Ġbi ography
à¦® à¦ªà¦¦
Ġst ars
Ġeas ily
k at
ant ly
we i
à¦°à¦¸ à¦¨à¦ķ
Ġà¦¬à¦¹ à¦¦
à¦£ à¦ľ
à§§à§¦ à§¨
ib a
Ġsh er
à§ĭà¥¤ "
Ġc old
Ġi b
Ġà§Ńà§® à§Ń
) !
à¦ĩ à¦ĵà¦¨
Ġsystem s
f u
ig e
Ġà§©à§¦ à§Ń
ont o
Ġtr ip
17 4
g ar
à§° à¦¤à¦¬
Ġsa ha
à§§ à§§à§ª
Ġf lag
à§ģâĢĻ -
ro t
Ġrub el
à¦°à¦ļ à¦ķ
Ġgold en
Ġà¦ľà¦² à¦®à¦Ĺ
Ġst ing
) "
Ġn ij
Ġà° ¤
à¦ķ à¦¢
Ġà¦¨à¦¬ à¦¦à¦®
Ġis k
Ġà§¨à§« à§ª
Ġà¦ªà¦° à¦ĵà¦¯
Ġblog s
j our
à¦ĸà¦¨ à¦ķ
cul ive
à¥¤à¥¤ à¥¤
Ġsn ow
Ġrecomm end
à§§à§¦ à§§
à¦ľ à¦ļ
à¦Ľ à¦«
Ġà§© à§©à§¯
Ùĭ Ùĳ
ãģ Ħ
Ġà§§à§® à§«à§Ń
Ġkar im
oxic illin
à¦¶à¦¨ à¦¸à¦®
Ġbe ha
desk top
Ġextrem ely
à¦¿ à§ĥ
Ġp t
Ġd ies
à¦·à¦ķ à¦ĵ
Ġpower ful
newst imes
ÑĥÐºÑĢÐ°ÑĹÐ½ ÑģÑĮ
Ġw ind
26 5
à¦¬à¦°à¦£ à¦ķ
Ð¸ ÑĤ
Ġco ach
l b
à¦īà¦ľ à¦²
Ġr f
Ġtable ts
Ġà¦§à¦¬ à¦§à¦¬
k art
ri x
Ġclone à¦¸à¦¦à¦¸
c ook
Ġà¦īà¦¨ à¦¬
2 25
Ġà¦ĵ à¦°à¦¶
à¦¾à¦ĥ :
à¤¿ à¤Ĥ
th ough
à¦Ĩà¦ĩ à¦«
Ġred tube
à¦Ľ à¦¸
Ġt ree
Ġy o
) \
Ġà¦Ĩà¦ķ à§°
Ġshare s
à¦¨à¦¬ à¦°à¦£
Ð¸ Ðº
à¦ļ à¦¸à¦¹
Ġk is
à§ĩ ÂŃ
Ġsch olar
Ġcock s
à§İ à¦ªà¦¤
ist a
Ø Ł
Ġdesk top
à¦· à¦¤à¦¨
à¦ıà¦®à¦¨ à¦Ł
lat ive
Ġà¦¸à¦° à¦²à¦°
Ġw estern
app le
- >
Ġ ................
4 06
Ġn iye
à¦¥ à¦£
Ġà¦«à¦² à¦ĵ
Ġmy r
à¦Ń à¦¬à¦ķ
Ġwed ding
Ġpr inter
Ġvi á»ĩ
à¦¯ à¦¡
Ġs athe
Ġnews papers
news letter
Ġ à¦Ĥ
Ġà¦Ĩà¦ĩà¦ıà¦« à¦Ĩà¦ĩà¦¸
à¦§ à¦¨à¦¬
Ġam d
Ġj ordan
ho le
Ġsh om
à¦£ à¦²
Ġarticle à¦Ł
Ġnam ed
bol lywood
trans form
Ġrec ru
Ġà¦Ĩà¦Ł à¦ľà¦¨à¦ķ
Ġencyclop edia
} \)
Ġà¦ħà¦¬ à¦Ĺ
à¦¦ à¦§
24 6
Ġrak ib
Ġà¦¶ à¦°à¦¯
Ġex change
à¦¼ !!
Ġk ur
ay at
Ġmain tain
Ë Ī
ink y
ĠÙĦ Ø£
Ġà¦ķ à¦ĸ
Ġbig gest
Ġbir ds
à¦¨ à¦¹à¦¤
Ġkor i
Ġà¦ª à¦Łà¦ķ
ut ers
Ġpr one
kb ps
à¦¤ à¦²à¦¤
à¦¼à¦¾ )à¥¤
à¦²à¦¦ à§°
Ġà¦ľà¦¬à¦°à¦¦ à¦ĸà¦²
ÙĨ ÙĬ
à§§à§¦ à§ª
g ent
à¦¯ à¦¤à¦ķ
Ġtradition al
à¦ıà¦¨ à¦ĵà¦¸
k am
à¸ ±
Ġf irm
Ġg or
25 87
ce an
ÑĥÐºÑĢÐ°ÑĹÐ½ÑģÑĮ ÐºÐ°
2 13
à§§ à§§à§Ń
à¦¦à¦ķ à¦¤
à¦ĩ à¦°à¦¹
à¦° à¦²à¦¬
"" ""
Ġn ing
à¦¹ à¦¸à¦®
à¦¿à¥¤ ''
ob o
Ġd rama
30 9
Ġty pes
à¦Ĺà¦° à¦°
à¦°à¦£ à¦¹
Ġs ant
ir ty
à§§à§® à§¦
ron ics
à¦ĩà¦ľ à¦Ł
Â¦ à¦¾
à¦°Ã¦ à¦¯
Ġà¦ķà¦° à¦®à¦°
p ack
et ooth
Ġkor bo
Ġprogram ming
Ġà¦¨ à¦Ĺà¦¨
à§± à¦¨à¦¤
à¦¤à¦¨ à¦¯
Ġ, ,
Ġ19 99
. ),
à§ĭ ),
Ġv en
Ġx p
Ġris k
23 4
Ġman ob
Ġlead ers
st orm
Ġturn ed
à¼ ĭ
3 36
r ub
Ġfre elan
à§§à§¦ à§®
Ġappe ared
ab a
Ġà§¨à§¬ à§®
Ġà¦Ĩà¦¨ à¦Ł
à¦ļ à¦ļ
as er
Ġà¦¬ à¦īà¦®
à¦ŀ à§°
Ġis land
ap ore
23 6
Ò Ľ
Ġà¦ı à¦ľà¦¬
Ġà¦° à¦¹à¦¨à¦ª
à¦¨à¦ĵ à¦Ł
Ġpe oples
Ġle e
ate ur
Ġbo ss
Ġà¦¶ à¦Łà¦Ĺ
Ġà§© à§ªà§«
Ġt ask
ak s
Ġà¦¡ à¦Ĺà¦²
Ġu ah
Ġfa ith
Ġking dom
em ale
Ġlo s
à¦°à¦® à¦¸
à¦¤à¦² à¦ľ
Ġà¦Ł à¦Ĺà¦°
Ġmention ed
Ġà¦Ĺ à§°à¦®
à¦ªà¦° à¦°
à¦§à¦¨ à¦Ĺ
à¦ķà¦¶ à¦¤
ĠÙģ Ùī
Ġnob obarta
Ġpie ce
à¦ķ à¦Ĩà¦¤
Ġg f
Ġà§¨à§¯ à§¨
Ġ19 98
Ġà§© à§§à§¯
Ġprin ce
Ġt une
Ġà§¨à§Ń à§¯
e uro
Ġtem per
Ġprom inent
Ġà¦¬à¦¨ à¦°
ul i
23 9
ĠðŁ Ĵ
Ġpar liament
Ġload share
Ġknow s
Ġfest ival
Ġp ap
Ġ3 80
Ġtech ni
Ġsab uj
Ġtran sport
Ġà§« à§¨à§¦
ew ork
Ġsc an
Ġà¦¤ à¦ĩ
Ġc w
00 5
Ġà¦Ĩà¦® à¦²à¦¨
re c
com es
: )
Ġw rote
Ġï Ĥ
Ġà§¨à§Ń à§®
Ġà¦¬ à¦ĩà¦¬
Ġà¦īà¦ª à¦¶
g ers
at ers
Ġmal ays
99 0
Î» Î»
Ġà¦ıà¦° à¦«
à§§à§¦ à§«
à¦§ à¦Ĺà¦²
Ġsol utions
à¦ĺ à¦Łà¦ķ
à¦¨à¦®à¦¨ à¦¸
t ips
áº¿ ng
à¦¼ ....
à¦ķ à¦¸à¦ª
Ġà§¨à§¬ à§Ń
Ġlist en
e o
Ġà¦² à¦ĵ
Ġà§¨à§« à§¨
Øª Ùĩ
d ict
à§Ĥ ,
25 4
ii i
dimention table
Ġprofess or
Ġbe ar
Ġtag ore
w ise
hman baria
à¦Ľ à¦ĩ
Ġà§© à§©à§¬
Ġlog o
at y
Ġa ur
à¦®à¦² à¦¬
Ġpo cket
15 3
j am
Ġà¦Ł à¦ķà¦¦
Ġà§ªà§¬ à§¦
a q
à¦ļ à¦®à¦¬
k antha
Ġà¦ıà¦® à¦«
2 28
"" >
Ġadmin istr
Ġbra in
Ġfac ilities
à¦ĩ à¦¶à¦°
ÙĲÙĳ ØĮ
bah asa
Ġstra ight
Ġh arm
pre s
Ġshop ping
7 05
Ġà¦¤ à¦ªà¦¶
Ġà¦¸à¦¨ à¦ľ
~~~~ ~~~~
à¦° à¦ĺà¦°
Ġà§© à§§à§Ń
gy pt
tweet s
à¦ĵ à¦®à¦°
el ts
Ġclo th
Ġà¦¬ à¦¶à¦¤
à¦· à¦«
à§Ĥ à¦ĥ
Ġde lete
à¦¨à¦Ĺ à§°
; ;
à¦¸ à¦ħà¦°
ÙĲ .
Ġdur ga
Ġgang bang
Ġmiz an
Ġbud get
à¦ªà¦¨ à¦ļ
mon soon
Ġà¦ĵ à¦Łà¦¸
ĠØŃ Ø¯
18 4
Ġà¦¶ à¦°à¦®
à¦¶à¦¨ à¦ª
Ġout side
à§§à§¯ à§Ńà§¨
ous ly
à§ĭ âĢĿà¥¤
Ġdes ire
à¦£ à¦ļà¦¨
Ġpint anik
! ...
Ġm im
Ġsutradhar manager
à¦¬ à¦ıà¦ĩà¦¡
ind i
Ġcommun ication
à¸ ĩ
à¦ĩà¦² à¦®
Ġw is
à¦ĩà¦¸ à¦ķ
ay an
Ġà¦ĩ à¦ĩà¦īà¦°
à¦¤à¦® à¦ķ
Ġf olk
ch ittagong
Ġà¦Ĩà¦ĩà¦¨ à¦Ĺ
Ġl iv
27 6
Ġcreat ive
Ġfran Ã§ais
à¦¨ à¦¶à¦¤
Ġfl u
à¦¶ à¦¤à¦²
Ġà¦¶ à¦¬à¦°
30 8
ĠØ¥ ÙĦÙī
Ġdiscover ed
Ġex erc
p lace
Ġà¦Ŀ à¦Łà¦ķ
Ġtum blr
Ġval u
movi es
Ġà¦īà¦¤ à¦²
Ġan up
à¥Ī à¤Ĥ
à¦¦à¦ķ à¦®à¦£
ful ki
x q
window s
3 01
w r
3 45
c v
Ġv it
íķľ êµŃ
Ġà¦¸ à¦ĩà¦«
Ġh aj
Ġh und
Ġr id
23 7
Ġdaily fulki
Ġà¤ķ à¤¬
i ents
Ġà¦Ĩà¦¸ à¦°à¦Ł
em on
Ġexam ination
be aut
e à¦ª
Ġà¦ıà¦® à¦ıà¦ĩà¦ļ
à§§à§© à§«
Ġte a
Ġwill iam
Ġplan et
Ġsent ence
Ġsep ar
Ġs anj
section s
Ġà§¦à§§à§Ńà§§à§© à§©à§Ń
ct ors
f y
} +
Ġà¦¬ à¦ĩà¦ķ
à§§à§¯à§® à§¬
Ġex ist
Ġ12 2
Ġpan el
Ġhav en
à¦ľ à¦«
Ġà¦¸à¦¹à¦ľ à¦¬
Ġsc ript
Ġviol ence
Ġw et
ha p
Ġsat ellite
Ġà§¨à§¬ à§©
Ðµ ÑĢ
Ġà§© à§¨à§Ń
Ġd har
Ġm ul
id o
à¦¯ à¦¬à¦¨
un k
à¦²à¦ª à¦¡
ig en
Ġà§¨à§® à§Ń
Ġn zd
ĠÙģ ÙĬÙĩ
ik i
Ġeduc ational
ab les
b row
à¦¾à¦ĥ ,
Ġ15 5
à¦¥ à¦¶
Ġà¦ıà¦² à¦Ĩà¦°à¦¬
à¦ĩà¦Ł à¦¬
Ġà¦ľà¦² à¦§
h ya
à¦ı à¦ıà¦«
Ġà¦ħ à¦ĩà¦²
à§° à¦ĩ
Ġà¦ĸà¦¬à¦° à¦Ĺ
Ġn il
à¦¿! âĢĿ
Ġdut ta
à§§à§¦ à§©
Ġbatt le
Ġsecret ary
à¦¼à§ģ à¥¤
Ġsh ift
b in
Ġal le
Ġcha in
Ġà¦ıà¦²à¦ı à¦²à¦¬
à¦¿à¦Ĥ '
à§§à§¯ à§®à§®
cy cle
Ġtri ed
Ġ( !)
à¦Łà¦Ń à¦Ł
Ġcomplet ely
Ġà¦¶ à¦·
ch and
Ġpress ure
ch oti
à§ĩ \
as ons
à¦¬ à¦§à¦°
à¦Ĩà¦Ĩ à¦Ĩà¦Ĩ
Ġà¤Ķ à¤°
Ġà§© à§ªà§®
Ġà§¨à§Ń à§ª
Ġà§¨à§Ń à§Ń
Ġadv ice
16 00
Ġ14 6
Ġà¦«à¦²à¦¨ à¦¶
Ġh orn
Ġà¦« à¦°à¦ļ
Ġà¦Ĩà¦° à¦ıà¦¸
Ġà¦Ĩà¦ĩ à¦Ńà¦°
23 2
bu ild
Ġdip l
Ġk as
à¦¾âĢĿ ,
! ,
Ġall iance
Ġs aving
Ġfor get
Ġchand pur
íķľêµŃ ìĸ´
Ġin put
jp y
Ġanal y
à¦Ĺ à¦¸à¦¨
Ġ13 7
dnis one
Ġj query
Î· Î½
à§§à§© à§©
ĠØ¹ Ø¨Ø¯
== (
glo bal
à¦°à¦® à¦Ĺ
Ġà¦ıà¦¸ à¦ıà¦®à¦ª
Ġà¦ľ à¦²à¦¯
30 5
Ġcum shots
Ġà¦Ĩà¦ļà¦°à¦£ à¦ķ
Ġcomp ar
à¦¯ à¦Ĺà¦¤à¦Ń
Ġ17 0
Ġà¦§à¦¨ à¦¸à¦®
t em
ure au
mb ol
Ġatt empt
Ġcamp aign
b ase
24 3
sh adow
Ġdis p
à¦¸à¦¨ à¦ķà¦°
Ġà¦ĸà¦¸ à¦ĸà¦¸
Ð³ Ð°ÑĢ
se qu
ch el
Ġà§©à§¦ à§¬
ĠÙĦ Ùĩ
à§§à§§ à§§
23 3
Ġhas san
200 5
Ġlook ed
h old
à¦¬ à¦Ĺà¦¨
Ġà¦Ĩ à¦°à¦£
rah man
Ġanim al
à¦ļà¦² à¦®
ot er
à¦¿ ......
à¦ªà¦¨ à¦ĵ
à¦¬à¦¬ à¦¤
Ġà¦¨ à¦²à¦¤
Ġg ag
Ġpre fer
Ġfil ms
Ġcele brit
4 05
à¦¤à¦¨ à§°
à¦¸à¦ķ à¦Ń
25 3
f ood
à¦¿ à¥¥
Ġsun ny
Ġdoggy style
à¦²à¦ķ à¦ĵ
Ġimp lement
à¦Ł à¦®à¦°
Ġà¦ı à¦Ĩà¦°
37 5
Ġâī ¤
ishakh i
à¦ĩà¦ķ à¦¬
Ġcrit ic
m ess
ro g
20 2
Ġà¦ıà¦ķ à¦ªà¦ķ
Ġà§§à§¯ à§§à§«
Ġlat in
Ġprov ided
à¦¨ à¦ļà¦¨
à¦¶ à¦ĵà¦¯
Ġ- à¥¤
Ġclass ic
Ġà¦ľ à¦®à¦¬
à¦ľ à¦£
Ġd ani
Ġà® ļ
char ge
Ñĩ Ð°
27 7
Ġtra ffic
Ġfore st
Ġappro ach
Ġgroups ex
à¦¦à¦° à¦ª
à¦ĩà¦® à¦Ł
à¦ı à¦ľà¦¨
vr inda
à¦« à¦¬
Ġà§©à§¦ à§¯
o log
Ġprof it
Ġpay pal
Ġà¦¹à¦² à¦Ł
Ġed ge
Ġdel iver
à¦¨ à¦Ĩà¦īà¦Ł
à¦·à¦£ à¦ľà¦¨
Ġà§© à§ªà§¯
ap k
Ġà¦ħà¦® à¦°à¦¨
à®ķ à®³
Ġà¦ĩà¦ī à§°
à¦ļ à¦¹
lo d
ss ip
Ġap point
Ġun c
` .
Ġmo hammed
Ġbe ach
Ġstud io
ł áĥ
à§§à§« à§¯
Ġrokom ari
à¦ĸ à¦ĵà¦¯
Ġgener ator
Ġà¦ıà¦« à¦ıà¦¨à¦ıà¦¸
Ġà§¦ à§§à§¬
em y
Ġav g
Ġkaz i
Ġko hli
à¦ĸà¦² à¦Ń
}} </
Ġmos que
à¦§ à§±
Ġà§§à§Ń à§¦à§¦
Ġam b
Ð¸ Ð½
Ġstart ing
Ġr x
Ġfor ces
Ġgo al
Ġ à§¦à§¦à§¦
Ġà§¨à§® à§©
Ġ12 6
ell er
Ġh idden
19 3
Ġà¦ĩà¦¨ à¦«à¦°
mus ic
Û ±
Ġkha bar
Ġà¦¸ à¦²à¦Ń
Ġà¦īà¦ª à¦²à¦¦
Ġeffect ive
bra him
Ġl anka
Ġbh al
Ġeurope an
Ġà§§à§¯ à§¦à§§
con st
Ġà¦¬à¦° à¦ľ
g overn
à¦®à¦¨ à¦¨
à§ª à§«à§¦
Ġmult i
à§°à¦¤à¦¬ à§°
ak ir
arn at
Ġstrateg ies
Ú º
à¦¦à¦°à¦¬à¦¨ à¦ķ
âĢĻ ...
Ġà§«à§Ń à§¦
Ġà¦Ĺ à¦¨à¦¤
Ġà§©à§¯ à§¦
ĠÛ ³
ÑĬ Ð»
à° ¨
Ġpak istani
Ġar if
Ã¢n Äĥ
à¦° à¦Ĩà¦ª
Ġà¦ıà¦« à¦Ĩà¦°
à¦ķà¦°à¦£ à¦ķ
Ġdat abase
à¦Ł à¦²à¦Ĺ
Ġ... ]
ÙĪØ§ Ùĩ
Ã¼rk Ã§
à¦²à¦¨ à¦¬
à¦¶ à¦Ĺà¦²
im al
el ing
à¦¾ ??
à¦ħ à¦®à¦°
Ġpri ze
m aster
Ġà¦Ĩà¦ľ à¦®à¦¤
Ġ12 1
Ġà´ ¸
Ġvir tual
g am
Ġro w
à§ģ (
Ġà¦Ĩ à¦¥
Ġn it
ain t
ĠØ§ÙĦ Ø«
Ġà§¨à§¯ à§©
Ġch rome
Ġcompan ies
Ġte ens
Ġequip ment
Ġsub mit
25 2
à§į )
à¦Ĺ à§İ
pl ugins
Ġrec ords
ĠÛ ģ
Ġà¦ªà¦° à¦®à¦¬
Ġnajarband i
b ing
ĠØ£ ÙĪ
Ġreleas ed
24 4
13 2
r l
Ġà§« à§¨à§«
Ġp ound
à¦°à¦£ à¦ªà¦¤
sc ience
Ġbal ance
à¦¿à¦Ĥ /
Ġrep air
Ġà§¨à§® à§ª
gen eral
à¦¶ à¦¤à¦®
Ġd il
Ġk en
à¨ ¬
Ġà¦ķ à¦Łà¦ķ
à¦¨à¦¬ à¦¹
x p
st an
Ġacadem ic
à¦¬à¦¦ à¦®
Ġful ly
Ġà¦Ĩ à¦¹à¦°
ĠâĢĺ âĢĻ
Ġul tim
Ġse ven
Ġap u
Ġreg ion
Ġok ay
Ġà§¯à§Ń à§®
Ġà§© à§ªà§¬
Ġw arm
w ill
Ġf m
à´ ļ
à¦¨ à¦ªà¦ķ
Ġoper ation
ÑĬÐ» Ð³Ð°ÑĢ
Ġf inger
Ġplan ning
à¦ĺ à¦²à¦ķ
18 3
Ġà¦¨à¦Łà¦° à¦¡
ĠâĢł `
Ġà§¬ à§ªà§¦
Ġ13 6
b oo
38 8
Ġhy dro
Î¹Îº Î¬
Ġ ë
à¦ģ ,
ber s
12 2
28 0
à¦ķà¦®à¦² à¦Ĺà¦ŀ
Ġb os
à¦ĩà¦ľ à¦¦
Ġà¦¬à§° à¦ª
Ġak ash
Ġa hsan
Ġsaf ety
à¦ķà¦° à¦²
an ab
plic ation
Ġacc ent
f en
Ġà§© à§©à§¨
à¦ıà¦® à¦ıà¦¸à¦ıà¦«
âĢ¢ âĢ¢
h ic
Ġ12 9
à¦¨ à¦ıà¦ľ
à¦ħ à¦¬à¦¹
bang lanews
j al
Ġd yn
org an
Ġmet ro
Ġm xn
à¦īà¦ľ à¦«
Ġv in
Ġà¦ªà¦¥ à¦¯
eb ook
mo z
âĢ²âĢ² ,âĢĿ
à¦ħà¦¨ à¦Łà¦¨
29 6
Ġcomp os
à§ĩà¥¤ âĢľ
à§Į âĢĻ
à° Ĥ
Ġà¦ħà¦Ń à¦¦
à¦ĩà¦Ń à¦Ł
à§ĩâĢĿ ,
j ack
à¦°à¦¸ à¦ľ
ht e
25 1
k z
Ġà¤® à¤°
wh en
à¦¼à¦¾ âĢĵ
pl ied
erd ak
Ġd eter
200 4
à¦¯à¦ķ à¦°à¦£
26 0
Ġà§© à§©à§ª
Ġc nc
à¦ļà¦² à¦Ń
Ġning bo
is ement
al Ãł
Ġp eter
Ġf rench
14 2
Ġfin ance
à§ĩ à§ģ
à¦¸ à¦¯à¦¨
Ġà¦¬ à¦Łà¦¬
Ġgh z
Ġà¦ķ à¦ĩà¦¯
Ġà¦ıà¦¸ à¦ıà¦¨à¦ıà¦¨
à¦¯à¦Łà¦¨ à¦®à¦¨
om et
Ġbri ef
Ġà¦ħà¦ªà¦° à¦ªà¦ķ
à§§à§¦ à§Ń
Ġà§ªà§¯ à§¦
Ġj ai
à§ªà§¯ à§¯
à¦Ń à¦²à¦Ń
Ġà§© à§ªà§¨
à¦¸à¦¨ à¦Ł
à¦«à¦² à¦Ł
........ .......
Ġcurrent ly
Ġconst ruction
à¦§ à¦ªà¦¤
à¦ķà¦² à¦ľ
Ġà§©à§¦ à§®
Ġà§©à§Ń à§Ń
à¦¯ à¦¸à¦¨
uc le
Â ¿
à¦¨ à¦ļà¦²
Ġà¦° à¦¸à¦®
à¦ıà¦¨ à¦ıà¦®
Ġâ ĭ
à¦ª à¦ĵà¦¯
ers on
Ġpro gress
Ġem b
): :
f act
à¦ķà¦Ł à¦ľà¦¨à¦ķ
ĠÙĪ Ùĩ
Ġlock down
à¨ ľ
à¦®à¦¤ à¦²à¦¬
akh ali
Ġads ense
3 16
Ġ16 5
Ġas ad
Ġcont ro
à¦ĩà¦Ł à¦¹
à¦ĵ à¦·
Ġpy g
n ah
Ġgraph ics
à¦¶ à¦¬à¦ķ
ĠØ¨ Ùĩ
Ġsh ob
Ġarticle à¦¡
Ġà¦ļ à¦ªà¦²
Ġa th
à¦¯à¦ķ à¦¤
js on
kha bar
p ot
Ġc row
à¦Ĺà¦² à¦ľà¦¨à¦ķ
Ġjour ney
d am
ĠÙĬ Ø§
à§Ģ? âĢĻ
Ġb np
Ġbas is
Ġa che
Ġs ust
Ġarticle à¦ĸ
Ġdet ect
Ġn rc
ad or
Ã »
Ġch h
ÙĪ Ø¬
Ġt ip
Ġf ah
à¦°à¦¡ à¦Ĺ
Ġchang es
â ¸
Ġal though
Ġ13 3
n om
tag ged
Ġ à¦ĥ-
à¦£ Åĵ
Ġow ner
Î»Î» Î·Î½
Ġt ap
Ġâĸ ª
ph y
à¤ľ à¤µ
i et
Ġà¦¦à¦°à¦ķ à¦·
78 9
Ġh em
Ġ áĢ
à¦ļà¦¨ à¦ľà¦Ļ
Ġd ad
à¦«à¦² à¦ĵ
Ġlong er
Ġà¦¬à¦ķ à¦¸
os at
Ġî Ģ
arian ews
Ġs ources
Ġst up
à¦Ł à¦Łà¦²
à§ĥ '
à§§à§¨ à§®
Ġ14 8
Ġchak arianews
Ġchud i
Ġl an
à¦« à¦¸à¦²
Ġcont est
à§§à§¯à§® à§¯
ing ers
f v
Ġà¦Ľ à¦²à¦Ľ
Ġdrug s
um in
à¦¯ à¦ĺ
à§§à§¯à§® à§«
d l
ch ing
al low
Ġ14 7
Ġgujar at
à¦¨à¦¬ à¦Ĺ
Ġk ish
Ġup az
uk i
à¦°à¦¹ à¦Ĺ
Ġkn ew
Ġb il
Ġà¦¬à¦¨ à¦«
ic ide
Ġ14 9
Ġà¦Ń à¦ľ
-------- ----
Ġà¦§ à¦®
à¦ķà¦¤ à¦²
à¦¤à¦® à¦ľ
à¦ī à¦Ńà¦¯
à§§à§¯à§® à§Ń
educ ation
Î»Î»Î·Î½ Î¹ÎºÎ¬
Ġtweet email
à¦ĵ à¦Ĩà¦ĩà¦ª
orn ia
à¦Ļ à¦ķ
Ġ15 7
kn af
cour se
Ġp ag
Ġà¦ľ à¦²à¦¨
Ġev olution
p lot
im ent
ab i
Ù ĵ
Ġà¦¤à¦° à¦ľà¦®
tp ut
Ö ´
Ġdiscuss ion
Ġth us
à¦ĩà¦Ł à¦°
29 7
Ġbl onde
ä ½
Ġle kha
Ġspec ies
Ġb le
Ġd ot
Ġà¦Ĩà¦ĩ à¦ıà¦¨à¦¸
Ġà¦®à¦¦à¦¨ à¦ª
à´ ŀ
Ġ15 6
à¦ł à§°
à¦ªà¦¦ à¦®à¦¨
an mar
Ġà§© à§©à§§
an er
se um
à¤° à¤ķ
× ¢
à¦® à¦«à¦²
Ġgard en
i as
Ġb ell
Ġm ang
Ġà¦Ł à¦ªà¦Ł
à§ĩ Â¡
Ġpass ed
Ġà¦°à¦¹à¦®à¦¤ à¦Ĺà¦ŀ
Ġcl and
Ġfurn iture
à¦Łà¦¨ à¦Ł
Ġthere fore
Ġtrick bd
Ġexact ly
Ġà¦Ń à¦°à¦¬
af e
! '
Ġà¦Ĳ à¦¹
Ġmal ik
Ġà§© à§§à§§
Ġ19 96
Ġ! âĢĿ
à¦£ à¦¤à¦®
Ġtr ipura
Ġcha i
b ash
Ġà¦ħà¦¨ à¦®à¦¨
Ġde ho
Ġcox sbazar
Ġrest aur
Ġà¦®à¦¨ à¦°
ĠØ¢ Ùħ
Ġt icket
c ite
l is
Ġsu it
17 3
d eep
Ġpharm ac
ut ely
Ġcomp la
Ġbh alo
Ġfl ight
ĠØ§ÙĦ Ø®
Ġà¦¬ à¦¤à¦°
Ġpol ic
uk e
arnat aka
ãģ §
Ã¼rkÃ§ e
Ġà¦¹ à¦°à¦ª
00 000
Ġchang ed
Ġstruct ure
4 15
à§§à§¯à§® à§ª
Ġà§§à§¯ à§¦à§¬
26 6
friend ly
Ġgradu ate
Ġ17 5
m ac
Ġà¦Ĩ à¦ĵ
à§° à¦ĸà¦¨
Ġg ad
ond a
4 03
la bel
ĠÃ ©
fol low
Ġteach ers
Ġch op
Ġt s
ĠÛ µ
c z
or ia
Ġq ar
Ġà¦ıà¦ĩ à¦¦à§°
in et
à¦°à¦® à¦¥
Ġà¦ıà¦ĸà¦¨ à¦¤
Ġacc ur
à¦ĩà¦² à¦Łà¦ķ
Ġcom edy
Ġà§¨à§® à§§
Ġcont ra
Ġsylhet erdak
Ġ( '
wor ks
ag ing
fl ix
id ul
aw s
àª Ĺ
Ġà¦¹ à¦īà¦¨
/ >
Ġatt ention
à¦Ľ à¦¸à¦¹
om o
ÑģÐº Ð°Ñı
Ġquran eralo
% (
Ġà¦Ł à¦ªà¦¸
Ġà¦Ĩà¦ĩ à¦ĩ
Ġa ro
16 1
Ġfast est
st al
**** **
Ġsun dar
ho ss
Ġà¦ķ à¦¢
Ġà§© à§©à§Ń
Ġlo v
29 5
per ia
Ġà¦īà§İà¦¸ à§±
Ġfix ed
à¦Ĺ à¦°à¦¨
à¦Ľ à¦Ľ
à¦°à¦¬ à¦ŀ
Ö Ģ
à¦¦ à¦Ļ
Ġà¦īà§İ à¦°
à¸ ´
Ġnecess ary
Ġ19 0
d m
Ġà¦ıà¦¸ à¦ĩ
Ġpoet ry
09 9
loc al
à¦°à¦ķ à¦Ĺ
Ġar s
à§ĭ (
Ã© s
Â¦Â ®
Ġtrans form
Ġà¦Ĩà¦Ĺ à¦®à¦£
m un
à¦¿ ',
Ġdin ing
à§Ĥ âĢĻ
Ġf ifa
news x
n um
al p
ÙĦ Øª
Ġg k
17 2
g ra
à¦¸ à¦ıà¦²
à¦¹ à¦ļ
Ġà¦Łà¦ķà¦¦ à¦ĩ
Ġbab e
Ù ĸ
Ġman age
à¦§à¦¨à¦¯ à¦ľ
ĠØ£ Ø¨
Ġà¦ħ à¦ķà¦°
Ġw inter
30 7
k et
m ot
à¦® à¦¬à¦°
Ġt m
ra cy
af iz
à§ģ à§ĩ
Ġà¦¨ à¦²à¦¬
Ġsal man
ÑĬÐ»Ð³Ð°ÑĢ ÑģÐºÐ¸
3 50
he y
Ġfre qu
Ġà§¬ à§§à§¦
sha h
à¦¨ à¦ĩà¦¯
Äį eÅ¡
aster n
Ġcow girl
Ġflo od
Ġphys ical
Ġtay lor
à¦ĺ à¦¸à¦¹
Ġà¦Ĩà¦ļà¦°à¦£ à¦Ĺà¦¤
Ġà¦¸ à¦Łà¦ķ
Ø§ Ø°
Ġà¦ķà¦ķ à¦ª
Ġà¦¨ à¦«à¦¸
Ġd ry
Ġà¦ĸ à¦°à¦¸
Ġn and
( \
g or
y ers
Ġmete osat
ÄįeÅ¡ t
à¦² à¦ļà¦ķ
à¦¶ à¦Ŀ
mic ro
Ġtoy ota
Ġad obe
à¦ĸ à¦®à¦¯
it ar
Ġap ost
or row
jan abd
Ġmasturb ating
à§Ń à§«à§¦
à¦²à¦¬ à¦¦
à¦°à¦¤ à¦ĩ
t re
âĢĶ -
Ġab st
à¦¾' -
ĠØ¥ ÙĦØ§
Ġgirl friend
Ġà¦Ĩà¦ļ à¦²à¦¤
Ġactiv ity
25 7
à¦·à¦ķ à§°
Ġà§ªà§Ń à§¦
Ġhealth y
à¦·à¦£ à¦Ĺà¦£à¦¨
as px
à° ¤
Ġexecut ive
Ġcertific ate
à¦¤à¦² à¦¸à¦¹
2 14
à¦ī à¦®à¦°
à§§ à§§à§¨
Ġà¦¸ à¦°à¦¤
33 5
Ġesp ncricinfo
Ġà¦ļ à¦ĩà¦²
Ġd ib
w l
Ġf iction
Ġap t
Ġst y
âĢĻà¥¤ [
Ġà¦ļà¦°à¦Ń à¦¦
à¦¦à¦¨ à¦¦
n umber
Ġn pr
Ġà¦Ĩà¦¤ à¦²
à¦¡ à¦ıà¦®
Ġg ab
à¦¸ à¦¤à¦°
à¦¬à¦ķ à¦¸à¦¹
d al
Ġà¦¡ à¦¬à¦²à¦®
r il
à¦¼à¦¿ à¦¾
à¦¬à¦¸ à¦¹à¦ķ
Ġmult iple
Ġbenef it
p ag
à¦¼à¦Ĥ à¥¤
Ġdom in
Ġdownload s
Ġà¦ĺà¦° à¦Ľ
ov a
` ,
à¦¾à¥¤ )
âĢĻ âĢĵ
Ġd um
33 4
Ġà¦Ĩà¦Ł à¦¶
28 4
Ġà§Ńà§Ń à§Ń
', '
Ġr ou
ĠÙħ ØŃÙħØ¯
à© Ķ
à¦ļ à¦®à¦ķ
à¦¯à¦¸ à¦Ļ
Ġpro kash
Ġà§©à§¯ à§¯
Ġinsp ir
à¦¬ à¦ĩà¦¤
Ġà¦Ń à¦Łà¦Ńà¦Ł
j ag
Ġinc red
Ġmo h
à¦ľà¦¨ à¦®
Ġsing er
Ġo cean
Ġà§§à§® à§¬à§¦
Ġpublic ations
Ġrail way
à¦ľ à¦ĺ
Ġar m
abd ullah
à´Ļ àµ¾
n el
Ġj i
je ction
hr vat
à¦¤à¦² à¦ª
.. ]
Ġb omb
à¦ıà¦® à¦Ń
web kit
c span
Ġpers ons
Ġjav a
Ġà¦Ĩà¦°à¦ıà¦« à¦ıà¦²
Ġprepar ation
Ġtempl ates
bo i
**************** ****************
Ġà¦ļ à¦°à¦Ĺ
Ġà¦¬à¦² à¦¸
Ð² Ð°
Ġà§¬ à§¨à§¦
Ġ19 97
Ġcor rup
w m
Ġà§§à§¯ à§§à§¬
Ø± Ùģ
Ġdec ided
gh z
Ġà§§à§¯ à§¦à§¯
à§ģ à¦¿
Ġj um
Ġà¦ªà¦° à¦·
Ġj ibon
Ġl ip
Ø¢ Ø®
tech tweets
Ġluck y
à§§à§« à§«
Ġà¦ľà¦¨ à¦¹
ĠØ§ÙĦ Ùĥ
apr il
Ġà¦Ń à¦°à¦¦
Ġde utsch
Ġà§©à§« à§¦à§¦
ans w
Ġte knaf
Ġho i
Ġs ession
no logy
) ).
mar ch
ic ed
Ġà¦īà¦ªà¦ķ à¦¥
Ġla glo
Ġpower ed
m ond
bo ishakh
Ġfin ish
à¦°à¦² à¦®
ÙĨ Ø©
Ġf as
Ð¸ Ñı
Ġà¦Łà¦¨ à¦Łà¦¨
à¦°à¦¬ à¦¹à¦®
Ġà§© à§ªà§Ń
ĠÃ ´
Ġà¦¦à¦² à¦¤
à¦ªà¦¸ à¦ĩ
Ġar ts
à¦¸à¦¨ à¦Ĺ
day s
w c
à¦ļà¦² à¦ĵ
kh las
Ġho lo
Ġwatch ed
/ âĢĵ
f un
Ġ16 8
Ġà¦Ĩà¦ª à¦¸à¦¹
à§§à§ª à§ª
Ġà¦Ĩà¦ª à¦Ł
Ġla s
Ġà¦¸à¦«à¦²à¦¤ à¦®
ÙĦ ÙĬ
Ġan cient
Ġà§©à§« à§ª
Ġp ant
Ġd na
Ġpo ol
Ġà§ªà§¦ à§¯
ad ha
à¦ı à¦°à¦ĩ
Ġco in
d eb
à§ĭ _
se con
Ġag re
Ġconcer n
n ice
ĠÃ ¬
Ġpri yo
Ġinvest ment
w x
Ġà¦° à¦¸à¦¬
Ġwh om
Ġrece ived
à¦ĩà¦¨ à¦¶
jav ascript
Ġf eder
Ġà¦ħà¦² à¦Ł
ame en
u vi
à¦· à¦°à¦Ĺ
Ġd ew
Ġà¦Ĩà¦¸ à¦¹
Ġà¦¸à¦¹ à¦¸à¦®
29 0
à§ĭà¦Ĥ ,
Ġi brahim
Ð· Ð°
17 1
Ġme her
à¦¥ à¦ķà¦ķ
m id
Ġsmartp hone
Ġk ut
à¦¸à¦°à¦£ à¦ķ
Ġà¦¯ à¦¬à¦¨
pl an
Ġdesc ri
g f
à¦ī à¦Ń
ĠØ£ Ø¨ÙĬ
ath y
Ġcr isis
Ġà¦Ĩà¦¨ à¦ĵà¦¯
à§ĩ, ...
Ġà¦Ĩà¦¹ à¦Ľ
29 4
01 1
Ġd un
Ġroman tic
Ġa ra
à§§à§¯ à§Ńà§¦
off icial
pers on
Ġin iti
à¦ĩà¦ĩ à¦ĩ
à¦Ĺ à¦ĵà¦¯
Ġà¦Ĩ à¦ªà¦ķ
27 5
Ġval ent
àª ĺ
q q
Ġà¦« à¦Ĺ
à¥Ī à¥Į
24 1
ab ol
à¦ª à¦Łà¦Ĺ
à¦°à¦¬ à¦¹à¦¨
Ġ<< <
à¦¬à¦² à¦Ł
Ġprogram me
u kh
z en
Ġà¦ħà¦¬à¦¸ à¦¨
Ġà´® à´²à´¯
p ie
à¦² à¦¹à¦¤
à§ĩ, "
iy an
u ch
36 6
Ġà¥ ®
Ġwashing ton
Ġà¦ıà¦² à¦®
ãģ Ĺ
hing ya
Ġà¦§ à§°à¦£
or an
v z
26 8
Ġà¦§ à¦¬à¦²
Ġ19 90
à¦¨ à¦¸à¦°
01 4
te en
Ġbook store
Ġsou l
à§Ģà¥¤ à¥¤
feature d
à¦® à¦Ĺà¦¤à¦Ń
in cl
Ġlow er
@ @
à¦Ń à¦°à¦Ń
à§ĩ? ??
à¦¾ Â»
Ġc ul
Ġà§«à§® à§¦
Ġà¦®à¦°à¦£ à¦ĺ
à¦¬à¦¹ à¦¨à¦ķ
à§§à§¯ à§Ńà§©
Ġge orge
Ġm att
Ġà§§à§® à§¯à§¦
Ġà¦Ĩà¦« à¦ľà¦²
jan uary
à¦īà§İà¦ķ à¦£
ad at
26 7
Ġir r
Ġopport unity
Ġg ree
Ġra w
Ġà¦² à¦¹à¦®
Ġx peria
Ġx l
trans ition
m j
q uran
w on
à§ģ )à¥¤
Ġà¥¤ "
Ġà¦Ŀ à¦°à¦¤
à¦§à¦¨ à¦ª
Ġnot ify
app end
ĠÙĩ Ø°Ø§
c et
Ġabsol utely
Ġf amil
Ġcreat or
Ġhon or
2 19
Ġw ap
à¦¯à¦¨ à¦Ĺà¦°
26 9
m pt
ital iano
Ġà¦¨à¦°à¦ª à¦¶
Ġin flu
Ġà¦¨à¦Ĺà¦° à¦ľ
Ġà¦¨à¦Ĺà¦° à¦ª
do or
w hy
à¦¹ à¦Ĩà¦²à¦®
à§§ à§§à§¬
à¦ķà¦Ń à¦°
à¦¬à¦® à¦¹à¦²
à¦¦ à¦¹à¦¨
inter net
01 3
à¦ĩ à¦£
Ġla bor
Ġm aa
v as
Ġdi et
Ġf la
à¦·à¦ķ à¦¦à¦²
Ġdec or
à¦¼à¥¤âĢĻ âĢĻ
Ġà¦¨ à¦ª
Ġ15 3
Ġpar ad
Ġà² ķà²¨
Ġnaz rul
Ġintrodu ction
osc ope
à¦¸ à¦¤à¦¨
Ġà¦Ĩà¦° à¦¬à¦ķ
Ġse lection
Ġà¦ľà¦Ĺà¦¤ à¦ķ
à¦¹ à¦Ĺà¦¨
w o
29 8
å ®
Ġà¦¬à¦² à¦¶
Ġlo ts
ðŁ ĩ
a ctions
ush er
ids ultan
bre ak
Ġà¦Ĩà¦° à¦¬à¦¸à¦¹
Ġlik ed
Ġà¦¹à¦² à¦«
Ø¯ Ø±
Ġsa if
Ġprofess ion
à¦Łà¦ķ à¦°à¦£
Ġà¦ªà¦¥ à¦°
Ġev il
Ġcra ck
Ġ14 3
Ġconsider ed
à¦«à¦« à¦«à¦«
Ġdu o
Ġà¦¬ à§İà¦¸
à¦®à¦« à¦²à¦ķ
Ġà¦° à¦¨à¦¬
ia c
i el
Ġà¦ļ à¦¹à§°
28 6
x s
Ġpremi um
Ġà¦« à¦°à¦¸
à¦ĩà¦Ł à¦ĵ
Ġo ak
Ġse ed
Ġà¦ķà¦²à¦ķ à¦²
ham an
r p
ĠØ§ Ùħ
Ġ6 50
Â £
pol it
b ro
à¦ªà¦° à¦¶
à¦ĩà¦ķ à¦°à¦£
Ġthe ms
ĠØ§ÙĦØµ ÙĦØ§Ø©
Ġ- (
Ġsh okal
fe ed
à¦ħà¦¬à¦¸ à¦°
Ġà¦ķà¦° à¦°
ĠØ¬ Ø²
Ġk un
leg al
++++ ++++
à¦¿. à¥¤
ore s
Ġme chan
on ly
à¦ķà¦² à¦°
Ġst ick
mon th
Ġk antha
48 5
Ġcap acity
à¦ĩ à¦°à¦¨
ith rom
Ġxxx k
ate ver
28 5
Ġà¦Ĩà¦ľ à¦°
à§ĭà¥¤ '
Ġus es
Ġâ Ŀ¤
own load
% ),
Ù ¾
à¸ µ
Ġimp act
Ġmah bub
Ġoffic ers
Ġsell ing
m ul
Ġà¦¸à¦« à¦°à¦Ł
ĠâĢĺ ...
Ġinte gr
ex ual
Ġnob el
> {{
à¦¨à¦ª à¦ŀ
Ø³ Ùħ
Ġà¦Ĺà¦ł à¦¨à¦ķ
Ġgu ar
r un
Ġp ac
7 20
à¦Ł à¦¤à¦®
Ġis rael
Â¦ Â¦
b g
Ġà¦® à¦Łà¦ķ
à¦ļ à¦ķà¦²
Ġe y
Ġà¦¬ à¦īà¦Ł
à§ĭ à§į
Ġà¦ıà¦¨ à¦ľà¦¯
Ġmanufactur er
à¦Ĩ à¦ķà¦°
Ġk im
Ã ¯
Ġsur v
Ġstat istics
/ .
à§§ à§§à§¯
Ġà¦ħà¦° à¦²
igh at
Ġcol la
à¦ĵ à¦¶
Ġp interest
à¦łà¦ķ à¦ª
Ġbas u
Ġens ure
Ġch al
Ġm ich
à¦¦à¦¨ à¦¨à¦Ĺà¦°
à¦¬ à§İà¦ķ
ap y
m umbai
Ġbdnews hour
Ġredd it
Ï Ħ
Ġà¦īà¦ª à¦¸à¦®
Ġà¦¹à¦² à¦¨
Ġb c
Ġsm ith
Ġàª Ĺ
Ġg ro
d ia
à¦ªà¦¨ à¦¨
à¦°à¦¹ à¦ĵ
Ġar gu
Ġà¦²à¦Łà¦ķ à¦¨
Ĺ à¸¢
Ġà¦ħà¦ª à¦²à¦ķ
Ġi ron
ag asy
Ġà¦Ĩà¦¹ à¦¨
à¦ķ à§°à¦£à§°
Ġ17 8
Ġsub orn
à¦ł à¦¤à¦²
Ġad vent
c strong
or ing
Ġmath emat
Ġcal if
à¦ĩà¦² à¦¸à¦¹
à¦Ĭ à¦¨
Ġà¦ľà¦® à¦Ľ
à® ±
Ġmarri ed
tele talk
l ier
Ġj od
Ġbin odon
à¦ªà¦¨ à§°
ul ations
ut i
Ġà¦ıà¦¸ à¦ıà¦¸à¦¡
ar ab
Ġrev olution
p d
) =
f all
Ġà¦¦ à¦°à¦¸
Ġla kh
ai re
Ġà® ¨
. )à¥¤
à¦®à¦¸ à¦ķ
Ġm ex
ĠÌĦ à§ĩ
Ġ???????? ??
Ġruss ia
3 10
Ġà¦Ĭ à¦¨à¦¸à¦¤
à¸ ģ
Ġopen ing
`. `
a id
Ġà¦ıà¦ĩ à¦¯
×Ļ× ª
Ġr it
Ġhy per
Ġbeha vi
it ute
à§Ģ [
Ġà§° à¦¬
Ġbdtoday s
à¦Ĩ à¦¸à¦ķ
à¦¤à¦¬ à¦®
Ġim medi
Ġsc en
à¦¤ à¦ķà¦Ł
po ol
Ġfav our
Ġcra zy
>> >>
Ġkhul na
g re
Ġà¦ķ à¦¨à¦°
re view
à¦Łà¦ķà¦² à¦Ĺ
Ġflip kart
Ġà§« à§ªà§©
13 1
à¦ī à¦ıà¦¸
à¦« à¦ĵ
Ġà¦Ĩà¦Ĺ à¦°
Ġthems elves
Ġà¦¸ à¦²à¦Ļ
à¦¶à¦§ à¦°à¦¦
Ġv ul
Ġà¦ıà¦® à¦Ĩà¦°
Ġtom orrow
Ġi elts
Ġà§¨à§¯ à§Ń
r adi
à¦¤ à§±
à¦§ à¦ĸ
Ġà¦¸à¦° à¦«
à¦°à¦ĩ à¦¡
Ġà¦Ĩà¦ĩ à¦ıà¦²à¦ĵ
ÙĴ ØĮ
ail s
g all
Ġà¦ħà¦° à¦¨
Ġbab es
j une
op al
nor mal
Ġar th
Ġcl in
à¦ķ à¦¸à¦ķ
Ġà¦« à§°
Ġsy l
Õ ¶
35 7
Ġjer sey
Ġcollect ed
Ġserious ly
Ġact ual
v v
Ġà¦² à¦ĩà¦¤
Ġc ensus
22 1
99 6
f arm
Ġà¦ĩ à¦Łà¦¸
ĠÙ ¡Ù
ĠðŁ Ķ
Ġtran sp
à¹Ħà¸ Ĺà¸¢
h is
u zzaman
à¦²à¦Ń à¦ª
ÙĦ ÙĤ
Ġà¦¹ à¦ķà¦¦
à§± à¦§
ir ul
Ġà¦ĵà¦ĩ à¦¸à¦®à¦¯
Ġat m
fe ction
Ġ7 50
Ġxxxk inky
à¦¼à¦¾ âĢĶ
Ġout let
Ġrec overy
+ '
Ï ģ
à¦·à¦¤ à¦¸
Ġ à¶
Ġà¦ľ à¦¸à¦ª
pop ular
Ġtel ugu
à¦¬à¦¸ à¦Ĺ
Ġà¦Ĩà¦ĩ à¦ĵà¦¯
Ġf isting
ab azar
15 1
m art
á ¸
à¥¤ ?
ĠØ« Ùħ
a vi
Ġsw itch
Ġb are
id as
Ġ2 25
Ġd ilip
Ġg hat
english es
; }
u w
clcb gas
Ġrep orts
Ġà¦ķà¦° à¦Ł
à§¦ à§§à§®
Ġwrit ers
Ġagric ulture
à¦ľ à¦Ĩà¦ª
à¦ļà¦¨ à¦ĩ
Ġà¦Ĩà¦¨ à¦ļ
Ġch ot
Ġà¦ªà¦ļà¦¨ à¦¶
w ed
Ġà¦ķ à¦ľ
à¦Ł à¦¸à¦ķ
is o
Ġà¦®à¦¹ à¦²à¦ķ
Ġthem es
Ġcap tain
à¦ī à¦ıà¦®
à¦Ĩà¦ĩ à¦ıà¦°
dis count
b k
Ġy ahoo
f lash
Ġà¦¨ à¦¬à¦ķ
Â¦ Â¤
[ _
à¦° à¦²à¦¨
pri ority
Ġo t
Ġpv t
Ġa qu
Ġunderstand ing
Ġbr ight
Ġnumber s
à¦ł à¦ļà¦ķ
à§§à§¯ à§Ńà§¬
à¦¯ à¦ªà¦¤
Ġà¦® à¦ĸà¦¦
Ġm az
ch he
ÙĬ Ø§Ùħ
38 6
Ð°ÑĢ Ñĥ
Ġindust rial
Ġbra hmanbaria
boishakh inews
r ound
Ġv pn
Ġt end
Ġsy n
bangla pedia
iver se
jour nal
à§İ à¦ķà¦°
Ġk wd
Ġhistor ical
k in
Ġ Ñĥ
ch es
ÙĨ Ùģ
Ġà§¨à§¯ à§§
Ġà¦¬à¦² à¦Ĺ
à¦²à¦¨ à¦ĩ
Ġpur pose
Ġà¦Ľà¦²à¦Ľ à¦²
Ġshow ing
Ġa a
18 1
ga on
Ġjav ascript
Ġà¦¬à¦ķ à¦¬à¦ķ
Ġam ra
de utsch
_ -
Ġc f
à¦¬à¦Ľ à§°
Ġphys ics
Ġm ere
à¦®à¦¤ à§İà¦ªà¦°à¦¤
Ġthat s
Ġelect ronics
and al
ì Ŀ
à¦£ à¦ªà¦¶
35 8
Ġ[ ..]
ach ar
Ġdur ation
Ð³ Ð¾
d og
ak ed
à¦ķ à¦Ĩ
Ġà¦¦à¦² à¦¸à¦®
Ġu ber
ÙĮ Ùĳ
Ġpen et
Ġh an
Ġupload ed
à¦¿ .....
Ġà¦Ĩà¦Ĺà¦®à¦¨ à¦ķ
à¦ī à¦¸à¦ķ
Ġ2 13
re views
28 8
48 8
à§§à§¯à§® à§¨
commer ce
à¦² à¦ĸà¦¨
à¦²à¦¬ à¦£
Ġà® µ
Ġindepend ence
à¦¨à¦¬ à¦ķà¦²
Ġe books
à¦ļà¦® à§İà¦ķ
Ġver b
à¦¿à¦Ĥ "
Ġs ush
g ir
y r
de f
m x
Ġà¦¹ à¦Łà¦ķ
Ġsh adow
Ġ13 4
Ġor ient
ĠÙĬ ÙĤ
fil m
bur g
ob humi
at un
Ġdec la
à¦Ĩ à¦¸à¦¸
à¦®à¦¨ à¦ª
Ġupaz ila
à¦¾ Â¤
cl ip
Ġà¦¨à¦ĵ à¦¦
pro file
hel p
Ġk ak
Ġsh ock
Ġval ob
à¦ı à¦²à¦ª
Ġà§ª à§§à§¯
wh ite
à¦Ľ à¦¹
Ġà¦ıà¦¸ à¦ıà¦¸à¦ķ
à¦ªà¦¸ à¦Ĺ
cal endar
Ġsah os
Ġbhattach arya
à¦Ĺ à¦®à¦¤
Ġà¦ľà¦² à¦®à¦¹
Ġscient ific
à¦ĩà¦² à¦ĵ
ra k
ch in
à¦¾à¦Ĥ âĢĻ
à¦¨à¦ķ à¦¶
fl ict
s em
Ġsur g
à¦īà¦¸ à¦Ĺ
Ùĩ ÙĦ
19 1
Ġrec ipes
Ġsamakal news
Ġstup id
Ġc bi
Ġv oc
à§§à§¯à§® à§©
Ġn q
Ġy ellow
Ġj ol
Ġx iaomi
Ø¬ ÙĦ
Ġbog ra
23 1
Ġà§¬ à§©à§¦
Ġab ul
à§ĩ à¦¿
Ġcl ip
o e
Ġp atter
ud h
à¦Ł à¦¶à¦¨
Ġg mail
à§° à¦Ĺ
Ġà§« à§©à§¦
cc a
Ġrich ard
Ġà¦¯à¦¤ à¦ĸ
Ġmalays ia
à¦¾ =
28 9
ĠÙĦ Ùħ
Ġschedu le
Ġjah an
an al
à¦Ĩà¦° à¦Ĩà¦°
Ġà§ªà§¦ à§¬
Ġjo int
à§į à¦Ĥ
Ġà¦¤ à¦Łà¦¸
27 9
Ġcrim inal
Ġmahar ashtra
Ġsuborn obhumi
Ġenvironment al
Ġbey ond
à¦Łà¦¬ à¦¡
Ġvir gin
Ġk ors
à¸ ¡
à¦ķà¦¸à¦ķà¦² à§°
Ġà¦ª à¦¯à¦¨
Ġ[ "
ãģ «
Ġbrand s
sto day
g un
Ġs ql
à¦¦ à¦¬à¦¨
Ġest ate
à§§à§Ń à§¦
à¦Ĩà¦² à¦«
Ġ17 6
Ġsee ing
m ill
à¦® à¦ķà¦²
govern ment
Ġdocument s
ĠØ®ÙĬØ± Ø§
à¦® à¦¬à¦¨
Ġ= ==
Ġà§¬ à§¬à§¦
Ġ17 2
cre ated
gen cy
Ġfore ver
Ġà§© à§ªà§§
Ġmin imum
Ġtri al
uguÃª s
46 8
Ġs ira
Ø¯ ÙĪ
Ġsp ain
Ġav j
00 4
ðŁ Į
Ġbudd h
Ġpriy anka
Ġ???????? ????
à¦« à¦ĵà¦¯
à¦¾, ,
Ġà§§à§¦ à§¦à§¦à§¦
à§§à§¯ à§®à§¦
Ġt iny
q y
Ġ" '
y lhet
Ġm l
ãģ ¦
Ġdou bt
à¦Ĩà¦°à¦ıà¦« à¦ıà¦²
Ġà¦ıà¦® à¦Ĩà¦°à¦ª
Ġcal endar
Ġà¦ªà¦Ļ à¦ķ
à¦Ľ à¦¤à¦²
Ġrun s
l ings
Ġlink edin
ap plication
anj an
à§ĩ ',
Ġsl ut
Ġwik imedia
a ar
Ġt ara
Ġm ens
Ġà¦ıà¦² à¦Ĺ
Ġch am
t ons
Ġa ar
st ub
Ġmanob kantha
Ġm ort
_ âĢ¡
Ġà¦® à¦Ĺà¦¨
er khobor
Ġ ãĥ
Ġà¦Ľ à¦°
khlas ur
ÐµÐ» Ð°ÑĢÑĥ
Ġ15 8
à¦¤à¦¨ à¦ĩ
à¦²à¦ļ à¦²à¦¨
38 0
Ġjo ined
Ġà§« à§§à§¦
Ġmil k
r ish
Ġà¦ħ à¦¶à¦°
à§§ à§§à§®
Ġà¦Ĩà¦ķ à¦¡
Ġà¦¦à¦ĸ à¦²à¦¬
Ġr ice
Ġà¦Ĩà¦ļ à§°
ĠØ§ÙĦØ³ ÙĦØ§Ùħ
05 0
âĶ Ģ
Ġo bt
Ġmo khlasur
á¹ Ń
Ġbill ion
Ġh en
d ed
g ame
uss ain
4 07
Ń Ĳ
à¦²à¦¨ à¦ķà¦ķ
Ġr ise
us k
Ġschool s
+" -
Ġadvert isement
à¦ķà¦¡ à¦ĩà¦¨
Ġmu seum
Ġâŀ ľ
à¦¦ à¦°à¦¸à¦®
à¦¯à¦® à¦¸à¦¹
à¦¬à¦¤ à¦¶
kh ar
) +
Ġâĺ ŀ
Ã ¬
Ġboy friend
Ġbul let
; &
; "
Ġbo ishakhi
Ġkore a
Ġc t
Ġl kr
Ġà¦ķà¦® à¦¸
le ts
um a
Ġà§¨à§¯ à§¬
Ġ13 1
Ġlo se
Ġà¦ļà¦Łà¦ķ à¦¦
à¦ļà¦¨ à¦ª
a ud
à§§à§¯ à§Ńà§ª
à¦ľà¦Ń à¦¬à¦¨
à¦ķ à¦®à¦¯
Ġg if
à¦¯à¦¤ à¦¤
Øµ Ø±
Ġà¦¬à¦¨ à¦ķà¦°
Ġn ick
Ġà¦°à¦ķà¦® à¦Ń
Ġsal am
Ġmot iv
ļ áĥ
à¦ķ à¦¨à¦Ł
ph an
us ing
Ġgreat est
Ġgal van
Ġ19 95
ham edia
Ġxn xx
Ġla ke
Ġr i
bre aking
Ġà¦ľ à¦¶
Ġâľ Ķ
Ġinter nal
Ö ¸
Ġch er
Ġpr oud
stand ing
sm all
Ġà¦®à¦¦à¦¦ à¦¦
Ġsus p
Ġà¦ī à¦ĩà¦ª
à¦Ĺà¦łà¦¨ à¦¸à¦®
Ġsha pe
Ġ{ "
à¦īà¦ª à¦¹
can adian
Ġobser ver
Ġz h
à¤° à¤¦
gr oups
Ġsheers hamedia
Ġ18 5
x videos
Ġà¦¯ à¦¤à¦¨
Ġà¦Ĩ à¦ļà¦²
Ġle z
Ġmd l
Ġà¦ĩà¦ķà¦¨ à¦®
2 003
le e
Ġà¦īà¦ªà¦ľ à¦²
à¦ī à¦·
ĠðŁ ĵ
Ġast ro
Ġe ight
19 2
sch ool
ewh en
à¦²à¦ķ à¦£
Ġth row
Ġ... -
à§İ à¦¤
Ġà¦¶ à¦°à¦¹
Ġà¦®à¦¤ à¦ķ
à¦īà¦ĩ à¦ļ
Ġmargin bottom
ic ated
à¦²à¦Ĺ à¦¡
âĸ ł
ih idden
à¦¤ à¦¸à¦ķ
Ġliber ation
Ġthunder storm
à¦¸ à¦ľà¦®
à¦Ł à¦ĺ
Ġà¦Ĩà¦Ľ à¦®
à¦¾- ---
Ġeff ort
nk newsletter
h ra
âĢĻ .
Ġà¦¶à¦¹à¦° à¦ľ
ss c
à¦®à¦ķà¦° à¦¨
iz es
Ġà§©à§« à§«
Ġlast newsbd
à¦ıà¦² à¦ıà¦«
ap ur
Ġphilos ophy
Ġwit ness
ro se
Ġà¤ª à¤¹
m z
w y
Ġth ick
Ġconstit ution
m ine
×ĳ ×¨
à¦łà¦ķ à¦ĸ
Ġnd tv
à¦ıà¦ĩà¦ļ à¦Ĩà¦°
Ġhard core
Ġvir at
Ġcat ag
à¦® à¦Ĺà¦¨
Ġà¦ĩ à¦¹à¦²
à¦®à¦¤ à¦ĵ
gr oup
Ġcould n
Ġbookmark ed
à§©à§Ń à§¦
Ġset ting
Ġstart s
Ġb ac
à¦ķà¦² à¦Ļ
Øª Ùī
clo se
h c
Ġk ana
ans wer
Ġdest roy
Ġc ot
Ġk us
à§°à¦®à¦£ à§°
hid ewhen
hidewhen used
Ġw anna
28 7
rab ani
Ġà¦ıà¦ķ à¦¡
ĠÙĦ ÙĦ
Ġà¦Ĩà¦¤ à¦ª
Ġà¦ĭ à¦Ĺ
Ġev idence
Ġplay ed
t ri
âĢĶ âĢľ
Ġpar is
Ġdes p
ract s
à¦° à¦Ĺà¦²
à¦Ń à¦ĩ
à¦¾à¦ģ !
à§« à§«à§¦
cl es
Ġwas n
Ġsem ihidden
Ġà¦ĩà¦ī à¦ıà¦ĩ
11 11
Ġmart in
â Ŀ
Ġal ign
à¦¯à¦Łà¦ķ à¦¬
Ġprocess or
erb ros
j k
Ġgam ing
Ġà¦¬à¦° à¦ĩ
Ġà¦¬à¦¹ à¦¨à¦¯
à¦¿à¦Ĥ ...
à§İ à¦®
à¦°à¦£ à¦¨
Ġsh y
Ġp iss
Ġc lash
à¦Ł à¦ªà¦£
Ġsh ams
Ġb ike
Ġ4 000
Ġinclud ed
Ġà¦ıà¦® à¦Ĩà¦°à¦Ĩà¦ĩ
àµ Ĥ
Ù ±ÙĦ
Ġpl ug
ÐµÐ»Ð°ÑĢÑĥ ÑģÐºÐ°Ñı
Ġjo h
à§Ģ &
Ġà¦§ à¦¨à¦Ł
Ġy er
Ġam oxicillin
Ġï´ ¾
à§ĭ !!
Ġse k
Ġà¦ĺà¦¨ à¦ĺà¦Ł
33 9
e ction
à¦Ĺ à¦Ĩ
Ġse at
Ġb ottom
ro ot
Ġreve aled
Ġun hidewhenused
33 8
à¦¦à¦¨ à§°
et ime
Ġsp ring
Ġh ob
Ġd ow
à¦¿ !!!
Ġà¦Ĺ à¦¤à¦®
Ġe u
Ġ15 4
ed itor
e es
Ġcalif ornia
Ġc atch
th i
Ġwor ship
u in
à¦¶ à¦°à¦£
à§ĩ *
Ġà¦ı à¦°à¦®
à¦ī à¦ĩà¦¡
Ġe ating
ult ural
37 4
à¦¹ à¦²à¦¬
Ġwh atever
02 8
Ġsk ills
Ġ è
Ġà¦ĵà¦ĩ à¦Ń
Ġ15 9
Ġwas h
à¦īà¦ľ à¦°
Ġ18 6
39 8
Ġarr ay
Ġc aa
Ġenc ounter
à§° à¦ªà¦¤
Ġà¦ıà¦® à¦Ĩà¦ĩà¦Ł
Ġthom as
Ġà¦Ĩà¦ĩ à¦ĵà¦Ł
à¦¡ à¦ļ
à¦¤ à¦¸à¦¨
Ġstr ug
ĠâĢľ ...
d at
f p
15 00
ing ton
Ġsc iences
Ġweb log
y i
ing u
ext ernal
ger man
Ġà§§à§¯ à§¦à§Ń
mus lim
à¦§ à¦¹à¦¸
36 8
Ġm itra
Ġemp ire
Ġsqu ir
à¦ĵ à¦ł
Ġà§§à§¯ à§¦à§ª
Ġà§©à§« à§¯
à¦Ĩ à¦ľà¦®
Ġ( $
Ġpl s
à¦ī à¦ªà¦¯
Ġj sc
t uber
es y
à¤ ŀ
des ign
ewhere in
à¦Ľ à¦Ń
Ġaddition al
Ġguard ian
Ġdiam ond
x mlhttp
ĠâĨ ĵ
Ġpro of
j essore
Ġà¦¯ à§İà¦¸
Ġor din
Ġl ite
Ġcall s
à¦¨ à¦ħà¦¨à¦²
in er
s vg
à¦°à¦ķ à¦ª
Ġà¦ĩà¦² à¦¹
has an
Ġrash id
Ġp ir
à¦¸à¦«à¦Ł à¦ĵà¦¯
à§° à¦¸à¦®
à¦¸à¦¹ à¦¸
ha ck
Ġdo inik
15 2
Ġchamp ion
à¦ª à¦ł
Ġmom s
Ġth read
ent ai
bar i
k on
o il
Ġan th
Ġbo ot
Ġill ustr
ch annel
à° ķ
à§ĩ Â¬
Ġsm ile
c ash
à¦® à¦¹à¦®
à¦¥ à¦¬à¦°
Ġà¦ıà¦° à¦°
Ġse qu
":" \
Ġ ________________
Ġde y
Ġaff ili
Ġà¤ ı
28 2
Ġb bd
Ġwho se
Ġm ary
à¦¬à¦¸ à¦Ń
Ġà¦ªà¦¡ à¦ķ
Ġoffer ed
Ġs as
Ġà¦°à¦Ļ à¦Ł
io logy
Ġwarn ing
35 5
Ġprim o
à¦ļ à¦¬à¦°
à¦ħà¦ª à¦¹à¦°à¦£
valid email
à¦¸ à¦Ĭà¦¦
Ġv m
Ġà¦¦à¦² à¦Ľ
........ .....
à¦¸ à¦¦à¦¨
àµ ¼
Ġa verage
islam ic
Ġà¦īà¦ª à¦¢
Ġsp r
à¦® à¦¤à¦¨
Ġn ath
id hara
ÑĤ Ð°
Ġalp ha
ust er
Ġkore n
Ġpan u
Ġ18 8
à¦¬à¦¨ à¦Ĺ
à§ĩ) :
Ġkich u
Ġbuy ing
Ġet a
Ġste ps
Ġrecru itment
3 27
Ġà¦¨ à¦¨à¦¸
à§§à§¨ à§§
ver se
!!!!!!!!!!!!!!!! !!!!!!!!!!!!!!!!
Ġà§©à§« à§¬
3 47
à¦ľ à¦ħà¦°
à¦¸à¦² à¦ĸ
Ġarticle à¦²
Ġj ess
Ġà¦¬ à¦¹à¦²
à¦®à¦ĺ à¦£
Ġp ull
Ġà¦Ĩà¦ĩ à¦ªà¦¡
Ġ$('# '+
n agar
off er
comp uter
ÑĢÐ¿ ÑģÐºÐ¸
20 01
Ġgr ade
ĠØ¬Ø² Ø§Ùĥ
Ġt ong
Ġà¦Łà¦² à¦®à¦²
áĢ Ļ
×ĳ×¨ ×Ļ×ª
Ġb f
Ġj ail
!!!! !!!
Ġq ur
Ġve hic
Ġod m
Ġdaw n
à¦°à¦« à¦Ł
Ġaf ghan
à© ĩ
r ata
Ġcl ient
à¦ĩ à¦ĵà¦°
Ġed u
Ġart ist
Ã£ o
im ming
ord in
Ġcoup on
Ġcatag ory
d ctable
k ish
ac le
à¦¤à¦° à¦¸à¦¹
à¦°à¦Ĺ à¦¡
ver y
te am
Ġprov ides
à¦Ł à¦¥
Ġth ro
Ġà§ª à§§à§®
Ġadvert ise
ch or
Ġà¦Ŀà¦¨ à¦Ŀà¦¨
à¦ļ à¦°à¦¨
Ġd op
à¦®à¦¸ à¦°
feb ruary
Ġapost le
em ic
Ġà§§à§Ń à§«à§Ń
sh ed
Ġsh i
Ø§Ø ®
Ġn er
Ġd or
Ġk ate
Ġam ateur
Ġà¦¨ à¦¥à¦ķ
Ġs amp
Ġà§Ń à§©à§¦
Ġis validemail
Ġmet al
Ġbrow se
Ġkill ing
à¦¹à¦° à¦ĩ
Ġdis ap
Ġchud ir
w all
Ġb ureau
Ġâī ¥
Ġpen is
Ö °
Ġph ilip
net work
2 29
Ġra i
Ġà¦¶à¦ªà¦¥ à¦¬
Ġmag n
answ ers
å ħ
s ah
à¦° à¦Ĺà¦°
à¦ī à¦¬à¦²
og rabani
- ,
ra ful
cont ribut
m k
à¦£à¦Ĺ à¦¹
Ġajker ograbani
Â ¢
à¦ĥ ),
Ġk arnataka
à¦ķà¦°à¦£ à¦Ĺ
Ġà¦Ĩà¦ĩà¦ĵ à¦ıà¦®
à¦Ĩ à¦«à¦¤
Ġà¦¤à¦« à¦¶
Ġà§ª à§¨à§Ń
================ ================
Ġr ural
Â¡ à¦¾
n orsk
Ġà¦ĵà¦ł à¦¤
Ġak ta
Ġexc ited
Ġk no
com ple
ivers ary
Ġfair y
p ages
por ary
Ġrece ive
Ġà¦ī à¦¥à¦²
ic ip
î Ħ
Ġk ay
mph ony
Ġde fault
j apan
........ ......
r um
Ġà¦¬à¦° à¦ª
ĠÙĪ ÙĦ
Ġre mark
Ġe g
Ġà¦¹ à¦°à¦¦
Ġstr ike
Ġaccount s
p k
Ġc is
Ġfr ank
Ġv oy
Ġblu etooth
Ġz ia
âĸ Ī
Õ °
Ġà¦Ń à¦¬à¦¤
à¦¬à¦° à¦°
à¦¸à¦¨ à§°
Ġal f
à¦¹ à¦¡
Ġmaterial s
à¦¦ à¦°à¦¦
2 17
ä »
à§§à§¯à§® à§§
à¦ļ à¦ĵà¦¯
Ġà¦¨ à¦°à¦¨
vent ion
à¦īà¦ľ à¦¸
Ġ2 15
Ġprogram s
Ġlic ense
m el
er ia
Ġà§ª à§ªà§«
kh ari
Ġà¦Ńà¦Ĺ à¦¬à¦¤
à¦ı à¦ķà¦°
à¦« à¦Ĺ
la x
à¦ķà¦® à¦ª
Ð» Ð¸
Ġker ala
à§§à§¨ à§¨
Ġbu j
bas ed
à¦° à¦¥à¦²
Ġ; )
Ġsy mbol
f urn
4 10
Ġà§ª à§§à§Ń
ÙĪØ± Ø©
un ivers
Ġarab ic
Ġà§©à§« à§¨
Ġcondition s
33 7
dw an
Ġtrend s
Ġà¦ĵ à¦®à¦¨
Ġj ump
38 9
Ġà¦ıà¦² à¦Ń
Ġà¦ľà¦¨ à¦¯
Ġà§« à§«à§«
Ø± Ø¶
c g
46 7
Ġà¦ĺ à¦¨à¦ķ
à¦§à¦¨ à¦¸à¦¹
un ited
Ġwith dra
v u
à¦ľ à¦¬à¦¸
à¦§à¦¨ à¦Ł
udd en
b our
Ġd ong
Ġper mission
dig ital
d ol
áĥĲáĥ łáĥ
à§§à§ª à§Ń
Ġbudd y
g old
Ġà§ªà§¦ à§§
Ġcut ie
ut o
Ġà¦ıà¦ĩ à¦¸
Ġha ha
Ġ14 2
à¦² à¦ļà¦¤
Ø§ Ø«
Ġà§ª à§§à§«
key word
à¦Ł à¦ľà¦¨à¦¦
à¦¸ à¦ľà¦²
99 5
Ġv ice
Ġ3 70
ÑģÐº Ð¾
Ġtum i
% !
Ġ17 7
Ġht g
bo ss
bang lat
Ġà§©à§¬ à§ª
67 12
[ ]+
à¦ĸ à¦¢
à¦¤à¦ķ à¦¨
ent ertainment
Ġ19 9
m om
à¦¬à¦² à¦¹
Ġà¦Ĺà¦¨ à¦ª
aug ust
Ġchalleng e
Ùİ .
lo per
Ġà¦ķà¦® à¦¡
am eric
ph ere
Ġits elf
à¦· à¦Ĺà¦£
Ġà¦ıà¦® à¦ĵ
à¦ļà¦² à¦¸à¦®
Ùģ Ø§Ø±Ø³ÛĮ
Ġra z
Ðµ Ðº
Ġpre c
Ġà¦īà¦ĩà¦¨ à¦¸
x e
Ġà¦ĸà¦¬à¦° à¦¬
el er
Ġex pected
à¦¦ à¦¤à¦°
Ġà¦ļ à¦²à¦ķ
Ġe gypt
Ġsub st
ĠÙ±ÙĦ ÙĦ
Ġà¦ķ à¦²à¦¤
Ġt nd
onym ous
c ad
Ġà¦¦à¦® à¦¬à¦¨
Ġ é
Ġà¦ķ à¦²à¦¬
Ġt ex
Ġsh ang
à§ĭ! âĢĻ
à¦ķà¦² à§°
Ġà§§à§¯ à§¦à§©
36 7
Ġà§§à§®à§® à§¬
à¦² à¦·
à¦ĵ à¦°à¦¬
ir k
à§§à§¨ à§¬
Ġà¦īà¦¦ à¦¦
Ġà¦ıà¦ĩà¦ļ à¦¬
Ġf al
Ġà¦ķà¦² à¦Ł
Ġrat ings
om iya
Ġre nd
55 5
Ġcandid ates
Ġà¦ķà¦¥ à¦ķ
Ġvis ual
p ick
Ġid r
Ġgang uly
4 01
à¦ĩ à¦ªà¦¸
âĢ ķ
à¦¸à¦° à¦ŀ
aj it
Ġà§¬à§® à§¦
Ð± ÐµÐ»Ð°ÑĢÑĥÑģÐºÐ°Ñı
r ik
Ġà§©à§Ń à§§
=' +
Ġimpro ve
Ġsem i
à§§à§¨ à§¯
Ġraj ib
comple te
Ġ4 80
Ġà¦ıà¦¨ à¦ıà¦Ń
Ġrout ine
ewherein blog
00 2
à§§à§¯ à§¬à§¯
Ġgr ant
Ġxxx x
à¦Ľ à¦ķà¦ĩ
à¦ł à¦ľà¦¨
Ġjam al
à¦¤ à§İ
à¦§ à¦«
Ġà¦Ľ à¦Ĺ
Ġcal cul
Ġà¦¸ à¦¸à¦®
Ġà¦¥à¦° à¦¥à¦°
à¦Ł à¦Ĩà¦°
Ġà§¬ à§¨à§«
Ġ) :
Ġre za
à§ĩ? '
ab and
Ġbengal uru
Ñ Ħ
Ġà¦ī à¦ĩà¦¡
Ġg ain
Ġà¦ıà¦ĩ à¦®à¦¸
Ġà¦Ĩà¦¬ à¦ķ
Ġd iy
Ġj abe
à¦ıà¦¸à¦ĩ à¦ıà¦¸
Ġsk u
Ġgreat er
Ġve get
à¦§ à¦°à¦¤
Ġmeher pur
e qu
Ġ14 1
Ġfin ished
à¦¦à¦¨ à¦¸à¦¹
Ġsqu are
à¦¼à¥¤ ''
Ġ16 7
Ġved io
à¦¿ Â»
à¦¨ buy
Ġà¦ļ à¦ļ
Ġh unt
vi et
Ġblog ging
Ġà§ªà§¯ à§¯
j uly
à¦¾, âĢĿ
Ġin nov
Ġl uc
à¦¤ à¦ªà¦¤
Ġà¦ĵà¦ł à¦¬
de fault
Ġbl ind
à§İ à¦¡
à¦¤à¦ķ à¦¥
à¦¨ à¦°à¦®
à¦¿- -
Ġkah ani
4 08
t ur
Ġh uf
Ġmiss ing
Ġcandid ate
à¦¶à¦¦ à¦Ń
Ġ ____
)à¥¤ [
Ġhelp line
c ase
or al
Ġl ift
Ġà¦ľ à¦®à¦²
Ġam p
Ð² Ð¾
Ġstrateg y
? -
Ġà¦®à¦¨ à¦ĸ
à§§à§¯ à§ªà§Ń
Ġ19 70
Ġ16 9
Ġph ase
Ġfac ing
à¦¦à¦¨ à¦ĩ
Ġth ik
à¦Ĩà¦ĩ à¦Ĩà¦ĩ
à¦ıà¦¸à¦ıà¦¨ à¦ıà¦²
l g
Ġà¦® à¦ĸà¦²
à¦ĸ à¦²à¦¤
ĠÙ ¾
Ġengine er
- )
à¦· à¦¤à¦ķ
à¦ı à¦²à¦ķ
Ġsp lit
Ġpost ing
à¦®à¦¨ à¦¬
à§§à§ª à§«
Ġintellig ence
Ñ ķ
à§¨ à§¨à§¦
Ġd anger
ang ir
Ġz en
Ġcre ation
Ġbegin ning
Ġà§« à§¨à§©
Ġà§§à§® à§¯à§¯
Ġpass ion
Ġcorn er
Ġchar les
Ġcons um
h ur
Ġla y
be la
Ġsum on
desh i
ob ox
67 9
Ġpsy ch
Ġà¦Ĩà¦¨ à¦ª
Ġc od
Ġme at
. *
à¦¨ à¦¸à¦ª
Ġà¦ĺ à¦¸
Ġjam mu
Ġcelebrit y
z b
Ġrabind ranath
£ áĥ
Ï Ģ
02 9
n oun
Ġkana ighat
Ġâľ ª
ĠâĢł _âĢ¡
à§° à¦¥
Ġg os
log in
Ġ19 5
Ġà§©à§« à§©
4 09
c ement
d ip
à¦¼à¦¾à¦Ĥ ,
Ġcr c
Ġagre ement
f inger
Ġà¦ĵà¦ł à¦²
Ġà¦ħ à¦ªà¦¨
à¦°à¦ľà¦¨ à¦¨à¦ķ
4 50
¢ Ù
à¦ķà¦ľà¦¨ à¦ĩ
à¦ĸ à¦¬à¦¨
Ø¹ Ùħ
37 7
à¦¾ ",
Ġbro thers
Ġle one
36 9
Ġallow ed
à¦¶à¦¨ à¦¬
18 2
Ġ19 20
à® ļ
unt u
Ġtemper ature
re sh
à¦ļà¦¨ à¦¸à¦¹
Ġà¦Ĩà¦¨ à¦®
Ġes c
3 000
Ġ ere
à¦Ĩ à¦¹à¦²
âĢĻ )
Ġ20 21
Ġpro sh
ich itra
Ġdon ald
à¦¤ à¦Ľà¦¡
ify ing
f ac
Ġn ucle
Ġà¦ķà¦² à¦Ĺ
Ġinclud es
âĢ²âĢ²,âĢĿ \
à¦¸à¦ıà¦¨ à¦ıà¦®
[]+ !!
Ġa kh
Ġpublic ation
Ġà¦¯ à¦°
Ġ3 30
ÙĬ Ø²
Ġà§©à§¬ à§§
Ġu i
à¦ĩà¦ľ à¦ĵ
Ġà§©à§® à§¬
à§İ à¦ªà¦¦
27 0
Ġexerc ise
à¦¬à¦² à¦¦
Ï ĥ
Ö ·
is y
for ce
over lay
Ġdh on
ee e
Ġà§ªà§Ń à§«
b orn
à§§à§© à§®
Ġ15 2
Ġcon vert
Ġjun ior
à¦¬à¦¨ à¦Ńà¦°
Ġà§ª à§§à§¬
Ġà¦ıà¦® à¦ıà¦¸à¦¸
Ġeb ony
à¦ª à¦Ľà¦¨
Ġx i
m Ã¥
à¦® à¦ľà¦¨
à¦Ń à¦ľà¦¨
Ġj en
à¦°à¦¸ à¦¸
Ġu kh
Ġhe at
.- .-
à¦¯ à¦¦à¦°
à¦Ĩ à¦§à¦Ł
Ġz ero
à§§à§¯ à§¦
ĠðŁĳ ī
/ )
Ġ: ))
ch it
ff ff
t z
Ġu b
Ġchick en
à¦ĵ à¦ıà¦ĩà¦ļà¦ıà¦¸
Ġà¦ħ à¦ľà¦¨
Ġh q
tic s
Ġsh irt
à¦¬à¦° à¦¸
sh okal
Ġcart oon
Ġaltern ative
à¦¦à¦² à¦ĩ
Ġass ign
ãĥ¼ ãĥ
, (
Ġà¦Ĩà¦ª à¦¦à¦ķ
39 6
Ġarch ite
Ġbr ill
Äį in
Ġt ik
x l
Ġad vis
65 7
Ġà¦¬à¦ĸ à¦¶
Ġlight ning
Ġh ussain
Ġà¦ĸà¦°à¦ļ à¦Ł
37 6
Ġbro ker
w at
Ġpun ish
Ã ¹
Ġ ê
à¦°à¦ª à¦¦
38 5
Ġbi har
Ġd eng
Ġw ins
Ġà§©à§¬ à§¨
Ġac id
x b
Ġà¦°à¦ķ à¦¸
Ġalle ged
Ġs ara
Ġv ids
Ġattack s
Ġà¦¦ à§°à¦ķ
Ġbe comes
à¦¨ à¦Ĺà¦¨
end u
Ġworld wide
Ġaz ad
Ġaj k
Ġà¦¦ à¦Ļ
ĠðŁ Į
à¦¤ à§İà¦ķ
Ġà¦ħ à¦ķà¦Ł
is c
Ġ16 1
Ġgram mar
press ion
Ġmess ages
phot ography
Ġkal om
ÙĩÙħ Ø§
Ġa im
Ġà¦Ĩà¦¦ à¦®à¦ª
Ġval ley
ļ Ħ
ur ch
Ġind eed
ii ii
ra cial
Ġ-- >
Ġà¦ľ à¦ľà¦ķ
à§ĭà¦ĥ -
Ø§ÙĦ Ùħ
47 5
Ġs itting
Ġst rap
ak im
de g
à§¦ à§§à§¦
à§Ĥ à§Ĥ
sq rt
Ú ¾
Ġ2 12
fr an
\ '
Ġà¦ıà¦¨ à¦Ĩà¦°à¦ıà¦¸
ch em
Ġt af
à¦Ŀ à¦ŀ
Ġà§©à§¯ à§«
cyc line
à¦¤ à¦ļà¦²
j id
Ġv ag
à¦Ĺà¦£ à¦ĵ
à¦«à¦¤ à¦°à¦ķ
ul s
r ich
Ġà§§à§® à§¯à§Ń
Ġke pt
Ġak ter
Ġà¦ıà¦¬à¦Ľà¦° à¦ĵ
Ġà¦§à¦° à¦¨à¦Ł
sum mary
pt ion
war p
Ġou tput
, _
à¦°à¦ª à¦Ł
à¦Ńà¦¬ à¦ĵ
à¦¿? "
à¸ §
Ġp il
à§§à§¨ à§ª
Ġnot es
Ġhigh light
Ġr t
Ġex port
Ġsearch ing
à¦¤ à¦·
Ġà§ª à§ªà§¬
Ġad am
Ġann iversary
Ġà§Ń à§¦à§¦à§¦
m oney
ab h
à¦ĩà¦« à¦ķ
Ġany way
play er
âĸ ¬
remove attr
Ġà§ª à§©à§«
ch er
Ġmy st
à§§à§¨ à§Ń
à¦ł à¦ĵ
35 9
ad av
ĠÏ Ĩ
Ġcon fig
Ġav oid
à¦Ĩ à¦®à¦¦
à¦Ĩ à¦¬à¦¹
Ġd ust
Ġf oy
Ġplay s
Ġchud ai
Ġsa udi
Ġbh d
Ġm oti
à§Ģà¥¤ [
Ġl ie
à¦ıà¦ĸà¦¨ à¦ĩ
Ġat n
à¦® à¦¦à¦¨
Ġm es
à¦ļ à¦ķà¦¤
Ġà¦ĸ à¦ĩ
oo o
Ġreal ize
Ġko th
Ġpot ential
Ġcoo per
m uk
Ġ ................................................................
Ø§ÙĨ ÙĬ
Ġresident ial
adh in
Ġà¦ī à¦Ńà¦¤
en er
Ġbe gan
67 6
u h
à¦ĩà¦ī à¦ıà¦¸
Ġà¦²à¦ĸà¦¨ à¦ī
Ġdemoc racy
s loven
la im
à¦Ĺà¦łà¦¨ à¦¸à¦¹
à¦ıà¦ĩ à¦ļà¦ķ
26 1
Ġïģ ¬
Ġà¦¦à¦¶ à¦¬
ÙĪ ØŃ
Ġ26 0
a Ãł
Ġà®ķ à®¤
à§ĭ âĢĻ-
Ġ16 6
ĠâĢĶ âĢĵ
Ġà§¨ à§¨à§¦à§¦
Ġà¦Ĩà¦° à¦¬à¦°
if er
ill er
Ġear lier
à¦« à¦ľà¦²
Ġv r
all ive
Ġz ahid
Ġdes er
Ġcl p
Ġhigh ly
à¦ī à¦§
Ġà¦ıà¦ķ à¦ĺà¦£
à§° à¦ĸ
ig o
ØŃ ÙĬØŃ
ha ps
à¦Ĩà¦ĩà¦¨ à¦ľ
Ġà¦ħ à¦Ĺà¦®
4 99
Ġs udden
Ġ4 20
Ġbar is
Ġval id
what s
r ical
Ġann ual
á¹ £
dec ember
Ġà¦¤ à¦°à¦¤à¦°
Ġdhak ar
å ¤
os a
Ġan and
Ġà¦ķà¦· à¦Ľ
35 6
Ġ01 8
Ġà¨ ª
Ġà¦ħ à¦Ĺà¦¨
à¦°à¦¹ à¦¤
à¦¶à¦° à§İ
Ġquick ly
vens ka
à§§à§¯ à§Ńà§¯
Ġhel ps
Ġà§ª à§¨à§©
Ġto l
he en
Ġj as
ill ing
Ġbok mÃ¥
p ars
à¦ĸ à¦ľ
à¦ĸà¦ķ à¦Ĺà¦£
Ġspe aking
Ġaccur ate
Ġn io
à¦ıà¦® à¦ıà¦¨
ens ions
Ġà¦ĵ à¦ľà¦°
âĢĻ (
Ġins ert
à¦ĩà¦® à¦«
Ġbir d
th en
ĠÙĥ ÙĦ
ãģ Ļ
Ġphot ograph
Ġà¦ıà¦Ń à¦°
Ġso hel
Ùģ Ø³
') [
Ġà¦Ĩ à¦£
Ġsh ongbad
Ġà¦¸à¦«à¦² à¦ĵ
à¦ĵ à¦Ĩà¦ĩà¦¸
Ġà§¬ à§¦à§¬
Ġà¦Ĩà¦¹ à¦¯
som ewhereinblog
à§§à§¯ à§Ńà§®
Ġpar i
4 20
Ġà¦Ĺ à¦Ł
Ġà¦°à¦¹à¦®à¦¤ à¦īà¦²
ib ul
78 6
Ġà¦¸à§İ à¦®
bl ing
Ġedit ing
Ġf ra
Ġà¦ļ à¦¨à¦®à¦¨
Ġtub es
à§§à§¯ à§Ńà§Ń
à³ ģ
p w
à¦·à¦£ à¦¸à¦®
à§ģ âĢĶ
Ġà¦¸à¦¹ à¦Ĺ
r ant
à¦ļà¦¨ à¦®
à¦¨ à¦Ĩà¦¯
à¦Ń à¦Ĺà¦¬
Ġ28 0
n as
Ġco ast
Ġà¤µ à¤°
à¦¸à¦ıà¦¨à¦ıà¦® à¦ıà¦®à¦ıà¦ķ
à¦ı à¦°à¦ĵ
Ġ01 9
e u
i ant
à¦ĵ à§°
Ġ19 94
Ġor al
27 3
Ġultim ate
Ġpur ifier
Ġwish es
Õ¡Õ µ
à¦£ à¦£
Ġm ira
à§İ à¦¹
à¦¯ à¦Ľà¦ķ
ab ul
Ġpl ans
26 3
48 9
=" "
a o
à¦ıà¦ĩ à¦¸à¦¬
Ġdo ctors
Ġboo st
08 0
Ġcl oud
Ġcount y
â ĭ
wn j
à¦§ à¦®à¦¯
âĢĺ âĢĺ
ban ner
Ġsham ol
oct ober
Ì ²
Ġà¦°à¦¤à¦¨ à¦ª
à¦¾à¥¤ -
le ge
à¦®à¦ķ à¦®
Ġà¦®à¦¨ à¦ĵ
à´ ¶
for ms
47 7
Ġsr ps
Ġjack son
à¦°à¦¶ à¦ª
à¦¨à¦ķ à¦¨
ub a
Ġcont ain
ĠâĿ ı
t emp
se ys
Ġ18 3
à§ªà§« à§¬
Ġnah idsultan
ap h
Ġà¦Ĩà¦« à¦¨
à¦¬à¦¨ à¦Ń
Ġpub er
in form
Ġcontro vers
( -
à¦ļà¦² à¦°à¦¤
Ġà¦ľà¦¨à¦Ĺà¦£ à¦ĵ
à¦Ĩà¦²à¦® à¦Ĺ
n v
Ġf old
Ġà¦Ĺà¦£ à¦ľà¦®
à¦Ĩ à¦¸à¦®
Ø§ÙĦ Ø§
Ġalert news
d rop
à¦ª à¦£à¦¤
à¦ŀ à¦ķ
à§¨à§ª à§¦
az i
ĠðŁ İ
Ġïĥ ĺ
Ì ĩ
à§ĩà¥¤ *
Ġsuccess ful
Ġà¤ªà¤¹ à¤²
se ptember
45 9
Ġevery day
Ġj y
Ġà§¨ 5
Ġà¦¸à¦® à¦ħà¦§
à¦Łà¦¨ à¦¸
à¦ķà¦ĸà¦¨ à¦ĵ
m ach
à¦¨à¦¬ à¦ķà¦£
Ġch art
Ġà¦¢ à¦ķ
Ġn ine
Ġb wp
Ġd zd
Ġinform ative
ĠîĢ ĩ
Ġd dr
Ġo sc
45 8
Ġsecond ary
ãĤ ĭ
c up
Ġm k
Ġl g
ĠÂ §
à¦²à¦Ł à¦²
w ap
à¦ĥ ...
Ġa in
à¦ıà¦¨ à¦Ĩà¦ĩà¦¡
Ø± Ùħ
à¦ıà¦¸à¦ıà¦² à¦Ĩà¦°
dar pan
01 2
th eless
ãģ Ł
Ġenter pr
Ġà¦ıà¦®à¦ıà¦² à¦ıà¦®
à§¨ à§©à§¦
Ġà¦¦à¦² à¦¸à¦¹
à¦ĩà¦Ł à¦²
Ġin itial
Ġà¦¨à¦Ĺ à§°
ast y
Ġpot ter
Ġà¦ıà¦¬ à¦¤
à¦° à¦ĩà¦¨
Ġd istance
Ġannounc ed
u q
à¦¯ à¦§à¦°
Ġà¦ı à¦¹à¦¨
Ġh il
Ġf c
Ġre n
Ġà¦īà§İ à¦ķà¦Ł
Û ļ
Ġb oro
st ream
ct v
b jp
Ġc ve
Ġclaim s
Ġà¦Ń à¦·
37 0
b ow
à¦¤à¦¨ à¦ľà¦¨
est ic
Ġhab iganj
à¦¬à¦ľà¦¨ à¦¬
Ġlou is
Ġà¦Ĩà¦® à¦ª
Ġà¦ķà¦® à¦²à¦ķ
Ġà¦¸à¦¹ à¦ľà¦¸
Ġà´ ¨
à¦°à¦¬à¦£ à¦¶à¦ķ
Ġpolic ies
à¦°à¦¬ à¦ļà¦¨
Ġnot ification
ĠÙĥ ØªØ§Ø¨
leg raph
writ e
Ġà¦ı à¦ıà¦¸à¦Ł
Ġà¦¹ à¦Łà¦¤
à¦¼à§ĩ '
à¦¸à¦° à¦Ł
ĠÙĪ Øª
Ġprov iding
Ġà¦¸ à§İà¦¸
Ġe astern
Ġbaris allive
à¦¤ à¦¬à¦¨
Ġl it
ha z
à¦¡à¦² à¦«
âĢ ¹
Ġas y
Ġshuv o
à¦ķà¦¶à¦¨ à¦Ł
à§¬ à§«à§¦
ne o
66 6
ad v
Ġà§§à§® à§®à§¦
27 4
2018 02
à¦·à¦¦ à§°
à§ªà§¯ à§¦
d ik
Ġà§«à§¦ à§§
ãģ ª
pak istan
c od
ah e
Ġ.: .
à¦¤à¦¸ à¦ĩ
Ġre asons
sh ine
Ġet b
à§§à§© à§¨
Ġne igh
47 6
Ġfac ial
Ġà¦Ĩà¦® à¦ļ
Ġà§© à§ªà§©
Ġà§¯ à§«à§«
35 2
Ġn an
Ġf lex
Ġas p
Ġà§Ńà§® à§¬
Ġthrough out
Ġinc ident
b at
Ġul tra
d ers
à¦ľ à¦®à¦ķ
is er
Ġn ip
Ġn oyon
Ġpl n
Ġb gn
37 8
Ġsam ay
à¦ıà¦¨ à¦ıà¦ķ
Ġà¦ıà¦ľ à¦¹
Ġwe ar
Ġgb news
Ġnotun shokal
tr an
Ġwe ak
à¦® à¦īà¦²
à§İ à¦²
Ġd ude
j er
Ġs ick
Ġg ig
Ġà¦Ĩà¦ĩ à¦ĩà¦¬
Ġ20 5
à§§à§© à§¯
Ġtarget ing
à¦« à§°
Ġk ath
Ġj es
à¦¼à¦ĥ -
Ġkaz ir
Ġin no
Ġeven ing
r x
à¦¾ à§Ģ
à¦¯à¦¬ à¦ļ
italiano æĹ¥æľ¬èªŀ
Ġp ip
à¦® à¦Ĩ
ri ble
Ġà¦Ĩà¦Ł à¦¬
Å Ĥ
à¦¨à¦¬ à¦Ľà¦°
Ġan war
à¦¼à§ĩ à¦Ĥ
à¸ ļ
Ġà¦¬à¦¦ à¦Ń
Ġcol ors
88 8
arg a
Ġ( âĢľ
à¦¯à¦° à¦ļà¦¨
Â¦ âĢ¢
à¦ħ à§°
a ust
à¦¨ à¦¨à¦ķ
à¦¬à¦¨ à¦ļà¦°
à¦ħà¦¤ à¦ıà¦¬
Ġspe aker
Ġinvest igation
Ġà¦«à¦¤ à¦ĵà¦¯
4 11
à¦ı à¦¤à¦¦
Ġs ap
Ġà§©à§® à§«
ç ļĦ
à§° à¦ļà¦²
Ġdraw ing
c ular
Ġtim enewsbd
creat or
à¦¨ à¦®à¦ķ
à¦Ł à¦°à¦¸à¦¹
Ġch ol
is i
t es
on om
Ġà¦Ĩà¦° à¦ıà¦®à¦ª
Ġjust ify
Ġà¦ĩà¦¨ à¦²
46 6
Ġsp am
Ġnow à¦¯
Ġmeas ures
Ġb t
Ġk in
à¦¸à¦® à¦£
à¦ı à¦ĩà¦¬
Ġin fin
il der
Ġfor got
Ġà§©à§® à§ª
pri ate
Ġà¦ªà¦° à¦ļ
Ġre sc
49 0
Ġà¦¸à¦® à¦®à¦°
ip ro
65 6
à§¦à§¦ à§§
Ġman ik
Ġà§«à§¯ à§¦
à¦Ļ à¦£
Ġread ers
= $
am al
Ġch est
x im
Ġà¦ħà¦« à¦¶
Ġe gg
Ġz aman
à¦¾... -
contribut or
g if
Ġbed room
Ġà¦ķà¦® à¦«
à¦ľà¦¸ à¦ªà¦¤
Ġne ck
Ġgood s
Ġaz n
op a
à§§à§¬ à§«
Ġide al
Ġp ill
Ġà¦ıà¦¨ à¦ĵà¦¸
à¦° à¦Ŀà¦¡
à§ĭ à¦¾
à¤° à¤¤
ãģ ¨
Ġà¦¸ à¦ĩà¦¯
à§Ģ âĢĻ-
à¦¿, âĢĿ
Ġf s
Ġ19 8
Ġà¦Ĩà¦® à¦ķ
Ġà§© à§ªà§ª
Ġà¦ªà¦ª à¦ķà¦°
Ġabd ur
st ories
Ġà¦ıà¦¤ à¦¥
Ġr andom
Ġ18 9
Ġà¦ľ à¦£
Ġb md
Ġà§ª à§¨à§¬
à¦°à¦¤ Åĵ
Ġà¦Ľ à¦ĵà¦¯
Ġj ib
Ġcrit ical
Ġearn ing
à¦¿... à¥¤
Ġà¦ĩ à¦ªà¦¸
Ġà§§à§® à§¯à§®
à¦¾âĢĻ âĢĻ
Ġby n
Ġ{ (
à¦ŀ à¦Ĺà¦£
gr ade
à§ģ à§ĥ
Ġi ps
39 5
Ġelect ronic
Ġenc our
Ġà¦ħ à¦¸à¦²
Ġà¦ī à¦ĩà¦¶
Ġshamol bangla
? ...
Ġà¦² à¦ĩà¦²
ir an
Øµ ÙĦ
Ġoper ating
à§§à§ª à§¯
Ġ25 5
Ġsah ih
Ġstor age
x hamster
Ġà¦Ĩà¦ĩ à¦Ĩà¦°
the y
Ġsw adesh
à§ĩà¦ģ à§Ĺ
q j
à¦¾ );
ul ate
à§§à§¬ à§Ń
beaut y
Ġà§§à§¦ à§®à§¦
à§ģà¥¤ âĢĿ
uck ing
an im
à¯ ĩ
à¦ıà¦² à¦ıà¦¸
Ġs akal
Ġà§©à§® à§§
Ð¸ Ðµ
Ġà¦ĵ à¦Łà¦®
Ġg ps
Ġà¦¦à¦¶ à¦°à¦¥
Ġun iverse
Ġà´ ¦
ific ations
Ġ( ?)
Ġmeh edi
à¦¤ à¦ĺà¦¡
Ġb esh
Ġam ake
Ġim am
Ġcol our
Ġà§§à§®à§® à§«
ç Ķ
ĠØ§ Øª
Ġfr ame
à¦ıà¦ĩà¦ļ à¦ı
inst all
Ġident ity
ann ed
m iz
ent er
Ġrel ief
hoss ain
Ġà¦Ĩà¦ĩà¦¨ à¦¸à¦®
ob ang
48 3
## #
4 16
Õ¥ ÖĢ
à¦¸ à¦°à¦¸
à¦¸ à¦¤à¦¤
à§Į à¥¤
ob ject
Ġra ce
Ġed ward
Ġà¦¤ à¦®à¦²
à¦Ľ à¦§à¦°
Ġh ua
à¦¸à¦¨ à¦Ń
Ġà¦¨à¦¬ à¦Ĺ
à¦¶ à¦°à¦ķ
à¦¤ à¦§à¦°
Ġpro s
Ġ19 3
Ġà¦¬à¦¦à¦° à¦ĸ
ľ ĺ
à¦¨à¦® à¦§
Ġport able
w omen
Ġm j
Ġn umer
ed uration
Ġl ux
ãģ ¯
b news
k umar
Ġà¦ĩ à¦ĸà¦ĵà¦¯
un i
à¦°à¦° à¦ŀ
n ok
ical s
z w
à¦° à¦īà¦²
Ġà§® à§¦à§¦à§¦
Ġbes i
à´ ¹
Ġclos ed
Ġà§¦à§¦ à§¦à§¦
Ġres olution
Ġexp ensive
sub scribe
à¦ħ à¦ªà¦¸
à¦ªà¦¨ à¦ĺà¦°
Ġcomp ress
pars eduration
à¦Ĺà¦® à¦¸à¦¹
c ert
Ġf older
46 5
Ġà¦¤ à§İà¦ª
Ġra bb
29 3
Ġ100 00
sup port
Ġà¦¬à¦ĩ à¦ĸ
48 7
à¦Ł à¦ıà¦ĩ
Ġà¦ı à¦ľà¦¤
à¦ł à¦ĸà¦¡
à¦ĩà¦¦ à§°
Ġpr as
à¦¦ à¦°à¦¸à¦¹
Ġst orm
Ġà§©à§« à§®
à¦¸ à¦°à¦¬
Ġà§® à§¨à§¦
z wnj
Ġ18 7
Ġ18 00
Ġà§©à§« à§§
à¦°à¦£ à¦¸à¦®
Ġarticle à¦¢
sk ip
Ġpleas ed
Ġterror ist
igen ous
33 33
Ġà¤ª à¤°
h m
Ġ19 91
à¦¯à§İ à¦¬
Ġà§§à§®à§® à§¯
k t
h unt
Ġm ong
Ġre ward
Ġbo se
Ġram adan
Ġcreat ing
à¦¤ à§°à¦£
à¦ĩ à¦·
Ġà¦Ĩà¦ĩ à¦īà¦¬
Ġtom ar
Ġà¤° à¤¹
Ġà¦īà¦ª à¦²à¦Ń
Ġas omiya
à¤¾ ,
Ġà¦¸à¦® à¦¦
Ġà¦ıà¦¸ à¦Ń
ĠØ§ÙĦ Ø¸
pr ag
Ġs are
Ġshokal erkhobor
à¦¿ ÂŃ
à¦¥ à¦²à¦Ĺ
Ġn ish
Ġà¦ĭà¦£ à¦ªà¦¤
Ġbig xvideos
m ult
à¦¬à¦¨ à¦¶
à¦¯à¦® à¦ĵ
w ire
Ġà§ª à§ªà§®
à¦§à¦¨ à¦ĵ
Ġsu icide
77 7
:: :
Ġalex is
Ġp air
Ġp add
Ġtw d
Ġà§«à§Ń à§©
à¦ī à¦¤à¦²
Ġil s
Ġsark er
Ġsee k
à¦¤à¦® à¦¬
Ġon to
ail and
Ġà¤® à¤¹
Ġc ov
Ġch ris
46 9
girl s
ol in
Ġson ali
Ġà¦® à§°à¦®
Ġà¦ıà¦¤ à¦¦à¦¸
Ġà¦Ĺ à¦§
ov o
áĢ ¸
Ġbab a
à§ģ `
Ġm ik
Ġcon duct
Ġrestaur ant
à¦¥ à¦¨à¦¯
Ġc ny
Ġà§« à§¨à§¨
//// ////
ig a
Ġmunshig anj
à¦¯à¦ª à¦¥
à¦ħà¦ª à¦Ľà¦¨
Ġp dt
Ġestablish ed
Ġsc rew
à¥ «
m ember
z an
Ġj et
48 6
l ip
adi um
writ er
Ġà¦® à¦Ĺà¦¡
Ġà¦¸à¦® à¦ľ
Ġ3 10
Ġb ound
ed a
id ae
Ġà¦ħà§± à¦¦
spons ored
à¦ıà¦® à¦ıà¦¸à¦ıà¦¸
Ġreach ed
el ines
à¦¾âĢĻ :
44 5
Ġdol lar
n ia
Ġà¦ıà¦ĩ à¦ľ
Ġà§ªà§¦ à§«
Ġsha j
Ġà¦®à¦Īà¦¨ à¦īà¦¦
à¦ĺ à¦¤à¦°
à¦®à¦® à¦®à¦®
Ġrem ote
u el
à¦ĺ à¦ł
Ġà§©à§¯ à§§
Ġà§¬ à§¨à§ª
Ġà¦®à¦¶ à¦ķà¦°
Ġperson ally
Ġjug antor
Ġg ender
Ġj in
av a
Ġmun icip
Ġuttar a
f lat
Ġà¦¶ à¦Łà¦Ł
Ġc ir
vi x
Ġde vi
49 8
57 5
Ġà¦ĸ à¦ŀ
à¦° à¦²à¦ķ
à¦ıà¦« à¦ıà¦²
à¤¾ à¤ģ
28 3
Ġbdnews reviews
b lo
× Ĳ
Ġa str
à§§à§ª à§®
Ġrec over
Ġbank ing
Ġmarket s
Ġà¦¦ à¦§
Ġso lo
à§©à§© à§©
Ġpati ent
r er
à¦®à¦Ľ à¦®
Ġà¦Ĩà¦ĩ à¦ĩà¦īà¦¬
ok h
tra vel
Ġfel low
r uss
Ġe j
à¦¥à¦² à¦ªà¦¥
Ġà§©à§¬ à§©
c art
à¦°à¦® à¦²
Ġbrow sing
iv irus
Ġà§©à§¬ à§Ń
Ġn g
î ľĺ
Ġt et
Ġt iger
Ġà¦ĵà¦· à¦§
Ġà¦īà¦ĩà¦¥ à¦¡
aband hu
as ion
Ø¯ Ùħ
à§¨à§¦ à§¨
ãĤ ¹
al ia
Ġgad get
it age
à¦¸à¦ķ à¦¶
Ġ15 1
Ġz mw
Ġf ell
à¦¤à¦° à¦¸à¦®
à¦¬à¦ķ à¦¦à¦²
ay er
06 0
Ġà¦Ĩà¦° à¦¨
Ġexc el
Ġt ort
Ġb ug
Ġà§©à§Ń à§ª
à¦£ à¦ķà¦²
Ġan na
) &
Ġy ay
Ġà¦°à¦¤ Åĵ
Ġà¦¶à¦¹ à¦°à¦¸à¦¹
hum an
à§° à¦Ļ
3 87
c opy
Ġà¦® à¦Ľ
Ġà¦Ľ à¦ª
st ruct
ce le
' "à¥¤
Ġà§ª à§¨à§®
Ġj s
à¦¡ à¦¸à¦ķ
Ġl yn
Ġà¦ıà¦¡ à¦®à¦¨
Ġlaw yers
à§¦ à§§à§¯
st ep
à¦Ń à¦°à¦¨
tim enews
Ġà¦Ĩà¦¸ à¦«
al ex
Ġjo se
, âĢĶ
Ġz ee
Ġà¦§ à¦ķ
Ġà§ª à§§à§©
Ġà¦¸à¦¹à¦ľ à¦ª
Ġappe ars
Ġc p
Ġà§¯ à§¬à§¦
Ġ" à¥¤
Ġbhar at
3 23
Ġg iz
à¦ĸ à¦ľà¦¨à¦ķà¦Ń
Ġmed ium
uu uu
Ġp anty
ac c
49 5
Ġassoci ated
as ar
Ġadv ant
Ġpra kash
Ùı :
39 7
3 14
e lection
Ġà¦ľ à¦¤
ol one
Ġpro c
Ġà¦Ł à¦²à¦Łà¦²
Ġb ard
Ġc red
ĠØ§ÙĦ Ø§
Ġà¦®à¦ľ à¦¦
07 5
Ġredu ce
Ġcar ol
r m
ass y
lev ant
them es
; ">
st op
Ð¾ ÑĢ
à¦¥ à¦°à¦Ĺ
Ġà¦Ńà¦Ĺ à§±
× ľ
à¦¾âĢĻ !
up date
ĠØ¨ Ø¹Ø¯
ac ci
Ġcong rat
Ġbur dwan
Ġà§ª à§¨à§ª
ic ian
and o
Ø¬ Ø±
Ġcl ips
Ġ à§İ
Ġc lock
Ġaz iz
{{ {
Ġinvest ig
Ġà¦ª à¦²à¦¸
Ġà§ª à§¨à§¯
ri b
Ġ19 93
or on
Ġag ent
Ġ20 8
Ġset pin
Ġà¦¹à¦ľà¦® à¦¶à¦ķ
4 17
i ams
à§® à§«à§¦
à¦²à¦Ń à¦°
Ġfe els
Ġcol on
Ġc ort
Ġh nl
à¦°à¦¤ à¦Ł
Ġd han
à§§à§® à§«
à¸ ¥
à¤® à¤°
à´ ¡
Ġ18 2
ÛĮ ÙĨ
Å¡ ÃŃ
à§Ģ à¦¾
Ġà¦ī à¦Łà¦ķ
Ġc nn
Ġf ro
Ġbus y
Ġt mt
ever y
Ġmot ion
ederlands norsk
à§ģ à¦Ĥ-
re h
Ġ8 02
à¦ıà¦ķà¦¦ à¦®
Ġparad ise
e la
Ġwire less
j ug
t om
ge o
Ùĭ ØĮ
Ġbanglanews us
Ġshow biz
Ġreg ional
ri o
hap py
Õ° Õ¡Õµ
3 30
Ġvari ety
Ġquant ity
Ġsy nth
re lative
ph ys
Ġd osh
arch ives
f at
à¦¹à¦² à¦Ń
Ġh es
Ġship ping
Ġmar athi
Ġsy mpt
à¦Ĩ à¦¦à¦®
... ?
à¦¨à¦¬ à¦¬à¦°
Ġl en
Ġ19 80
à¥Ģ ,
'' '
sylhet newstimes
ı ¡
Ġlead ership
sim ple
... "
Ġà¦ĵà¦ª à§°
Ġm ouse
à¯ Ĩ
Ġm ms
ag ger
à¦Ĺ à¦ľà¦¨
Ġa ed
il ight
Ġspe ct
Ġcy ber
jy ot
à¦²à¦¬ à¦¦à¦²
Ġteach ing
Ġapon ar
Ġà¦ıà¦ĩ à¦¸à¦ķà¦²
44 8
à¦¸à¦¬ à¦Ĺ
per anto
Ġview ers
Ġà¥ §
Ġà¦ı à¦ıà¦¨à¦Ĩà¦ĩ
Ġbo id
46 0
Ġstand ing
pect ive
à¦¤à¦° à¦ªà¦¶
à§ĩ, ,,
Ġgr ass
à¦ł à¦¯
ir con
Ġbe an
36 1
Ġtour ism
Ġà¦Ńà¦¬à¦¨ à¦¸à¦¹
qu ir
âķ ®
Ġà¦¤à¦° à¦ľ
à§Į à¦ĥ
à¦ķà¦² à¦¬
Ã¡ ak
à¦ª à¦¸à¦ķ
ha ir
eb o
r if
Ùĩ Ø¯
Ġbar i
Ġe conomics
aj a
Ġà§©à§¯ à§®
Ġl ens
Ġà¤ ł
m ake
à¦¹à¦® à¦¦
Ġfood s
Ġjer seys
3 15
Ġà¦¡à¦ķ à¦ĩà¦¯
mo ther
à¦ıà¦¸à¦ıà¦® à¦ıà¦®à¦ĩ
à¦¼à¦¾ _
Ġà§¬ à§©à§®
Ġinter face
Ġdeve loper
à¦Ĩà¦ĩà¦ıà¦® à¦ıà¦«
à¦ļ à¦Ĺà¦¤
Ġst ub
Ġà¦Ĺà¦¨ à¦¹à¦¤
Ġkh r
à¦īà¦¡ à¦¸
Ġcont ext
Ġà¦® à¦ķà¦Ľ
Ġ18 4
Ġdise ases
Ġà¦ı à¦¥à¦¨
à¦ĺ à¦²à¦¦
Ġs adi
à¦°à¦¹ à¦¬
à¦¨à¦¸ à¦ķ
Ġab c
Ġloc ated
r ag
à¦¸ à§İ
ar ak
Ġah m
Ġvisit ing
Ġcom fort
44 4
Ġemer gency
à¦§ à¦²à¦ķ
Ġv on
à¦® à§°à¦£
y og
à¦°à¦ª à¦¯
Ġconf ir
à¦°à¦Ń à¦°
Ġan ime
à¦¿. -
co ck
7 50
Ġà¦¸ à¦²à¦®
à¦ī à§İ
Ġp ed
Ġn in
ĠÂ Ń
con f
ðŁĺ Ĥ
Ġà¦¹ à¦°à¦²
à¦Ń à¦Ń
36 4
à¦¸ à¦ħ
à§§à§« à§¨
26 2
Ġà§ª à§§à§ª
Ġà§ª à§ªà§Ń
à¦¾? "
× ª
Ġmon ir
Ġatt end
Ø¢ Ø¡
ÙĬ Ø¶
Ġatt ract
in put
à¦²à¦ķ à¦§
ile t
Ġproject s
n ie
Ġsh r
sh ad
Ġ17 3
Ġvip tube
à¦ĩà¦² à¦Łà¦¦
à¦¬ à¦ĩà¦®
à¦¼à§ģ -
Ġ17 4
Ġz vi
ĠÎ µ
à¦ıà¦ĩà¦¡ à¦¸
Ġ20 7
Ġas us
agra ph
Ġsw ap
Ġà¦Ĳ à¦°
Ġà¦Ĩà¦ĩ à¦Ĩà¦°à¦ľ
Ġch ic
Ġbl ank
Ġp ear
ĠØ¹ ÙħØ±
Ġcl ar
Ð² Ð°ÑĤ
Ġm wk
Ġ19 92
ud es
): -
Ġposs ibly
Ġky d
ic ious
Ðµ Ð¼
Ġho que
Ġsq ft
j atra
04 5
Ġbre ath
Ġkor le
à¦ķ à¦®à¦°
Ġd ash
Ġu zs
Ġà¦ķà¦¨ à¦ķà¦°
Ð¸ Ð¹
Ġbel ong
Ġà§©à§¬ à§®
Ġà§ĩ à§ĩ
Ġhund red
3 22
à¦®à¦¤ à¦¸à¦¹
Ġ27 0
39 0
Ġpar stoday
Ġà¦ķà¦° à¦ľ
Ġb ho
Ġà¨ ¦
Ġà§ªà§¬ à§«
Ġà§©à§« à§Ń
Ġpro ced
Ġà¦ī à¦ĩà¦ľà¦¡
à¦¼à¦¿ ...
à¦Ĺà¦° à¦Ĺ
Ġsho oting
Ġgalvan ized
Ġà§§à§¯ à§¦à§¨
Ġà¦Ĺà¦£ à¦ķ
Ġar ms
Ġbangladesh ism
Ġli qu
ic c
Ġlaw s
à¦° à¦īà¦¤
ĠÐ »
e le
r h
à¦¾, ...
à¦¿ `
à¦¦ à¦®à¦ķ
Ġm ant
ome ga
Ġà§ªà§¯ à§®
Ġau th
Ġ16 3
ĠØ± ÙĪØ§Ùĩ
Ġprodu cing
g raph
à¦ı à¦ķà¦¤
Ġfind ing
q z
Ġà¦ı à¦²à¦¨
Ġ2 19
à¦Ĩà¦ĩ à¦¤
Ġ2 29
Ġl ines
can ada
} =
à¦°à¦® à¦ĩ
th anks
g ul
à¦ª à¦¬à¦¤
ish al
Ġneg ative
à¦¬ à¦ĩà¦Ł
Ġch ou
Ġsh own
nov ember
Ġmid night
Ġà¦Ĺà¦£ à¦¸à¦Ļ
ch ool
pl ate
Ġà§©à§Ń à§¬
Ġdh oni
Ġapplic ations
à¦§ à¦²à¦Ń
Ġà§ª à§©à§¯
à¦¬à¦¬ à¦¹
ĠÙģÙĤ Ø§ÙĦ
Ġà¦ķ à¦ĵà¦¯
Ġd up
Ġà§ª à§©à§¨
Ġl um
Ġpre dnisone
34 3
à¦Ĩà¦Ĺ à¦·
à¦¡ à¦Łà¦ķà¦®à¦ķ
Ġsat oshi
à¦°à¦¸ à¦°à¦®
Ġà¦ľà¦² à¦ĸ
Ġà¦¤à¦² à§°
Ġme lay
Ġback up
+' &
Ġboid ownload
p v
à¦Ł à¦¸à¦¬
Ġt in
em ony
Ġ ell
Ġà¦Ĩà¦² à¦ĸ
Ø¹ Ø©
37 9
Ġdownload er
Ġins af
Ġà¦ıà¦¸ à¦Ĩà¦°
07 8
og en
Ġà¦Ĺ à¦²à¦¤
03 5
Ġann oy
49 6
oul vi
à¦ıà¦« à¦ıà¦¨à¦ıà¦¸
c gi
Ġt roll
Ġà§§à§® à§¯à§¬
Ġ19 6
Ġvis itor
ett es
à¦ķà¦Ł à¦ĵ
lac ement
Ġkb ps
à¦¬à¦ķ à¦ĵ
Ġjag oran
m ur
à¦¯ à¦¶à¦ķ
Ġà¦¸à¦¬ à¦§à¦°à¦£
à¦¼à§ĩà¥¤ âĢĿ
ac i
Ġpart ies
Ġtest ing
à¦ľ à¦²à¦ª
Ġà¦ĵ à¦ķà¦²
Ġ2 17
Ġkind s
Ġà¦Ĩà¦² à¦ª
Ġle ather
Ġà¦¤ à¦¸à¦¬
Ġmar vel
05 6
à§©à§¬ à§«
Ġsc ale
Ġsec ure
Ġexpl orer
à¦¨ à¦®à¦¸
à¦¨ à¦īà¦¤
Ġà§ª à§©à§®
à¦ıà¦¸ à¦ĩà¦ī
im press
à§§à§© à§¬
à¦ĵ à¦ªà¦°
Ġk eno
ter m
à§¨à§® à§¦
Ġbook marks
Ġprocess ing
s by
à¦Ĩà¦īà¦Ł à¦¸
Ġth ake
Ġar iful
Ġ17 9
Ġà¦ıà¦¸ à¦¬à¦ķ
la k
à¤¸ à¤®
Ã Ł
Ġl ion
Ġsho ot
Ġdut y
à¦² à¦¥à¦ķ
à¦£ à¦ªà¦ķ
ul ia
à¦°à¦®à¦£ à¦Ł
à¦£ à¦Ńà¦¯
à¦¤à¦° à¦¯
Ġà¦ľà¦¨à¦Ĺà¦£ à¦¨
Ġsabuj sylhet
Ġ' &
67 7
68 5
Ġe kh
roll er
Ġdem on
à¦ĩà¦¨ à§°
Ġd reams
Ġne pal
cont rol
Ġgr ameen
à¦¼à¦¿ ?
Ġmon ster
Ġfund ament
ht ia
Ġcirc ulated
sl ug
à¦ľ à¦®à¦¨
Ġà§ª à§«à§«
ĠØ£ Ø®
Ġfac es
whats app
Ġs ul
Ġla ck
à¦¶à¦¨ à§°
???????? ????????
Ġnah id
Ġmiz u
Ġà¦ĩ à¦Ĩà¦°à¦¡
Ġà§«à§¦ à§«
Ġlo ving
Ġem ot
Ġà¦ĸ à§°à¦ļ
Ġ11 00
Ġà¦ıà¦¨ à¦ıà¦¸à¦Ĩà¦ĩ
Ġsuper b
brow ser
Ġ2 24
à¦¯à¦¤ à¦¦
Ġ16 4
w el
à¦¥ à¦«
st ock
Ġl l
eeee eeee
Ï ī
à¦ļ à¦ķà¦¬
à¦¼! âĢĻ
z el
ze ch
ĠØ§ÙĦØ¹ Ø±Ø¨ÙĬØ©
c over
Ġsp end
Ġà¦ıà¦ıà¦« à¦ıà¦®
Ġà¦īà¦Ń à¦ļà¦°
Ġ20 2
Ġal ive
ĠØ£ Ø´
med ium
Ġà¦ļ à¦°à¦¨
Ġà§«à§¦ à§¬
30 2
27 2
Ġe a
à¦² à¦īà¦¡
Ġg ap
Ġà¦¬à¦ĩ à¦ªà¦¡
are s
ro k
Ġpro ceed
uguÃª sr
Ġà¦ķà¦¥ à¦ķà¦¤
ia b
à¤ķ à¤°
g od
Ġr gb
Ġfor ms
Ġpublish ers
à§§à§¬ à§®
Ġqu ad
Ġrs d
ro d
à¦Ĺà¦ľ à¦Ĺ
56 0
e ff
Ġ2 14
à¦¸à¦¨ à¦ª
Ġo di
the ast
Ġ- --------
à¦Ī à¦¦à¦ķ
h us
Ġw icket
Ġ........ ....
gall ery
ÙĤ Ùħ
xy z
45 7
à¦¿ Â¬
à§§à§© à§Ń
Ġb ong
Ġ5 12
58 9
Ġsh en
à§° à¦Ĺà¦¤
Ġà¦ĩà¦ī à¦Ĩà¦ĩ
à¸ Ķ
de lete
Ġset up
à¦Ŀ à¦¬à¦¯
Ġcomplet ed
Ġà§« à§¯à§¯
Ġsh ir
Ġgo lam
Ġpray ers
à² ¿
Ġpleas ure
Ġcert ification
k ur
Ġà¦ķ à¦·à¦¤
Ġà¦ıà¦¸ à¦ıà¦ĩà¦ļ
Ġgu lo
à¦¿ à§Ģ
à¦§ à¦°à¦ķ
Ġur ban
Ġsound s
s ources
aj i
Ġinstit ution
r atic
. _
h os
Ġcom ics
Ġter rit
à¦ħ à¦ªà¦®
Õ¥ Õ¶
Ġtrou ble
à¦² à¦¶à¦¬
Ġ- ----------------
à§§à§¯ à§¬à§¬
99 8
200 2
t ings
Ġj im
Ġst adium
Ø§ÙĦ Ø¹
à¥ ¦
Ġh ers
à¦Ĺà¦° à¦ªà¦¥
Ġfor g
um bs
Ġla ugh
Ġshe et
Ġwall paper
à¦¨ à¦£
à§§à§© à§ª
57 8
pro gram
Ġer a
Ì ħ
Ġ( #
Ġdep end
Ġà¦Ł à¦ĩà¦Ł
Ġà¦¹ à¦°à¦®à¦¨
Ġsa iful
à¦¯à¦Ĺà¦¤ à¦ķ
à¦¹ à¦ķà¦¸
Ġà¦ĸ à§İà¦¨
à¦ĩà¦ľ à¦¬
Ġis lands
à¦Ĩà¦°à¦ıà¦® à¦ĵ
Ġug x
Ġà¦ıà¦¸ à¦ĩà¦¸
Ġst ret
Ġ20 6
oun ce
× ĵ
à¦Ĺà¦£ à¦¸
y al
Ú Ĩ
ig uri
Ġla ure
Ġà¦¬à¦¦à¦° à¦ª
à¦¿âĢĿ ,
mod el
Ġanim als
e conom
o en
Ġm ash
Ġgo ssip
ãģ Į
c amp
} ;
com mon
ol y
à§§à§« à§¬
Ġà§©à§¯ à§Ń
à° ¸
Ġlad ies
44 0
ãĤ Ĵ
x d
Ġp rab
Ġ ÑĢÐ°
à¦²à¦ķ à¦¥
Ġdis able
over flow
c ustom
it ors
and i
35 3
à¦²à¦ĵ à¦Ń
o ster
ĠÙĪ Ø¹
à¦Ĺ à¦®à¦¸
Ġt body
Ġà§©à§Ń à§¯
Ġpart ner
à¦°à¦ľà¦¨ à¦¨à¦°
Ġinj ured
Ġ ew
Ġh entai
Ġz ircon
on o
Ġdesh er
Ġà§ª à§©à§ª
Ġà§® à§®à§¦
Ġbra zil
d etail
r ific
× Ķ
ap ar
Ġkazir bazar
à¦ķ à¦ĩà¦¯
à¦Ń à¦¨à¦°
à¦ķ à¦¬à¦ķ
sh ort
Ġ^ ^
Ã¢nÄĥ ÑĢÑĥÑģÑģÐºÐ¸Ð¹
à§° à§±à§°
à§© à§¨à§¦
Ġà¦ıà¦¨ à¦ĵà¦¯
Ġz ip
Ġsing apore
Ġà¦¸ à¦ĵà¦Ĺ
à¦ıà¦² à¦Ĩà¦°
Ġmast ers
ÐµÐ´ Ð¾Ð½
j g
r ang
à¦ļ à¦ªà¦¦
à¦ĭ à¦·
Ġà§¬ à§¨à§¨
Ġme gh
Ġà§©à§Ń à§©
Ġwid get
Ġsk ip
Ġj erk
Ġbol i
Ġchak rir
Ġ........ ...
Ġcont ract
Ġà¦«à¦²à¦¨ à¦ĵ
Ġmass age
option s
à¦°à¦¸ à¦¬à¦ķ
Ġter min
Ġdesh i
Ð°Ðº ÐµÐ´Ð¾Ð½
e id
Ġ" ,"
Ġà¦ķà¦¬ à¦ļ
Ø° Ùĩ
Ġà¦ķ à¦¸à¦°
Ġs es
Ġwork ed
Ġabsol ute
7 06
à¦¤à¦¬ à¦¡
Ġmethod s
à¦° à¦°à¦ķ
p ra
Ġà§ª à§ªà§ª
à¦¬ à¦·
à¦ĵ à¦Ĩà¦°
Ġdr ag
Ġshah adat
Ġaustral ian
Ġimmedi ately
à§ĩ .........
à§§à§« à§®
gap ur
Ø§ÙĦ Ø³
Ġab ar
Ġsp in
Ġlot us
Ġà¥ ¨
Ġhair y
f air
âĢĻ âĢĻà¥¤
Ġs eng
Ġà§ªà§¦ à§®
45 5
55 6
c rit
Ġà¦Ń à¦¤
Ġà§ª à§ªà§©
Ġà¦Ĺà¦£ à¦¦
Ġ5 50
ri an
Ġcl imate
à¦¤ à¦¸à¦¤
à¦ı à¦ķà¦¸
Ġu dra
Ġrel iable
à¦¦à¦¨ à¦¸
à§§à§ª à§©
Ġborn om
à¦¹à¦° à¦°à¦®
Ġcont ains
Ġà¦¸à§İ à¦Ń
Ġà¦° à¦¨à¦ķ
3 12
à¦¼à¥¤ )
à§§à§¯ à§¬à§¨
à¦²à¦® à¦£
á¹ ĩ
à§§à§¯ à§¬à§®
out s
Ġà¦¸à§İ à¦ªà¦¥
Ġà¦ī à¦ĩà¦Ĺ
Ġà¦Ĩà¦Ĺ à¦¤à¦¦
Ġ2 16
à¦ıà¦®à¦ĩ à¦Ĩà¦ĩ
Ġbangladesh news
Ġrep ut
la der
Ġà§Ń à§¬à§¦
Ġr y
Ġc zk
Ġà¦īà¦¡ à¦¸
à¦¶ à¦¬à¦ĩ
Ġà¦Ĩà¦¬ à¦ľ
Ġnat ive
à¦¦ à¦²à¦¨
à¦¼à§ĩ âĢĶ
Ġk ara
Ġst an
Ġrob in
- \
? "à¥¤
à¦¤à¦° à¦ľ
Ġà¦®à¦¦à¦¨ à¦®
st one
pre t
Ġrel ations
Ġfriend ly
s ong
à¦¹ à¦®à¦¨
à§Ģ âĢĿà¥¤
à¦ī à¦°à¦®
à¦īà¦¨ à¦Ĺ
à¦¨à¦¬ à¦¶
Ġsla ve
Ġà¦¹à¦² à¦ķ
à¦ĩà¦® à¦ª
ĠÎ ¼
Ġdirect ly
4 02
à¦¶ à¦²à¦¤
Ġà¦ıà¦ķ à¦®à¦¨
57 7
à¦² à¦¶à¦¨
Ġà¦ī à¦«à¦«
à¦²à¦ķ à¦Ĺ
it os
Ġr ul
à¦¬à¦¨ à¦¦à¦°
Ġà¦ıà¦ĩà¦ļ à¦ıà¦¸à¦¬
h es
Ĺ áĥ
Ġà¦ĩ à¦¹à¦ľ
Ġm n
Ġà§©à§® à§¨
Ġbig tits
Ð°ÐºÐµÐ´Ð¾Ð½ ÑģÐºÐ¸
! --
x a
Ġà§ª à§§à§¨
Ġà¦Łà¦¹à¦² à¦°à¦¤
Ġleg end
Ġinvol ved
Ġth b
à¦®à¦°à¦¤ à¦¦
su om
Ø§ÙĦ ÙĦÙĩ
Ø§Ø± Ø©
l ie
Ġà¦ħà¦ªà¦° à¦ª
à¦Ĺà¦¦ à¦ĸà¦²
for min
pur chase
Ġvol t
Ġà¦Ĩà¦īà¦Ł à¦°
form at
Ġfo x
3 11
Ġg ays
sm art
Ġgt q
à§ĭ ??
Ġc pm
Ġà¤ ĺ
á Ł
à§± à§°à¦£
à¦¨à¦² à¦ľ
ĠØ§ÙĦØŃ Ø¯
à¦¨ à¦¶à¦ķ
Ġà¦¤ à¦Ľà¦°
à¦§à¦¨ à¦¹
Ġ5 60
Ġul Ã¡ak
Ġdem o
ibon acci
Ġà§Ń à§§à§¦
Ġà¦Ĺà¦£ à¦ļ
Ġ' ''
Ġwe ird
Ġv nd
Ø§ÙĦ Ø£
Ġkh aled
Ġà¦¹ à¦°à¦Ĺ
à¦īà¦¦ à¦¯
à¹ Į
! -
Ġà¦¤ à¦ĸ
à¦ī à¦Ĩà¦°
Ġp b
Ġ18 1
ĠØ¹ÙĦ ÙĬ
bangladesh i
Ġob vious
Ġà§«à§¦ à§¨
Ġmax imum
radi us
Ġà§¬ à§¦à§«
am y
Ġà¦ķ à¦ĩà¦¬
Ġwal ton
append child
Ġà¦ħ à¦ĩà¦¬
Ġà§©à§® à§®
Ġh oney
Ġg md
ter y
Ġbar idhara
Ġsundar ban
m ongo
i qu
à¦« à¦°à¦¹
Ġà§ª à§¨à§¨
Ġand rew
ðŁ Ļ
Ġachie ve
ic ient
à¦ķà¦¦ à¦«
03 7
Ġital iano
d an
á Ī
Ġà§Ń à§®à§¦
Ġra kh
Ġbla st
e th
à¦¨ à¦ªà¦£
el and
à§ĩ... âĢĿ
Ġà§ªà§¯ à§¨
ict ed
§ »
ed ited
à§§à§« à§©
Ġmas um
Ġà¦¸ à¦¶à¦¬
se o
@ *
Ġà¦® à¦°à¦ļ
Ġà§Ń à§ªà§Ń
Ġu mm
Ġsham im
Ġà§©à§® à§Ń
ok en
Ġremain ing
Ï Ĥ
à§ģ *
à¦ī à¦¬à¦¯
ia h
44 9
à¦¸ à¦ĸà¦¨
Ġà¦Ŀ à¦°à¦£
Ġà¦Ĩà¦ĩ à¦Ĩà¦ĩ
Ġà§§à§® à§¬à§§
pro of
ÙĦ Ø¨
Ġfor ced
àµ Ī
impress ions
Ġs id
Ġc ams
Ġv ivo
Ġmo ving
Ġvalu able
Ġà¦ī à¦ĩà¦ļ
lo v
Ġà¦¦à¦¶ à¦Ĺ
ob a
Ġdet ection
Ġn gn
m ik
Ġà¦ĩ à¦°à¦®
Ġany body
Ġsol ar
d ur
Ġà¦Ľ à¦²à¦ļ
Ġ2 11
à¦¼à§Ģ ?
Ġmy anmar
Ġb if
ah med
Ġà¦¨ à¦¦à¦¨à¦¦
Ġà¦ł à¦Ĺ
Ġgraph ic
Ġcloth es
Ġrs i
Ġà¦ı à¦Ĩà¦ĩà¦ľ
Ġch or
Ġ} }
56 7
Ġrup care
3 21
à¦¥ à¦°à¦¬
à¦¤à¦¬ à¦°à¦£
Ġà¦°à¦¤à¦¨ à¦ķ
Ġatt ach
Ġà¦ĩà¦īà¦ıà¦¸à¦ı à¦Ĩà¦ĩà¦¡
Ġs zl
Ġchop ra
Ġà¦ıà¦® à¦ıà¦¨à¦ª
== "
à¦ĩà¦ĩ à¦ĩà¦ĩ
Ġh kd
Ġup per
lat lang
":" /
Ġafghan istan
à¦ī à¦ĵ
Ġt at
à¦¬à¦ª à¦¶
Ġaw ami
Ġtransl ated
b w
à¦ī à¦¦à¦ª
Ġsin ha
à¦ĩ à¦ªà¦¡
Ġà§ª à§ªà§¯
tp orn
Ġà§©à§¬ à§¯
sy l
à¦° à¦¢
à¦§ à¦¶à¦ķ
à¦ªà¦¨ à¦ĩ
Ġa oa
à§§à§« à§Ń
à¦®à¦£ à¦¦
Ġexper ien
Ġudra ji
Ġt ee
à¦ĩà¦¨ à¦Ĺà¦°
à¦·à¦£ à¦°
Ġsp l
47 8
Åĵ à¦®
Ġà¦¥ à¦ĩ
Ġà¦¦à¦² à¦Ĺà¦¤à¦Ń
Ġà§©à§¬ à§¬
Ġequ al
o logical
Ġà¦®à¦¤ à¦²
Ġl is
Ã ²
Ì ¿
à¦Ĥ à¦Ĥ
ag ement
Ġà§©à§Ń à§¨
Ġbro ken
Ġan onymous
Ġhack ing
Ġà¦Ĩà¦° à¦ıà¦®
à¦¿, ,
ck er
29 1
68 6
m atch
Ġd s
Ġad just
09 6
inst itute
Ġrap id
3 25
Ġthe ad
ort on
Ġà§ªà§¦ à§ª
Ġporn erbros
tech nology
Ġcustom ers
( [
à¦ī à¦ı
bar a
Ġtechni ques
- âĢĻ
à¦¬à¦° à¦¸à¦®à¦¯
87 6
67 5
Ġà¦®à¦¦ à¦¦à¦ª
Ġfollow ers
Ġgrow ing
Ġjah angir
Ġfoy sal
ap a
Ġx anab
Ġind igenous
int s
s ay
s ign
Ġà¦ĩ à¦¨à¦¤
à¦¬à¦° à¦¦à¦¸
Ġà¦ĩà¦¨ à¦ķà¦°
Ġin fection
Ġmar ie
sub string
à¥¤ âĢĵ
or b
Ġn iz
ad mission
à¦¡ à¦¸à¦°
04 8
pro te
55 8
Ġbr ush
ĠØ¢ Ø®
f w
Ġw at
à¦ĩ à¦ªà¦¥
à¦£ à¦Ńà¦°
à¦Ĺà¦¦ à¦Ĺ
â ŀ
à¦¡ à¦ı
à¦Ĩà¦¨ à¦²
à¤° à¤¨
Ġpregn ant
. $
ÙĦ Ùģ
ab ha
col lege
Ġty p
g ard
Ġd ic
ol s
à§§à§« à§ª
Ġad mit
ap ter
27 1
man n
à¦ıà¦¸à¦Ĩà¦ĩ à¦Ĩà¦°
hrvat ski
Ġcorrup tion
Ġb usty
Ġà§® à§ªà§¦
Ùı .
47 9
Ġbr ings
Ġhar un
Ġà¦Ĩà¦ĩà¦ĩ à¦ıà¦²à¦Ł
' (
il ation
and ra
Ġcomp reh
Ġà¦¥ à¦¤à¦®à¦¤
Ġat a
à¦«à¦° à¦īà¦²
led à¦¸à¦¦à¦¸
Ġcomm ons
fa ction
áĥĲáĥłáĥ Ĺáĥ
d ad
Ġà§° à¦¯
à§ĩ... âĢĻ
Ġut tor
¥ áĥĲáĥłáĥĹáĥ
Ġtal ent
Ġkiv abe
r us
à¦ĩà¦ľ à¦Ĺ
Ġe book
Ġcro re
c op
w az
à¦¨ à¦ªà¦Ł
Ġp ig
ĠÙĪ Ùĥ
con nect
Ġt zs
à¦Ĺà¦¦ à¦¤
Ġne i
87 5
Ġkh ar
57 6
Ġà¦² à¦²à¦¨
Ġp it
à¦²à¦Ĺ à¦Ĺ
à§§à§¯ à§ª
Õ°Õ¡Õµ Õ¥ÖĢ
Ġil legal
= >
Ġ* ****
ri er
Ġlat ina
ti áº¿ng
âĢº `
en i
99 4
Ġge ography
bh um
à®¤ à®®
Ġà¦ıà¦ĩ à¦ĸà¦¨
Ġn ull
Ã ¾
Ġà¦ħà¦¸ à¦¤à¦¤
Ġà¦ıà¦® à¦ĵà¦ª
à¦¨à¦ľ à¦Łà¦®
Ġconcer ning
jyot ish
d irect
Ġà§ªà§¦ à§©
Ġlo ver
Ġqu eries
Ġtangail darpan
Ġà¦Ĺ à¦²à¦¬
Ġm ou
à§§à§ª à§¬
ĠâĢĶ âĢĶâĢĶ
phot os
d k
Ġ8 50
ĠØ¬ ÙĦ
Õ°Õ¡ÕµÕ¥ÖĢ Õ¥Õ¶
c ause
ve z
Ġsil ent
Ġfem dom
Ġwalk ing
x z
im ul
3 13
Ġà¦ĩ à¦ıà¦®à¦Ĩà¦ĩ
Ġgre et
Ġà¦ķà¦° à¦¹
Ġà¦®à¦¨ à¦®à¦¤
Ġx pf
à¦¼à¦¾à¦Ĥ à¥¤
Ġcol l
let ed
jpg http
pos es
à¦§ à¦¬à¦°
Ġpost er
Ġher itage
à¦ıà¦«à¦Ĩà¦ĩ à¦ĩà¦ī
oulvi bazar
f are
à¦Ł à¦ļà¦ķ
Ġà§§à§® à§¯à§«
Ġnor thern
Ġthak ur
Ġperform ed
à¦¨à¦¤ à¦¦
Ġab ility
Ġhd mi
Ġque en
à¦®à¦¬ à¦¹
Ġund e
Ġrece ives
à¦Ĩ à¦¹à¦¸
Ġv amp
à§§à§¯ à§¬à§Ń
d as
à¦¤ à¦ªà¦¦
Ġà¦ıà¦² à¦Ĩà¦ĩà¦¸
Ġind ies
Ġcon vers
Ġrah im
Ġfar id
f n
Ġa ce
Ø¬ Ø¯
Ġcont ents
sy stem
Ġsl ip
i at
y m
Ġother wise
Ġelement s
u er
à¦¦ à¦¤à¦ķ
Ġv as
Ġa the
Ġbak r
p ark
Ġà¦ıà¦°à¦ķà¦® à¦Ł
Ġcomp on
Ġice porn
Ġel s
Ġo i
Ġà¦Ĩà¦ª à¦ĵà¦¯
Ġscholar ship
Ġà¦ķà¦® à¦ķ
Ġga an
à¦ģ -
Ġar un
Ġacc used
top ic
Ġmal agasy
Ġà¦ĵà¦ļà§° à¦²
à¦· à¦¸à¦®
à¦¬à¦ķ à¦Ĺà¦£
Ø± Ùĥ
g sm
Ġà§¨à§¦ à§ªà§¦
à¦ķà¦¨ à¦Ĺ
Ġà¦ĩ à¦Ĺà¦²
Ġp n
à¦°à¦ª à¦ŀ
ish ing
Ġcon v
28 1
Ġà§ªà§¯ à§¬
cra ft
Ġà¦¶à¦¤ à¦Ĺ
Ġchang ing
serv ation
à¦ĵ à¦°à¦ķ
19 71
Ġme ant
ok ing
Ġalo tporn
à¦¶ à¦Ĺà¦¤à¦Ń
Ġb uck
at re
Ġmin or
à¦·à¦£ à¦¹
Ġà§¯ à§©à§¦
Ġut il
à¦¾. )à¥¤
pr iv
Ġevery body
Ġà¦¬à¦Ľ à§°à¦¤
ĠØ±Ø¶ ÙĬ
Ġ20 3
Ġac comp
Ġband y
Ġinstall ation
Ġà¦ªà¦¶ à¦²
Ġhous ing
on ia
Ġà¦ķà¦² à¦¡
à§§à§¯ à§¬à§«
à§ĩ- âĢĺ
à¦ħà¦¨ à¦¶à¦¨
Ġmed al
Ġpas sport
teach er
alp ha
Ġj izz
Ġà¦ªà¦¥ à¦Ĺ
Ø§Ø± Ø¯ÙĪ
Ġash raful
Ġà¦ĩà¦¨ à¦Ĺ
Ġq r
ut tar
Ġsh el
getelement sby
la a
Ùħ ÙĦ
up on
/# ]
Ġà¦ĭ à¦ķ
Ġpregn ancy
... Â»
44 7
Ġà¦¬à§° à¦¦à¦²
micro soft
Ġt are
ag n
eb e
à¦¦ à¦ªà¦¦
st re
38 4
Ġ%> ,
Ġà¦®à¦ļ à¦®à¦ļ
n ike
Ġà¦¸ à¦ĩà¦Ľ
Ġà§ª à§©à§Ń
Ġwor st
Ġà¦ıà¦¸à¦ıà¦® à¦¸
Ġbet a
Ġasy nc
m ont
Ġà¦ıà¦¸ à¦®à¦¸
Ġsam bad
Ġheav en
Ġek tu
Ġh ug
ic ations
ub on
be y
49 3
à¦ľ à¦¤à¦¤
Ġà¦īà¦ª à¦¦à¦²
58 6
Å «
à §»
à¦ıà¦® à¦ĩà¦Ł
Ġtex as
à¦¾à¥¤ (
Ġt foot
Ġà¦ħà¦« à¦¬
ch h
Ġsl uts
Ġarab ia
Ġvict ory
à§ĩ à¥¥
re mail
Ġal leg
Ġbhab hi
à¦Ĩ à¦®à¦¨
Ġth re
ĠâĢľ à¥¤
are n
zv g
Ġstrug gle
à¦°à¦ľà¦¨ à¦ĩ
Ġ16 00
l m
à§ĭ! âĢĿ
à¦¾, âĢĻ
Ġh ide
Ġsomoy er
Ġital y
Ġà¦ķ à¦ĩà¦¨
Ġd ell
Ġ978 98
[]+!! []+!!
Ġà¦īà¦ª à¦¬à¦¨
06 5
Ġà§ªà§« à§¬
Ġsign s
Ġpati ents
Ë Ĳ
å Ĳ
Ġà§« à§«à§®
Ġà¤ §
Ġà§§à§®à§® à§¨
à¦Ĩà¦ĩà¦ı à¦ıà¦«
Ġofficial s
Ġchem istry
g w
à¦¬à¦° à¦¬à¦°
à¦ķà¦¤ à¦Ł
Ġc urrency
à¦¥à¦¨ à¦ĵ
Ġare n
à¦¼ "à¥¤
ag ree
Ġà¦¡à¦ľà¦¨ à¦ĸ
Ġà§¬ à§©à§¨
Ġ3 09
Ġà¦ıà¦¸ à¦®
ust an
rit ion
ĠØ° ÙĦÙĥ
n ath
à¦¦à¦ķ à¦ĵ
Ġas pect
à§ĩ... -
99 7
usk ara
Ġà¦ħà¦¸ à¦«à¦²
Ġev an
o ch
Ġà¦® à¦ĩà¦°
Ġà§« à§©à§¬
Ġsar abangla
à¦¸ à¦¬à¦¸
Ġfollow ed
paÃ± ole
in ations
ar at
à§¨à§¦ à§Ń
Ġso c
Ġd ro
Ġ19 89
Ġmy th
à¦®à¦£ à¦ķ
Ġav engers
Ġb sd
à¦°à¦ľà¦¨ à¦¨à¦¤
Ġman us
u it
à¦¡ à¦¸à¦ķà¦®
Ġs ach
Ġ19 4
Ġ25 00
ĠÙĬ Ø¹
Ġà¦Ĩà¦° à¦¦
à¦®à¦ķ à¦¸
Ø§ÙĦ Øµ
à¦¦ à¦ªà¦¨
Ġà¦¤ à¦°à¦£
ÙĪ Ùĥ
Ġ........ ..
ļáĥ ĺ
k ab
Ġr l
49 7
me ga
à¦Ĩà¦ķ à¦¬à¦°
Ġmukh opadhyay
à¦¶ à¦Ĺà¦ŀ
Ġun less
à¦®à¦Ľ à¦ķ
à¥¤ <
on ews
Ġd dd
Ġco ff
Ġes pn
enc ies
Ġà¦ıà¦ķ à¦ĺà¦¨
à¦Ĺà¦¨ à¦·
Ġsp ell
adem ark
Ġorigin ally
×¢ ×ĳ×¨×Ļ×ª
à¦¸ à¦¨à¦¤
Ġà¦¬à¦¸ à¦ķ
ut f
Ġend ed
à¦¿à¦Ĥ âĢĿ
Ġà§« à§ªà§¨
Ġex isting
Ġras el
Ġà¤Ŀ à¤µ
olk at
Ġhua wei
Ġà¦Ĩà¦īà¦Ł à¦«
Ġcourt esy
Ġt itty
Ġbangladesh bani
Ġa le
à¦°à¦¸ à¦ķ
à¦°à¦¨ à¦Ĺ
am ad
02 7
Ġà¦Ĺà¦ł à¦£
orig inal
Ġbornom ala
Ġà¦ķà¦° à¦¯
le tion
Ø± Ø¯
à§§à§Ń à§«
à¦¿' -
uk a
il ly
eb a
Ġcover ed
Ġfight ing
à§ĩà¥¤ ]
Ġr d
Ġhelp ed
Ġguid elines
à¦¤ à¦¥à¦²
is k
Ġper haps
Ġban ner
à¦ıà¦« à¦ķ
47 0
Ġenjoy ed
Ġsuck ing
ten ance
Ġlick ing
Ġfavour ite
Å ¾
âĺ Ĩ
à¦ıà¦¸à¦ıà¦®à¦ıà¦®à¦ĩ à¦īà¦°
à¦ĩ à¦ªà¦Ł
Ġà¦ĵ à¦²à¦¨
à§§à§ª à§¨
Ġ19 7
à¦Ĭ à¦°
Ġdr agon
à¥¤ .
Ġpo ems
Ġarticle à¦ıà¦¬
Ġà§ªà§¯ à§Ń
Ġm ai
à¦¤à¦ķ à¦¬
Ġg nf
Ġinst ant
bl ue
06 6
à° ®
Ġmathemat ics
à¦Ľ à¦§
Ġà¦ı à¦ıà¦¨
à¦ī à¦²à¦Ĺ
Ġv ik
ra ins
iss a
Ñ į
Ġà§® à§§à§¦
Ġre levant
àª Ŀ
Ġbel t
Ġkrish na
Ġà¦ıà¦¬ à¦¡
st ru
à¦¬à¦® à¦ŀ
Ġrank ing
Ġn um
Ġà¦īà¦¤ à¦¸
Ġnews bd
à¦ľà¦¬ à§°
Ġà§ª à§§à§§
Ġj io
à¦¯à¦¦ à¦¶
Ġext ernal
à¦ī à¦¤à¦°
Ġà¦Ĺ à¦°à¦¬
Ġà§§à§® à§Ńà§¦
áĢ º
Ġdeter min
Ġsquir ting
à¦ª à¦¸à¦®à¦¯
id en
Ġ4 01
à§§à§¬ à§¬
Ġno akhali
Ġà¦¹ à¦°à¦¨
à¦¸à¦ĵ à¦ľ
à¦ªà¦¦ à¦ĵ
Ġt aw
end a
Ġà§©à§Ń à§®
87 7
à¦° à¦Ĩà¦°
à§İ à¦ļ
Ġx cd
ore x
Ġà¦ıà¦« à¦ª
: (
à¦ķà¦² à¦Ĺ
ÙĪ Ø²
ĠÙĩ ÙĪ
Ġt aj
Ġem on
Ġorder ed
Ġchrist mas
âĸ¬ âĸ¬
à¦£ à¦¢
ĠâĢľ (
12 00
à¦ĩà¦ī à¦Ń
Ġnav y
Ġrajshahi express
à¦£ à¦Ľ
Ġr ated
Ġà§° à¦¤
à¦ĩ à¦ıà¦«
10 80
Ġ23 5
co hol
Ġgulshan à¦¸à¦¦à¦¸
-- "
ĠÙĬ ÙĪÙħ
Ġn v
Ġde lay
he art
link s
r f
Ġà§ªà§¦ à§Ń
b har
Ġass ess
Ġst arr
ĠÙģ Ø¥ÙĨ
sc ious
din ajpur
Ġded icated
à§ĩ ---
Ġb cl
à¦¶à¦ķ à¦ĵ
Ø± Øª
Ġfa iled
Ġlov ely
à¥¤ âĢĶ
Ġemploy ment
19 98
Ġjud ge
à¥¤ --
à¦¼à¦Ĥ -
font s
Ġguar ant
à¦°à¦ª à¦ļ
Ġj ama
Ġle aves
88 6
cook ie
Ġinno cent
Ġzircon ia
Ġà§ªà§Ń à§¬
you remail
Ġinch es
à¦¶ à¦²à¦ķ
à¦£ à¦§à¦°
Ġm ental
le vitra
à¦Łà¦Ĺ à¦£
cont in
57 4
58 5
ĠØ§ÙĦÙĨ Ø¨ÙĬ
ĠcÃ¶ wz
Ġsel ena
Ġw ave
à¦°à¦¥à¦® à¦ª
Ġà¦ķà¦¨ à¦·
Ġim per
Ġà¦Ĩà¦§ à¦ĺà¦¨
à§İà¦¸à¦ķ à§°
Ġcr ash
à¦¨ à¦¶à¦°
Ġs ultan
à§§à§© à§§
ok a
Ġà¦ĩà¦īà¦ıà¦¨ à¦ĵà¦ķ
r ick
Ġst ood
3 46
m hz
Ġwould n
Ġblack berry
à¦§ à¦ªà¦¥
Ġà¦ļ à¦®à¦¸
Ġb zd
Ġind i
à¦² à¦Ĺà¦¤
Ġn urs
Ġj ak
ÙĪ Ø¶
Ġchar ger
ih ad
Ġà¦Ĩà¦² à¦¦
Ġs log
Ġh atch
Ġj og
Ġà¦¹ à¦ĩà¦¹
in ct
Ġb tc
ew ay
Ġr ush
Ġà¦ıà¦ĩà¦ļ à¦¸
Ġà§¬ à§©à§¬
ry pt
Ġenjoy s
à¦°à¦®à¦¨ à¦ķ
05 7
Ðµ Ð²
Ġsens or
Ġà¦®à¦¤ à¦Ł
3 24
in ce
ch l
ac l
so kal
ÙĦ ÙĦ
âĢĿ )
Ġ:: ...
j m
3 48
Ġà§Ń à§ªà§¦
Ġle aving
Ġpr an
03 8
Ġfran cis
im p
ed en
Ġst ress
Ġsh ame
cl oud
Ġmaj um
Ġid m
ÙĪ Ø©
daily hunt
Ġcam er
Ġang ry
Ġà¦ıà¦² à¦ıà¦²à¦¸
Ġto k
à¦¦à¦² à¦Ł
à§§à§¯ à§¬à§¦
ĠØ¥ Ø°Ø§
Ġenterpr ise
b idi
g el
à¦² à¦ªà¦ķ
Ġ2 18
j t
Ġà¦ķà¦° à¦ļ
à¦¿à¦Ĥ âĢĻà¥¤
Ġzv iv
Ġà¦Ľ à¦®à¦Ľà¦®
ch ester
Ġà¦ıà¦« à¦ıà¦ķ
56 8
Ġcis co
' .
à¦¿à¥¤ )
à¦¨à¦ĩ à¦īà¦°
è ¯
Ġc aught
Ġà§¬ à§§à§Ń
Ġà§¯ à§§à§§
à§§à§¬ à§ª
Ġthreat ened
Ġhorn y
3 99
om id
Ġj aw
ut ane
65 8
Ġà§¨à§ª à§¦à§¦
Ġà¦¸à¦« à¦°à¦¸
Ġmon dal
à¦¦ à¦¬à¦ķ
Ġb ani
à¦°à¦¹à¦£ à¦ĵ
à§§à§¯ à§«à§¨
Ġle on
Ġgal po
à¦¶à¦ķ à¦¶
à¦Ĺà¦łà¦¨ à¦ĵ
05 8
Ġsm ooth
hat i
Ġd ail
à§§à§« à§§
Ġà§¬à§Ń à§¦
ĠÏ Ģ
prag jyotish
t ru
t xt
Ġà¦Ĩà¦ĩà¦ıà¦¸ à¦Ĩà¦ĩà¦ıà¦¸
k ins
Ġdur gapur
Ġ ÑĢÑĥÑģÑģÐºÐ¸Ð¹
be k
j amin
Ġdisplay ed
Ġtah ole
Ġsurg ery
3 28
er g
à¦¬à¦ªà¦¨ à¦ķ
Ġà¦¬à¦ķ à¦Ľ
Ġà¦ķà¦¤ à¦Ń
con s
à¦īà¦ªà¦ķ à¦°à¦£
Ġà§« à§©à§®
et el
Ġe khon
à¦ļà¦ķ à¦£
Ġà¦«à¦¸à¦² à¦¹
Ġca uses
trans l
Ġsav ed
pragjyotish assam
es ha
à¦¬à¦¬ à¦§
Ġwor ry
Ġà¦¤ à¦¸à¦°
in os
Ġc ours
Ġn ie
Ġà¤ķ à¤¹
à§°à¦¥à¦® à¦¬
Ġà¦ľà¦¨ à¦Ń
à¦²à¦Ĺ à¦ķ
à¦Ĺà¦® à¦ŀ
ĠÐ± ÑĬÐ»Ð³Ð°ÑĢÑģÐºÐ¸
o ft
le arn
Ġà¦ľà¦Ĺ à§İà¦ķ
à¦¿ \
Ġà§ª à§©à§¬
à¦ķ à¦ĭà¦£
à¦ª à¦²à¦¬
Ġf ingers
ĠÙĪ Ùģ
à¦ĩ à¦ķà¦²
à¤¤ à¤°
Ġmas k
Ġf et
Ġk ick
ĠÂ ¤
Ġà§§à§® à§¯à§ª
Ġgovern or
Ġtal ks
s end
à¦ļ à¦ĸ
Ġà§«à§¦ à§¯
Ġser ve
Ġarticles more
à¦Ĩ à¦ł
Ġà§« à§¨à§®
Ġà§§à§® à§Ńà§©
à§§à§¬ à§©
Ġjan e
Ġappro priate
Ġnumer ous
Ġà¦¦ à¦Ĺà¦¦à¦Ĺ
Ġ" (
Ġsh iv
5 50
Ġwe aring
Ġrat io
Ġ2 23
Ġà¦¬à¦° à¦ĩà¦¤à¦²
Ġ20 4
Ġarticle à¦Ĩà¦®
áĢ ¹
Ùİ ï´¾
dr ive
Ġmer c
3 17
à¦¾ \
Ġà¦¬ à¦¤à§°
Ġà¦¡à¦Łà¦ķà¦® leave
Ġà§«à§Ń à§«
Ġhor se
à§į à§ĩ
Ġre vis
lam e
j x
Ġt us
im per
ure ment
gu est
t un
Ġà¦¬à¦¨ à¦®à¦¨
05 9
iy am
å Ī
Ġ19 50
à¦¬à¦ľà¦¨ à¦¸à¦¹
Ø§Ø º
Ġnucle ar
! ?
Ġun cle
Ġreg ards
Ġbio logy
à¦Ł à¦Ĺà¦¤à¦Ń
à¦¸à¦® à¦Ŀ
Ġarticle à¦Ľ
Ø§ÙĦ Øª
ject ive
Ġdal war
à§ĩ );
ip l
Ġsk ill
Ġcheap est
à¦¬ à¦®à¦¤
Ġd etail
Ġz ah
result s
Ġm um
à§± à¦¶
ra id
Ġà§° à¦ļ
Ġemp flix
v ation
Ġ ãĢ
st ic
tr y
33 2
Ġsur face
Ġsl im
Ġà§« à§¨à§Ń
Ġg ate
Ġà§¯ à§¨à§¦
06 9
Ġà¦ħà¦¨à¦¶à¦¨ à¦°à¦¤
110 5
/ à¥¤
e ast
Ġà§§à§ª à§¨à§¨
oo p
Ġà¦ĭà¦£ à¦ļ
Ġcra ft
nor th
à¦ĸ à¦¹
Ġpar agraph
Ġnat ur
Ġmotor cycle
à¦ķ à¦ĵà¦®
Ġa ve
Ġturn s
Ġe co
33 1
Ġsub scri
Ġcompet ition
Ġan ton
vo ice
Ġlak sh
3 18
à¦¹ à¦²à¦ķ
Ġà¦Ĩà¦ªà¦¨ à¦ľà¦¨à¦¦
Ġà§§à§¬ à§¨à§¨à§¨
Ġ} )
Ñģ ÑĢÐ¿ÑģÐºÐ¸
b is
ÙĨ Ùĩ
à¦¦à¦² à¦ª
à§§à§¯ à§¬à§ª
Ġcheck ing
Ġincre ased
Ġà¦Ĺ à¦²à¦¨
Ġà¦ıà¦Ł à¦²
à§¨à§« à§¬
Ġcon flict
Ġtw ilight
me la
sk in
re ct
Ġh ong
Ġà§« à§ªà§«
Ġk et
Ġpr ad
04 9
Ġmil fs
19 99
ec f
nob ad
m em
Ġ2 28
circ led
£áĥ ļáĥĺ
à¦Ń à¦¨à¦ķ
Ġsun shine
Ġjew el
Ġfx cc
Ġà§ª à§ªà§¨
03 6
Ġâĭ Ĩ
v l
Ġà¦° à¦£à¦¨
ss l
Ġnew er
Ġcap ac
f ill
à¦ľ à¦ķà¦ķ
Ġà¦ªà¦° à¦Ĺ
Ġman ush
77 6
Ġabst racts
v ard
Ġw ard
à¦¤à¦® à¦°
à¦®à¦° à¦ª
ff f
Ġcont em
Ġant ivirus
Ġlab our
Ġu d
Ġà§«à§¦ à§ª
Ġà§©à§® à§©
full screen
Ġj b
Ġlar val
Ġviá»ĩ t
Ġà§¬ à§¨à§®
Ġsh emale
Ġcard s
^ ^
Ġà¦ĩà¦¨ à¦°
Ġchair man
Ġp el
Ġà¦ĩà¦¨ à¦Ńà¦¯
Ġarch ived
oooooooo oooooooo
4 14
k is
r ates
à¦ķ à¦·à¦£
Ġs aint
ĠÙĪ Ùħ
Ġsc ott
pro ject
ham ed
Ġpla ced
Ġpharmac ies
Ġp le
Ġà§« à§¨à§ª
Ġà§¦à§§à§Ń à§§à§§
circled ot
à¦¾ `
à¦ķ à¦ĵà¦Ń
Ġà§¯ à§®à§¦
Ġà¦°à¦ķà¦® à¦«
Ġsympt oms
{ "
à¦ī à¦¬à¦¸
Ġn ond
à¦¼à¦¾à¥¤ âĢĿ
Ġcomment ed
Ġà¦Ĺà¦¦ à¦ĸ
@* %!
à¦°à¦ª à¦¬à¦ķ
ang ana
Ġà¦¯à¦¤ à¦ľà¦¨
Ġsatis faction
à¦ł à¦«
Ġà§¬ à§¨à§¯
à¦°à¦®à¦£ à¦ĵ
à¥Ī à¥¤
à¦¬à¦¨ à¦¹
Ġà§« à§©à§«
Ġà¦ľà¦² à¦Ł
Ġsh it
Ġ9 84
sub st
Ġepis odes
orig in
Ġpost à¦¬
Ġport uguÃªs
Ġposs ess
Ġbeg um
à¦¥ à¦ªà¦¨
Ġp lastic
Ġm ent
Ġd t
Ġhy po
Ġpri or
Ġafric an
à¦²à¦¨ à¦¤
à¦¼à§ĭ âĢĻ
ri ya
à¦¯à¦® à§°
04 0
à¸ ª
Ġwom ens
Ġsupport ed
ar c
à§§à§® à§¯
ram u
bel ie
à¦Łà¦ľà¦¨ à¦°
Ġdesp ite
miz u
Ġà¦Ĩà¦® à¦Ŀ
Ġintel lect
à¦Ĺ à§°à§°
Ġh onda
36 2
oc ide
Ġincred ible
banglat v
Ġ Äģ
Â» .
nar ailkantho
Ġà¦Ĺ à¦¹à¦°
à§¨à§¦ à§®
ÙĪ Ø¡
05 5
à¦Ĩà¦Ĺ à¦°à¦¤à¦²
Ġdia bet
4 18
Ġch i
à´ ´
finger lings
Ġra re
07 0
Ġà§§à§®à§® à§ª
Ġele ven
à¦ĩ à¦Ĩà¦°
à¦¸à¦ķ à¦Ĺà¦£
Ġag r
tag name
Ġdr tuber
ote ch
Ġâĸ ¶
Ġahmed manager
Ġpint mizu
Ġà¦Ĩà§± à¦¶
à§ĩ .......
Ġà¦® à¦ľà¦®
ĠØ¥ ÙĦ
Ġprint ed
Ġcrim eb
Ġh iv
à¦ĩà¦Ł à¦¦
Ġ20 9
ĠØŃ ØªÙī
Ġtrans lat
Ġek ush
Ġr tm
rit i
à¦Ķ à¦·à¦§
ãģ ¾
Ġoper ator
06 7
g ol
Ġà¦Ĩ à¦ªà¦°
em an
Ġpresent ation
h un
Ġhapp ens
Ġà§ª à§©à§©
à¦°à¦¹à¦£ à¦¸à¦¹
Ġmod els
Ġ*** *
Ġà¦² à¦ĩà¦¬
à¦¾à¥¤ âĢĺ
Ġde fe
Ø§Ø± ÙĬ
Ġhapp iness
áĥ ¥áĥĲáĥłáĥĹáĥ
\\ \\
à¦² à¦¤à¦°
à¦¹à¦°à¦£ à¦Ł
Ġhor oscope
åı ¯
áĥ¥áĥĲáĥłáĥĹáĥ £áĥļáĥĺ
Ġà¦¹ à¦Ľ
âĢĶ âĢĵ
04 7
wh ile
à§§à§¬ à§¨
à§¨à§¨ à§©
ãĥ ĥ
Ġch ronic
à¤° à¤¬
ni um
sex y
Ġà¦¸à¦¦ à¦°à¦¸à¦¹
Ġenter ed
Ġrelation ships
Ġdictionary à¦ª
Ġjoh ns
Ġinstit utions
Ġocc up
à¦® à¦łà¦¬
87 8
à¦¤à§İ à¦¸à¦®
à¦ĩ à¦ıà¦°
Ġfor b
---- --
Ġquiz à¦¬
à¦¬ à¦¬à¦¨
ra it
Ġwe alth
à¦ķà¦Ĺ à¦®à¦¨
59 7
à¥¤ à§ĩ
ĠâĢ ¹
Ġl uv
Ġfish larval
Ġà¥ «
Ġe cho
58 8
fingerlings larval
Ġà¦¸ à¦ĩà¦¬
à§¨ à§§à§§
Ġd ish
ra ft
Ġfeatures à¦°
t it
Ġra chel
56 6
Ġfish post
Ġpatter n
Ġtaf sir
z ar
Ġà¦īà¦ª à¦ªà¦¤
à§¨à§¦ à§§
Ġwe ap
yy yy
Ġ ãĤ
Ġà¦¸ à¦¤à¦¨
Ġà¦¸ à¦ĵà¦®
Ġt ough
Ġ3 01
Ġpar king
65 9
à¦¹à¦¹ à¦¹
Ġpenet ration
35 4
Ġrang pur
Ġà¦Ĩà¦¸ à¦ª
à¦Ī à¦°
Ġà§ªà§¦ à§¨
Ġanim ation
Ġbandy opadhyay
Å ³
Ġà¦¨à¦¬ à¦Ĺà¦Ļ
25 95
Ġek ti
Ġrequire ments
on ce
Ġw rist
ch ain
ve lop
Ġph en
à§©à§® à§¦
z n
Ġb ub
Ġv il
Ġla yer
po ss
Ġb ull
Ġtw ice
Ġblack jack
Ġconnect ed
Ì ¶
à¦¶ à¦ı
à¦¤à¦° à¦²
Ġgiz bot
Ġf ee
Ġ" /
Ġk aw
Ġà¦ıà¦¨ à¦ıà¦®
Ġun e
55 7
movi e
à¦ķà¦¨ à¦Ń
Ġch urch
Ġguid ance
Ġk ol
Ġu yu
Ġled à¦¸à¦¦à¦¸
Ġt l
Ġà§ªà§¬ à§®
q r
à¦ĵ à¦Ĩà¦ĩ
Ġà§ª à§¨à§§
Ġvis ited
ĠÐ· Ð°
à¦§ à¦ļà¦¨
à¦¯à¦¤ à¦ĩ
Ġà¦ªà¦¤ Åĵ
ci ous
Ġhoss en
pay day
wrap per
Ġh ij
Ġr ally
Ġiq d
Ġn fl
Ġvi br
à¯ ĭ
Ġbel la
Ġà¦¬à¦² à¦¬à¦¤
c ers
Ġà¦¸à¦¨ à§İ
? ,
à¦¨ à¦ıà¦¡
Ġà§« à§ªà§¯
Ġt ank
Ġd ates
à¦°à¦¤ à¦°à¦¤
à® Ļ
Ġme la
Ġperson ality
Ġchud a
m ol
Ġg ather
cl er
Ġà§ªà§® à§«
Ġà§«à§® à§«
É ª
à¦° Ã±
Ġw we
Ġte legraph
Ġmiss ed
Ġcab inet
Ġde k
Ġà¦¶ à¦¬à¦¦
à¦¿à¦Ĥ ?
à¦¯à¦Łà¦ķ à¦ķ
Ġass hole
Ġmain tenance
Ġà¦¤ à¦¹à¦¶
es a
ex xx
Ġà¦Ĩà¦ĩ à¦ıà¦®à¦ĩà¦Ĩà¦ĩ
Ġ23 3
Ġ27 5
Ġà§ªà§¯ à§«
Ġphot ography
Ġhot t
Ġn h
Ġà§§à§ª à§¨à§§
à´ ·
Ġà¦īà¦ĩà¦² à¦¸
Ġres ource
Ġsol ve
Ġste phen
à¦ĩà¦¨ à¦·
Ġ2 26
à§§à§¬ à§¯
av el
2017 09
r ats
à¦° ÆĴ
Ġà§§à§® à§«à§¦
à¦Ń à§±à¦¤
à¦¥ à¦²à¦¸
Ġ3 15
Ġsc am
Ġgener ally
Ġcot ton
Ġp eng
Ġconf irm
Ġdistribut ion
à¦£ à¦²à¦¤
ha h
à¦ıà¦ĩà¦ļ à¦ıà¦²
Ġsou rav
Ġà§« à§©à§Ń
Ġpro be
06 3
Ġhor ror
deal id
c ot
à§ĩ ",
Ġà¦ļ à¦°à¦¸
à¦°à¦¥à¦® à¦¸
th r
Ġas i
Ġbang abandhu
Ġexp and
à¦Ń à¦ķà¦°
à¦¿, âĢĻ
à¦®à¦§ à¦°
04 6
Ġcc news
s il
om Ã¢nÄĥÑĢÑĥÑģÑģÐºÐ¸Ð¹
Ġarticle à¦¬à¦°
Ġislam i
s hak
à¦¯ à¦ļà¦ķ
à¦® à¦¸à¦²
Ġp ier
Ġk w
Ġrec ording
om atic
à¦¬à¦² à¦¤à¦®
ok er
Ġany more
Ð½ Ð°
ox et
ĠÑ Ħ
Ġn us
Ġin tr
55 9
-------------------------------- --------------------------------
Ġsob uj
à¦¹ à¦ĭà¦£
à¦¯à¦¸ à¦¤
Ġbang lal
ĠÐ¿ ÑĢÐ¾
Øª ÙĬ
Ġme ga
Ġcar s
ird aws
Ġess ays
Ġagric ultural
Â ±
Ġà§« à§«à§¬
Ġcomp at
Ġarr ang
Ġv ot
Ġmar ks
06 1
Ġrep lace
07 9
Ġro hs
Ġà§ªà§« à§Ń
à§ģà¦Ĥ ,
) '
Ġle x
Øª Ø¨
kn ow
à¦¬à¦² à¦ª
Ġy as
ðŁ ı
4 30
Ġà¦° à¦ĩ
à¦®à¦¨ Ã±
Ġd ile
og ue
Ġrot ate
Ġà§¬ à§©à§«
Ġà§® à§«à§«
Ġà§° à¦ŀ
ud er
ud ed
101 6
à¦ªà¦° à¦Ł
Ġà§¬ à§©à§¯
Ġà§§à§®à§® à§Ń
Ġkey word
Ġt id
on omy
à§§à§Ń à§§
87 9
val ley
Ġacc utane
Ġbab u
Ġkis u
à¦¾ .........
Ġh emp
ens ity
+ à¥¤
Ġ Ä
à¦¡ à¦īà¦ĩà¦¡
à¦« à¦°à¦ķ
à§ģà¥¤ à¥¤
Ñģ Ð°
hidden field
19 95
à¦¸ à¦¸à¦ķ
Ġt ense
){ .
Ġavi ation
Ġà§¬ à§¦à§®
à¦ªà¦¦ à¦Ł
eng e
Ġhe aring
Ġaccept ed
Ġà¦ıà¦®à¦¨ à¦¸à¦¬
Ġà¦ıà¦¡ à¦¹à¦ķ
à¦ł à¦¸à¦¹
à¦ĩà¦² à¦ª
it z
à³ Ĩ
j r
on er
Ġex hib
h ere
n ederlandsnorsk
w is
Ġw z
Ġto wer
à¦Ĺà¦² à¦°
Ġà§ªà§« à§¨
à¦¼ --
à¦Łà¦® à¦Ł
08 9
w ash
Ġ ich
Ġdesign er
mess age
Ġà¦ªà¦¥ à¦ĺ
à¦¨à¦¦ à¦°à¦¬
z g
à¦¾à¦ĥ ),
à¦¸à¦¨ à¦ĩ
zh en
k ap
l if
Ġs ore
Ġà¦Ĩà¦ĩà¦¨ à¦ĵ
07 7
ĠðŁĺ Ĩ
Ġly d
Ġra fi
ven ue
Ġnas ir
Ġà§Ńà§Ń à§¦
, /
Øª Ùħ
Ġ19 83
Ġà§©à§¯ à§©
Ġà§©à§¯ à§ª
Ġen han
m ers
à¦¸ à¦ķà¦Ł
à¦· à¦ªà¦¤
Ġà¦ħ à¦ľà¦ª
à¦ĺ à¦Ĺ
ĠØ§ Ø®
Ġnon ce
3 19
am az
Ġam y
Ġwhen ever
al et
Ġn aw
Ġg n
Ġà¦Ĺà¦¡ à¦¸
Ġmex ico
à¦® à¦¬à¦²
Ġà§Ń à§¨à§Ń
Ġpre d
Ġà¦°à¦Ļ à¦¯
59 6
Ġsynd rome
Ġà¦¸ à¦¦à¦²
Ġ2 27
Ġp ee
Ġd ns
Ġx of
à¦Ĺà¦ł à¦ķà¦¦
enn ial
Ġà¦¬à¦Ľà¦° à¦ª
08 8
Ġres idence
78 8
98 9
à¦¼à§ĩ âĢĿ
Ġà¦ħ à¦®à¦¦
Ġpo k
lass es
Ġà§¬à§¬ à§¬
Ġmet a
Ġà¦Ĩ à¦īà¦¸
Ġ"" );
Ġamader ramu
Ġadministr ator
à¦Ń à¦°à¦¸
Ġsnap deal
à¦®à¦°à¦£ à¦¶à¦ķ
Ġz ak
Ġur du
indi atimes
Ġb ush
Ġb ible
Ġà¦®à¦ĸ à¦®à¦²
Ġsignific ant
n ay
Ġprint f
Ġlet ters
) ").
Ġf le
à¦¹à¦¸ à¦ľ
Ġk oto
access date
69 6
Ġfurn ished
Ġaffili ate
Ġd ite
it ems
Ġnear ly
Ġbes ides
Ġmount ain
Ġdosh dik
à¦° à¦ĩà¦²
id ah
Ġre action
Ġver se
xy cycline
Û ĥ
à¦¬ à¦¤à¦°
à¦¤à¦¨ à¦¹
Ġà¦ıà¦Ł à¦®
à§§à§¯ à§«
ÙĨ Ø²
Ġà§§à§ª à§¨à§¦
Ġr wf
Ġà¦¬à§° à¦Ļà¦£
Ġà® ĵ
Ġnot iced
Ġpanch ayat
l ux
à¦¾ Â¤à§į
Ġà¦¹à¦¤ à¦ļ
à¦īà¦¨ à¦¶
om sokal
Ġ3 75
Ġy Ã©
Ġst arm
Ġà§©à§® à§¯
Ġhold ing
Ġpix el
p la
à¦°à¦¤ à¦¯
)à¥¤ à¥¤
Ġà¦Ĩà¦²à¦® à¦ª
gr ad
Ġmys ql
prot omsokal
Ġb nd
à¦ıà¦ķ à¦¸à¦®à¦¯
Ġpr ison
Ġsha hri
à¦Īà¦¦ à¦Ĺ
Ġdol l
à¦¬à¦¨ à¦ļà¦ķ
Ġà¦īà¦¤ à¦ª
à¦°à¦ª à¦Ļ
Ġà§«à§¦ à§®
Ġlevel s
Ġs b
Ġn asa
à¦Ī à¦¯
Ġde kha
Ġle ts
"> </
Ñħ ÑĢ
à¦°à¦¤ à¦Ń
id oy
59 8
Ġhaj j
à§§à§ª à§§
Ġà§©à§¯ à§¬
47 4
zz zz
Ġà§§à§®à§® à§©
s ave
Ġ???????? ???
Ġsp elling
Ġa am
Ġ[ /
Ġsu z
Ġask ing
à¦§ à§İ
Ġcl ients
Ġà§§à§® à§®à§®
Ġsal im
aust ral
à§¨à§ª à§Ń
Ġsal ary
à¦Ĺ à¦¦à¦°
Ġt ail
Ġk ript
emp loy
Ġà¦® à¦ĺ
ĠÂ ¥
az e
Ġsur ah
b ia
à¤¨ à¤¸
Ġà§Ńà§¯ à§¦
ama ha
à¦°à¦® à¦¦
Ġj r
Ġcall ing
Ġprofession als
x ecf
Ġà¦ī à¦Ĺà¦¡
Ġco ins
ÑĨ Ð°
lo ye
à¦¡à¦¨ à¦Ń
ok es
Ġmet formin
xecf dx
Ġme g
Ġsome body
Ġcar p
Ġfol ks
Ġà¤¬ à¤¹
Ġinc est
Ġb ought
el i
ver b
Ġlow est
Ġcer emony
à¦ĩà¦¨ à¦¨
Ġà§« à§«à§Ń
à¦Ĺà¦² à¦®à¦¯
sh id
m ast
esh op
Ġla ge
m ak
v ote
Ġ17 1
Ġadd ing
Ġfa q
Ġbroad cast
Ġà¦®à¦¨ à¦²
29 2
elf are
Ġs ult
Ġc ri
es c
vi eÅ¡
Ġsle e
Ġà¦Ĩà¦ĩà¦ı à¦ıà¦¨à¦ıà¦¸
b ell
à¦ī à¦ĩà¦®
à¦ĩà¦¡ à¦ķ
Ġà§«à§¯ à§«
Ġbh ag
Ġleg s
Ġvac c
à¦·à¦£ à¦¯
à¦²à¦Ĺ à¦®
Ġmak er
Ġfit ness
ÄįeÅ¡t in
Ġd l
Ġam ir
Ġà¦īà§İ à¦¸à¦®
Ġà§¦à§§à§Ń à§§à§¨
áº ı
Ġo bl
Ġfab ric
ĠyÃ© etel
( _
Ġà§« à§¨à§¬
à§ĭà¥¤ à¥¤
iv i
Ġà§¬ à§§à§«
Ġ19 1
Ġ19 84
Ġsy mphony
pad ak
à´ķ à´°
Ġdep th
à¦ıà¦« à¦ıà¦ķ
sh ay
à¦²à¦¶ à¦¯
Ġl d
06 8
Ġdi ary
secon d
à¦ļ à¦¢
à¦Ĳ à¦ļ
à¦ķà¦ķ à¦¥
ib e
à¦¨à¦¸à¦® à¦ĵà¦¯
Ġà¦ī à¦Łà¦ª
Ġà¦®à¦¨ à¦®à¦°
à§¯ à§«à§¦
à¦Łà¦¨ à¦¸à¦¹
Ġab ir
Ġleg is
writ ing
sizetable head
Ġdel ight
Ġà¦ħ à¦²à¦®
Ġhigh way
Ġamong st
Ġhaw ker
p as
à¦· à¦°à¦¬
Ġà§® à§¬à§¦
us hey
à§§à§® à§®
45 4
gr id
Ġà¦² à¦ª
Ġà¦Ĩà¦° à¦¹
Ġà§ªà§Ń à§§
suom if
i w
à¦° à¦ħà¦¨
Ġa us
Ġà§ªà§¬ à§Ń
Ġà§¬à§¯ à§¦
Ġà¦ī à¦°à¦¸
Ġh ook
Ġà¦¹à¦ķ à¦ĵ
Ġla m
** ##
Ġinter ior
Ġsun g
Ġauth ent
Ġà¦Ĩ à¦īà¦¡
à¦¶à¦² à¦ªà¦¤
à¦ıà¦ĩ à¦ı
7 29
Ġ ................................
Ġs op
Ġà§¯ à§§à§¦
Ġk rist
ig s
Ġgr ad
Ġels ewhere
col umn
Ġdef ence
à¦Ĺà¦® à¦ª
20 30
ug al
08 5
34 1
Ġà¦¬ Ã¸
Ġf erd
Ġj har
à§©à§¦ à§©
ere ad
"; }
b ha
Ġà¦° à¦¡à¦°
à¦²à¦ķ à¦ĩ
Ġà§¬ à§«à§Ń
Ġl te
Ġal um
.) âĢĻ
Ġend ing
å Ľ
Ġà¦¬ à¦ķà¦¤
à¦ĵà¦ĵ à¦ĵà¦ĵ
Ġseng upta
Ġs f
Ġg hs
à§§à§¯ à§©
Ġà¦ıà¦¡ à¦ľ
Ġ19 60
à§Ģ? âĢĿ
39 4
Ġmom ents
Ġmal ay
= &
f ound
???? ?
kh and
à¦¯à¦ĸà¦¨ à§°
c bd
n h
à¦Ĩ à¦²à¦¤
Ø³ ÙĦØ§Ùħ
08 6
8 80
à¦Ł à¦²à¦ķ
st a
ãĥ Ī
r ated
Ñ ī
Ġs ne
Ġin ner
ps y
Ġunivers al
Ġs ft
à¦ªà¦¦ à¦ª
à¦Łà¦¸ à¦Ļ
ust ed
Ġ2 99
Ġà¦ķà¦² à¦ª
à§§à§Ń à§Ń
Ġsak ib
n ya
ad ar
Ġà§® à§Ńà§¦
ap i
Ġà§©à§¯ à§¨
Ġà§ªà§¬ à§¨
Ġà§¬ à§¯à§¯
Ġà¦īà§İà¦¸ à¦¸
ric ts
Ġâĺ Ĩ
à¦ĵ à¦°à¦ª
Ġ[ ]
Ġà¦ķà¦¨à¦ķ à¦ļ
Ġfan pop
Ġsqu ad
à¦ª à¦¤à¦°
Ġfl or
om in
Ġaffect ed
ar ily
Ġà¦Ĩà¦ķ à¦·
Ġà¦Łà¦ª à¦ħà¦°
à¦¼à¦¿ à¦ģ
à§¨à§¦ à§«
ex am
Ġà¦ıà¦¹ à¦Ľ
à§į ^
Ġin n
Ġj at
Ġy u
à§¨à§¨ à§®
Ġsp ank
Ġteknaf news
à¦¸ à¦Ĺà¦¡
Ġres ol
Ġkind a
Ġtur key
à¦°à¦¹ à¦ĩ
ch ed
ĠØ¨ Ø¹
Ġor g
ĠØŃØ¯ Ø«
esh ow
! à¥¤
Ġà¦ĩ à¦ĩà¦ĩ
................ ..
4 13
l ib
Ġà¦¸ à¦ĺà¦¨
Ġà¦Ĩà¦² à¦Ŀ
à¦²à¦¤ à¦®
Ġr if
Ġspan ish
Ġsuggest ions
Ġà¦ī à¦Ńà¦ķ
Ġeff orts
ival ent
Ġà¦Ĺ à¦«à¦«
an u
Ġà¦Ĩà¦ĩ à¦ĵà¦¸
gu ard
Ġshom padak
Ġobserver bd
à¦ĩ à¦ħà¦ķ
Ġb ing
Ġre pt
Ġà¦Ńà¦¬à¦¨ à¦ķ
Ġà¦ıà¦ıà¦® à¦¡
Ġsc ar
del hi
un categorized
à¦ĩà¦ī à¦®
Ġà¦¤à§İ à¦¸à¦®
Ġk ir
gen er
Ġam id
ob d
ĠØ¹ÙĨ Ø¯
Ø±Ø¬ Ùĩ
à§¨ à§¨à§ª
Ġ3 03
uvi Å³
b kash
Ġs ans
Ġà§¬ à§¦à§¨
englishes peranto
calendar list
Ġm ith
ew are
bang a
c ab
à§§à§Ń à§¬
up length
time offset
Ġfil led
Ġsleep ing
Ġt aste
Ġà¦«à¦² à¦ĩ
ĠØ§ÙĦ Ø¶
Ġ24 5
59 5
blogger calendarlist
Ġà§ªà§« à§§
Ġreal me
ĠÑģ ÑĢÐ¿
ithrom ax
à¦ª à¦®à¦¯
Ġà¦Ĩà¦° à¦ıà¦ķ
at ives
à¦¸à¦® à¦¬
à° ¡
Ġà¦¡ à¦¸
Ġà¦Ĩà¦ª à§İà¦ķ
Ġr hy
Ġch it
46 4
Ġ\ [
à¹ ģ
Ġbcl ist
à¦¼à§ĩ âĢĻà¥¤
Ġp wd
ko hrvatski
f ade
à¦¤ à¦¶à¦¤
el or
Ġbut ter
Ġsun dor
ffic ient
Ġfru it
Ð²Ð°ÑĤ ÑģÐºÐ¸
an agar
ÑģÐºÐ¾ ÑħÑĢ
ĠÑģÑĢÐ¿ ÑģÐºÐ¾ÑħÑĢ
ĠÑģÑĢÐ¿ÑģÐºÐ¾ÑħÑĢ Ð²Ð°ÑĤÑģÐºÐ¸
Ġre ject
Ġà¦¸à¦ķà¦² à¦ĩ
Ġà¦ıà¦ıà¦® à¦¸
Ġterror ism
p lement
Ġà§« à§ªà§Ń
à¦¹à¦² à¦¦
Ġmill ions
Ġcommission er
à¦ļ à¦¶à¦®
77 0
Ġbrun ette
à¦°à¦ķ à¦Ĺà¦£
Ġb p
à¦¹à¦² à¦Ł
Ġj ur
commer cial
b ie
Ġà¦¡ à¦¬à¦ķ
Ġi ra
à¦¨à¦Ĺ à¦°à¦¬
Ð¾ ÑĤ
Ġop position
à¦¬à¦ķ à¦¹
Ġr amp
Ġfact or
g ang
à¦¿ ",
à¦¦ à¦°à¦¤à¦®
à¦¹ à¦Ľ
ch ang
Ġà¦ĵà¦ł à¦Ľ
Ġla ser
bl s
Ġà§¬ à§¨à§§
Ġ3 05
ãĢ ĳ
Ġcht today
Ġz a
à¥¤âĢĿ [
Ġstop ped
à¦® à¦°à¦¹
à¦ĺ à¦¤
Ġà¦Ĩà¦² à¦¨
Ġc ass
à¤ ħ
à¦Łà¦® à¦¹à¦²à¦¬
Ð¾ Ð´
Ġweek à¦°
Ġorgan iz
Ġà§« à§§à§¬
Ġbangla post
Ġo g
z u
Ġal cohol
Ġtransl ate
Ġà´ ¤
Ġmatch es
univers ity
à¦ĩ à¦®à¦ķ
Ġi re
Ġra ised
Ġz oo
Ð° Ð·Ð°
Ġconsider ing
f ab
Ġà¦Ł à¦²à¦¤
an and
à§§à§¯ à§¬à§§
Ġsh adhin
Ġprom ote
jon mo
à¦® à¦Īà¦¨
loye es
Ġm ans
Ġass istance
ig y
à¤° à¤£
Ġcirc um
ãĤ ¤
des i
Ġshah id
Ġà¦ħ à¦¦à¦²
Ġà¦ªà¦¥ à¦¹
ĠØ£ Ùħ
à¦Ĩà¦ľ à¦ĵ
Ġdim ention
Ġm idd
à¦¦à¦¨ à¦¤
Ġra zz
à¦Ĩà¦ĩà¦¨ à¦¶
ĠØ§ÙĦØŃØ¯ ÙĬØ«
à¦¤ à¦īà¦²
à¦ĸ à¦§
Ġà¦ĩ à¦ı
Ġg ent
Ġg upta
k ak
à¦¯ à¦Ĺà¦¨
Ġl iver
Ø¯ Ø§
ud u
à¦ķ à¦ªà¦£
ØŃ Ø¨
Ġcompan ions
à¦¦ à¦¶à¦Ł
Ġh ash
Ġg w
Ġj md
op er
ĠØ´ Ø±
d reams
g reat
à¦² à¦¤à¦¨
à¦ļ à¦®à¦¨
Ġà§ª à§ªà§§
if orm
à¦« à¦¥
Ġa ap
et v
ur g
Ġà¦Ĩà¦§ à¦ĸ
Äį ina
Ġ Ñĩ
à¦® à¦¶à¦²
à¦°à¦¤ à¦ªà¦ķ
Ġland ing
Ġslog an
4 12
n oyon
Ġp st
à¦®à¦¤ à¦ĩ
Ġà§ªà§® à§¨
Ġfe ver
Ġcrimeb arta
Ġà¦° à¦°à¦°
Ġà¦ıà¦ĸ à¦¬à¦°
Ġsh il
Ġà¦Ĩà¦ļ à¦¡
art an
Ġad hik
Ġfunction s
im ag
h b
à¦ļ à¦¬à¦Ł
th ed
Ġà¦ıà¦Ĺ à¦ľ
Ġor acle
Ġenjoy ing
Ġt ul
Ġg it
Ġà¦Ĩà¦¹à¦®à¦¦ à¦¸à¦¹
Ġà§ªà§® à§©
ens is
Ġprodu ced
re v
vi k
à¦¾) âĢĻ
Ġind o
Ġpath eo
à¦² à¦Ĺà¦²
ĠÑ ħ
Ï ħ
Ġà§Ń à§¦à§¯
Ġchic ago
à¦ķ à¦ªà¦°
th al
d ire
Ġj or
ib ar
Ġà§«à§® à§¨
Ġdevelop ing
Ġsign al
Ġhur t
ðŁ ¤
Ġà¦¬à¦°à¦ķà¦¤ à¦īà¦²
Ġmass ive
b ik
à¦ĩà¦¨ à¦¹
à¦°à¦¨ à¦Ń
am it
à¦²à¦Ĺ à¦ª
Ġà§§à§® à§¯à§©
Ġà¦Ĺà¦° à¦ľ
Ġparticular ly
ĠØ£Ø¨ ÙĪ
à¦¼ ......
in op
Ġg our
Ġk ot
Ġj ub
Ġà¦Łà¦¹à¦² à¦¦
âľ º
Ġmonitor ing
Ġà¦¬à¦°à¦® à¦ļ
. ]
Ġn id
Ġmo q
Ġamar boi
Ġext ract
c ies
Ġm la
Ġg out
ĠÎ ±
à¦¾âĢĿ -
à¦§ à¦ĺ
Ġà§« à§§à§ª
à¦ıà¦² à¦ĩà¦¡
rb ay
Ġe val
eng ine
09 8
Ð¸ Ð¼
Ġmost ly
ran Ã§ais
3 40
à¦°à¦ķ à¦¸à¦¹
à¦¬à¦° à¦§
Ġà§« à§ªà§®
st or
Ġg host
ha j
ÛĮ Úº
Ġak ht
à¦® à¦°à¦¸
à¦¼à¦¿ à¦Ĥ,
Ġs ext
Ġm oulvibazar
Ġà§¬à§¬ à§«
Ġquar ter
à¦¨ à¦ĩà¦¨
Ġ3 25
Ġle kh
Ġimpro vement
z ia
Ġth umb
Ġà¦ĵà¦ĩ à¦¬
Ġà¦Ĩà¦Ł à¦¦
Ġmu j
but tons
Ġlist ening
5 10
ir ing
Ġpro tic
o ss
à¦īà¦¥ à¦ĵà¦¯
Ġinc or
Ġaccess ories
Ġà¦ľ à¦Ĺà¦®
in line
Ġt ila
Ġl ust
Ġy oga
09 0
pro f
pa ul
à§Ģ *
Ġm oo
th eme
Ġv u
ÙĨ Ø³
Ġà§¬à§Ń à§«
Ġà¦ıà¦ķ à¦ĸà¦£
âĢĿ !
Ġpract ical
Ġà¦ī à¦Ľà¦®
à¦ķà¦°à¦£ à¦¸à¦¹
âķ® âķ
Ġà¦ĸ à¦¤à¦¨
Ġà§« à§©à§¨
Ġ19 86
Ġmam mal
Ġthousand s
Ġbanglapost bd
r ise
Ġà§¬ à§¨à§¬
Ġà¦ıà¦ķà¦¦ à¦«
Ġà¦¸ à¦°à¦¬à¦¤
',' #
Ġj afar
pol skip
Ġincre asing
ÉĻ rbay
Ġà§Ń à§©à§®
Ġà§§à§® à§¯à§§
qu ar
à¦ĩ à¦ıà¦¸à¦ķ
Ġw ars
à¦Ńà¦¬ à¦ĩ
à¦Ĭ à¦¯
Ġresp ond
Ġà¦ľà¦¨ à¦¸à¦¨à¦ķ
ÙĨ Ùĥ
af orex
à¦ĩà¦īà¦ıà¦¨ à¦¬
elect ric
Ë Ĩ
à¦· à¦¨à¦ķ
Ġà§¬ à§§à§¬
à§§à§¯ à§«à§¦
pol ice
Ġb am
Ġst ages
à¦¤à¦°à¦£ à¦¸à¦¹
Ġpow der
f ram
à¦¶ à¦·
à§§à§Ń à§®
ĠÙĪ Ø±
ðŁĺ į
Ġà¦ķà¦°à¦¬ à¦ĩ
Ġam ph
Ġd ctable
à¦²à¦¤ à¦Ĺ
Ġà¦Ĺà¦£ à¦¸à¦®
size hiddenfield
Ġair tel
ĠØ§Ø³ Øª
dimentiontable head
c lap
Ñ Ķ
à§Ģ à§ĩ
à¦¸à¦¦ à¦¬
Ġà¦ĵà¦ª à§°à§°
lok on
à¦¨ à¦Ĩà¦²
ht a
à¦ªà¦£ à¦¨à¦ķ
à¦¦à¦ķ à¦°à¦£
Ġw elfare
Ġwh it
wik imedia
ster dam
à¦Ńà§İà¦¸ à¦¤
g ay
st ay
ut an
à¤ľ à¤°
t Ã¼rkÃ§e
Ġà¦īà¦ł à¦¬à¦¸
Ġhaz ard
h v
Ġà¦® à¦ļà¦ķ
Ġdis ney
ps kohrvatski
à¦ļ à¦°à¦£à¦ķ
à¦ķà¦° à¦ĵ
Ġk l
Ġà¦¹à¦ķ à¦ļà¦ķ
Ġpro pos
Ġro d
Ġhers elf
% }.
Ġà¦§ à¦¨à¦¤
lo ans
Îµ Î»Î»Î·Î½Î¹ÎºÎ¬
Ġ: ...
à¦īà¦¡ à¦¬
Ġs ons
Ġs oph
ang an
to col
ij ing
ork ar
ÙĢÙĢ ÙĢÙĢ
obo lokon
ÉĻrbay can
ig an
Ġr j
os exual
Ġcook ing
à¦¨à¦ķ à¦¯
Ġrep lacement
hh obi
Ġdam age
Ġà¦ľà¦¨ à¦ķà¦ķ
Ġid i
Ġà¦ħà¦¬ à¦¦à¦®
Ġi k
Ġà¦¬à§° à¦Ĺ
Ġs ov
ang on
Ġhol iday
3 49
Ġj elly
à§§à§Ń à§©
Ġdipl oma
à¦ľ à¦¤à¦ķ
erb ashi
Ġprotic hhobi
Ġà¦ĺ à¦°à¦¦
à§§à§® à§ª
Ġremov ed
à¦°à¦ķ à¦ĵ
à¦®à¦¨ à¦¸à¦¹
Ġd ha
=" +
y cin
à¦¤à¦¨ à¦¸
Ø¨ ØŃ
Ġip od
cap e
Ġà¦ķà¦° à¦®à¦ļ
Ġà§« à§§à§§
lo ft
Ġbd latest
Ġge org
Ġpleas ant
Ġflow er
: {
; </
à¦ĩ à¦¬à¦°
Ġn s
am ati
à¦ıà¦ĩà¦ļ à¦¬
Ġsl ight
getelementsby tagname
ĠâĢĺ (
35 1
Ġce o
Ġbish erbashi
Ġexpl an
Ġà¦¶ à¦ľ
... à¥¤âĢĻ
Ġà§¬ à§«à§¬
be at
ft i
Ġà§«à§¬ à§©
Ġmir pur
5 20
à¦²à¦ª à¦¥à¦®à¦¨
Ġsuggest ion
who le
Ġph ones
af i
à± ĭ
Ġreturn ed
à§¨ 0
à¦¹à¦¤ à¦ķ
hal f
b ian
à¦£ à¦ªà¦¦
ct s
Ġsha won
Ġchem ical
j ol
ï ĥ
Ġa er
Ġp urs
Ġproper ly
ĠâĻ ķ
ib et
rist y
à¦¯ à¦¤à¦°
Ġà¦² à¦ĩà¦Ł
Ġf uk
à§Ģà¦ĥ -
Ġfall s
d ut
à§° à¦·
Ø³ ÙĦ
Ġdream sylhet
Ġ à¦ģ
à¦² à¦ªà¦¨
Ġ- âĢĿ
Ġg ear
w t
Ġret ail
Ġpresent ed
x m
Ġx y
Ġà§ªà§¯ à§§
6 97
p ara
á Ĭ
ac count
ib azar
Ġmad hy
à¦¸à¦ķ à¦°à¦£
Ġpres ence
Ġà¦ħ à¦¥à¦¨
ÙĨ Ø¬
ai ra
Ġwill iams
Ġkeep ing
Ġà¦Ĩà¦¦ à¦Ń
ur er
Ġis is
Ġà¦ĩà¦®à¦¨ à¦ķ
Ġdig it
) //
se as
Ġdaily times
Ġdr iving
Ġà¦Ń à¦¦à¦¨
Ġm ood
Ġw ise
à§§à§¯ à§ªà§®
Ġaware ness
d ot
f g
à¦ī à¦ıà¦«à¦ª
re sp
Ġà¦Łà¦¹à¦² à¦¦à¦²
ĠØº ÙĬØ±
Ġà¦ªà¦° à¦®à¦¹
foot er
Ġà¦¬à¦° à¦ªà¦ķ
à¦°à¦ª à¦¡
à§§à§¯ à§¬à§©
Ġor gas
Ġb ich
Ġre act
à¦®à¦¨ à¦¬à¦®
Ġà§« à§©à§¯
Ġà§§à§® à§Ńà§¨
ĠÙħ Ø³ÙĦÙħ
mach ine
à¦ī à¦Ĩà¦ĩ
Ġt n
ik ar
à¦¼à¦¿ à¦Ĥ-
Ġj ones
Ġne uro
à¦¬ à¦¹à¦¸
à¦ĩ à¦Ĩà¦°à¦¡
à¦Ń à¦²à¦¨
à§¨ à§¨à§«
à¦¶à¦¨ à¦®
od er
Ġinter racial
Ġgy ne
Ġlaunch ed
à¦¬ à¦§à¦¨
Ġà¦Ł à¦¡
07 6
Ġkor un
Ġopen ed
Ġsecre ts
Ġfaz il
Ġà¦¬ à¦ª
Ġre z
Ġsust ain
à¦ķ à¦ļà¦¨
Ġm ug
à§ĩ! "
Ġap plied
Ġcomm itted
à¦¡ à¦¦à¦²
Ġà¦¬à¦° à¦·
}} @
Ġnob ody
Ġà¦¨ à¦®à¦°
à¦¼à¦¿ /
ĠØŃ Ùħ
34 2
Ġbank s
âķ Ĳ
lo ts
Ġà¦ľà¦² à¦ĺ
Ġsp ac
Ġà§«à§Ń à§§
att le
p ahar
à¦²à¦ķ à¦®à¦²
pur ush
Ġfin n
_ Â©
Ġà¦Ĩà¦° à¦ıà¦®à¦ĵ
Ġsp ons
Ġà§Ńà§Ń à§«
à¦¼à¦¾ à¦¾
Ġà¦ĵ à¦²à¦Ĺ
à¦ķà¦° à¦Ľ
à¦¾à¦ĥ à¥¤
Ġpre view
ab ar
à¦¥à¦ķ à¦·
à§¨à§¬ à§¦
à¦² à¦¡à¦¨
à¦Ł à¦²à¦¸
Ġà¦ıà¦®à¦ıà¦² à¦ı
q c
s us
à¦¤ à¦Ĺà¦ŀ
Ġ! âĢĻ
Ġpl ants
pri y
m is
à¦Ĩ à¦¶à¦¯
à¦¼à¥¤ -
Ġà§« à§«à§¯
Ġà¦īà§İà¦¸ à¦Ĺ
dd et
Ġadvent ure
d ream
à¦īà¦¨ à¦¬
19 90
product size
Ġà¦ĵà¦²à¦Ł à¦ª
Ġà¦ıà¦®à¦ĵ à¦ĩà¦ī
purchase productsize
ĠÃ ¯
à¦®à¦¸à¦¨ à¦¦
Ġsab bir
c ms
Ġà¥¤ ...
Ġd ys
à§§à§¯ à§«à§®
englishesperanto es
Ġs ot
à§ĭ, ,
Ġà¦Ĩà¦ĩà¦ıà¦¸ à¦ıà¦¸à¦ıà¦¨
hu a
Ġtour ist
Ġukh iya
Ġà¦¬ à¦īà¦°
à¦Ĩ à¦Ń
Ġà¦¤ à¦²à¦¸
Ġb kash
ish i
67 0
has class
ansk deutsch
Ġab h
Ġà¦¸à¦«à¦Ł à¦ıà¦ķ
ition s
in ch
rit y
Ġsat y
euro pe
Ġy og
à¦Ĺà¦łà¦¨ à§°
int age
ograph ic
b ill
j et
as is
Ġre med
Ġor ders
Ġserv ant
Ġbuddh ist
Ġà¦¹à¦°à¦¦ à¦®
Ġar gent
Ġà¦ĭ à¦¤à¦¬
à§ĩâĢĻ âĢĻ
à¦ľà¦¦ à¦°à¦¬
l est
Ġà¦Ĩà¦¨ à¦°
Ġo dd
et ers
à§ĩ. à¥¤
Ġun ic
37 3
Ġep ic
Ġcitiz ens
Ġm cc
ch u
Ġà¦«à¦°à¦® à¦Ł
Ġcy cle
f ashion
à¦¶à¦ķ à¦¸à¦¹
Ġe ve
Ġgr id
Ġpunish ment
t ai
09 5
Ġà¦ķà¦¬à¦° à¦Ł
47 2
Ġbu khari
wh ich
jo in
w eek
à¦¨à¦ķ à¦°à¦£
à¦·à¦¦ à¦¸à¦¹
à¦¨à¦® à¦Ĺ
à¦¿âĢĻ !
Ġdecla red
g ale
Ġà§¬ à§¨à§©
Ġà¦ıà¦ĩà¦ļ à¦ıà¦¸
Ġbel le
Â§Â ģ
Ġ4 04
à¦¸à¦ªà¦¨ à¦¸
ins on
ren ce
Ġsub scription
Ġà¦Ĩà¦¦ à¦®à¦ķ
Ġà¦ªà¦¦ à¦¤à¦²
Ġà§¬à§¬ à§ª
66 8
Ġà§¨ 4
Ġb um
Ġw o
Ġà§Ń à§¦à§«
Ġà¦ķà¦¤ à¦ľà¦¨à¦ķ
à§§à§« à§¦à§¦
Ġaf raid
Ġclear ly
somoy bangla
à§§à§® à§©
ath an
à¦Łà¦ĸ à¦Ł
Ġinf ra
à¦Ł à¦ħ
Ġm ish
ib o
Ġabu se
j og
Ġà¦¬ à¦īà¦¬
Ġà§§à§® à§Ńà§®
ick r
à§¨à§¯ à§¯
Ġà§ªà§® à§®
Ġiniti ative
e asy
Ġà¦Ĩà¦¨ à§°
Ġ19 72
à¦Ĩ à¦ĺ
Ġà§« à§§à§«
Ġà§¬ à§¦à§ª
Ġà§® à§©à§¦
Ġà§° à¦¨
ĠØ¨ ÙĬÙĨ
Ġhelp ing
Äįin as
4 35
Ù £
al em
Ġà§ªà§¯ à§ª
e à¦®
à¦¿ ???
à¦¶ à¦°à¦¹
Ġw er
ĠÙĬ Ùĥ
Ġgen ocide
stud y
d g
p ussy
à¦¨ à¦¦à¦°
Ġad idas
" />
à¦¾à¥¤ âĢľ
Ġm ub
st ation
Ġà¦¸à¦ļ à¦ķ
Ġro s
cc er
Ġà¦° à¦ĩà¦ļ
Ġà¦Ĩà¦ĩ à¦ľà¦²
Ġ4 30
36 3
n j
à¦¡ à¦¬à¦¯
Ġà¦¸à¦¨ à¦®
fi ed
Ġelect rical
bir th
Ġcr imes
i ro
Ġto w
ĠØ§ Ø¹
57 0
ipur online
à¦¹à¦¹à¦¹à¦¹ à¦¹à¦¹à¦¹à¦¹
re ading
Ġto ggle
Ġadvant age
it zer
Ġw rest
à¦¨à¦¬ à¦¦à¦²
à§§à§Ń à§¯
97 6
Ġà¦² à¦¹
Ġà¦ķà¦® à¦ķà¦°
Ġà§¬ à§¨à§Ń
Ġo dis
" ),
à¦²à¦¤ à¦¤
à¦²à¦¤ à¦ĵ
Ġà§§à§© à§¨à§¦
rent al
à¦¦ à¦ļà¦¯
Ġà¦² à¦¹à¦°
Ġth ailand
Ġà§«à§¯ à§ª
ÒĽ Ð°Ð·Ð°
ÒĽÐ°Ð·Ð° ÒĽ
à¦ķ à¦¶à¦ķ
à¦Ł à¦Ĩà¦īà¦Ł
à¦· à¦ļ
Ġd nn
Ġic o
Ġcert ified
Ġà¦¶ à¦ĵà¦ķ
Ġà¦ĩ à¦²à¦¨
Ġc ctv
Ġ/ \
ther lands
à¦Ĺà¦² à¦ĵ
tr ademark
68 9
Ġà¦ı à¦ı
Ġà¦ıà¦®à¦¨ à¦¤à¦°
Ġg ir
[...]
