{
  "version": "1.0",
  "truncation": {
    "direction": "Right",
    "max_length": 512,
    "strategy": "LongestFirst",
    "stride": 0
  },
  "padding": {
    "strategy": "BatchLongest",
    "direction": "Right",
    "pad_to_multiple_of": null,
    "pad_id": 50256,
    "pad_type_id": 0,
    "pad_token": "[PAD]"
  },
  "added_tokens": [
    {
      "id": 0,
      "content": "<|endoftext|>",
      "single_word": false,
      "lstrip": false,
      "rstrip": false,
      "normalized": false,
      "special": true
    },
    {
      "id": 50256,
      "content": "[PAD]",
      "single_word": false,
      "lstrip": false,
      "rstrip": false,
      "normalized": false,
      "special": true
    }
  ],
  "normalizer": {
    "type": "Sequence",
    "normalizers": [
      {
        "type": "Nmt"
      },
      {
        "type": "NFKC"
      },
      {
        "type": "Replace",
        "pattern": {
          "Regex": " {2,}"
        },
        "content": " "
      },
      {
        "type": "Replace",
        "pattern": {
          "String": "৤"
        },
        "content": "।"
      },
      {
        "type": "Replace",
        "pattern": {
          "String": "৥"
        },
        "content": "॥"
      },
      {
        "type": "Replace",
        "pattern": {
          "String": "|"
        },
        "content": "।"
      },
      {
        "type": "Replace",
        "pattern": {
          "String": "৷"
        },
        "content": "।"
      },
      {
        "type": "Replace",
        "pattern": {
          "Regex": "(?<=[\\u0980-\\u09ff]):"
        },
        "content": "ঃ"
      },
      {
        "type": "Lowercase"
      }
    ]
  },
  "pre_tokenizer": {
    "type": "ByteLevel",
    "add_prefix_space": false,
    "trim_offsets": true,
    "use_regex": true
  },
  "post_processor": {
    "type": "ByteLevel",
    "add_prefix_space": true,
    "trim_offsets": false,
    "use_regex": true
  },
  "decoder": {
    "type": "ByteLevel",
    "add_prefix_space": true,
    "trim_offsets": true,
    "use_regex": true
  },
  "model": {
    "type": "BPE",
    "dropout": null,
    "unk_token": null,
    "continuing_subword_prefix": null,
    "end_of_word_suffix": null,
    "fuse_unk": false,
    "vocab": {
      "<|endoftext|>": 0,
      "!": 1,
      "\"": 2,
      "#": 3,
      "$": 4,
      "%": 5,
      "&": 6,
      "'": 7,
      "(": 8,
      ")": 9,
      "*": 10,
      "+": 11,
      ",": 12,
      "-": 13,
      ".": 14,
      "/": 15,
      "0": 16,
      "1": 17,
      "2": 18,
      "3": 19,
      "4": 20,
      "5": 21,
      "6": 22,
      "7": 23,
      "8": 24,
      "9": 25,
      ":": 26,
      ";": 27,
      "<": 28,
      "=": 29,
      ">": 30,
      "?": 31,
      "@": 32,
      "A": 33,
      "B": 34,
      "C": 35,
      "D": 36,
      "E": 37,
      "F": 38,
      "G": 39,
      "H": 40,
      "I": 41,
      "J": 42,
      "K": 43,
      "L": 44,
      "M": 45,
      "N": 46,
      "O": 47,
      "P": 48,
      "Q": 49,
      "R": 50,
      "S": 51,
      "T": 52,
      "U": 53,
      "V": 54,
      "W": 55,
      "X": 56,
      "Y": 57,
      "Z": 58,
      "[": 59,
      "\\": 60,
      "]": 61,
      "^": 62,
      "_": 63,
      "`": 64,
      "a": 65,
      "b": 66,
      "c": 67,
      "d": 68,
      "e": 69,
      "f": 70,
      "g": 71,
      "h": 72,
      "i": 73,
      "j": 74,
      "k": 75,
      "l": 76,
      "m": 77,
      "n": 78,
      "o": 79,
      "p": 80,
      "q": 81,
      "r": 82,
      "s": 83,
      "t": 84,
      "u": 85,
      "v": 86,
      "w": 87,
      "x": 88,
      "y": 89,
      "z": 90,
      "{": 91,
      "|": 92,
      "}": 93,
      "~": 94,
      "¡": 95,
      "¢": 96,
      "£": 97,
      "¤": 98,
      "¥": 99,
      "¦": 100,
      "§": 101,
      "¨": 102,
      "©": 103,
      "ª": 104,
      "«": 105,
      "¬": 106,
      "®": 107,
      "¯": 108,
      "°": 109,
      "±": 110,
      "²": 111,
      "³": 112,
      "´": 113,
      "µ": 114,
      "¶": 115,
      "·": 116,
      "¸": 117,
      "¹": 118,
      "º": 119,
      "»": 120,
      "¼": 121,
      "½": 122,
      "¾": 123,
      "¿": 124,
      "À": 125,
      "Á": 126,
      "Â": 127,
      "Ã": 128,
      "Ä": 129,
      "Å": 130,
      "Æ": 131,
      "Ç": 132,
      "È": 133,
      "É": 134,
      "Ê": 135,
      "Ë": 136,
      "Ì": 137,
      "Í": 138,
      "Î": 139,
      "Ï": 140,
      "Ð": 141,
      "Ñ": 142,
      "Ò": 143,
      "Ó": 144,
      "Ô": 145,
      "Õ": 146,
      "Ö": 147,
      "×": 148,
      "Ø": 149,
      "Ù": 150,
      "Ú": 151,
      "Û": 152,
      "Ü": 153,
      "Ý": 154,
      "Þ": 155,
      "ß": 156,
      "à": 157,
      "á": 158,
      "â": 159,
      "ã": 160,
      "ä": 161,
      "å": 162,
      "æ": 163,
      "ç": 164,
      "è": 165,
      "é": 166,
      "ê": 167,
      "ë": 168,
      "ì": 169,
      "í": 170,
      "î": 171,
      "ï": 172,
      "ð": 173,
      "ñ": 174,
      "ò": 175,
      "ó": 176,
      "ô": 177,
      "õ": 178,
      "ö": 179,
      "÷": 180,
      "ø": 181,
      "ù": 182,
      "ú": 183,
      "û": 184,
      "ü": 185,
      "ý": 186,
      "þ": 187,
      "ÿ": 188,
      "Ā": 189,
      "ā": 190,
      "Ă": 191,
      "ă": 192,
      "Ą": 193,
      "ą": 194,
      "Ć": 195,
      "ć": 196,
      "Ĉ": 197,
      "ĉ": 198,
      "Ċ": 199,
      "ċ": 200,
      "Č": 201,
      "č": 202,
      "Ď": 203,
      "ď": 204,
      "Đ": 205,
      "đ": 206,
      "Ē": 207,
      "ē": 208,
      "Ĕ": 209,
      "ĕ": 210,
      "Ė": 211,
      "ė": 212,
      "Ę": 213,
      "ę": 214,
      "Ě": 215,
      "ě": 216,
      "Ĝ": 217,
      "ĝ": 218,
      "Ğ": 219,
      "ğ": 220,
      "Ġ": 221,
      "ġ": 222,
      "Ģ": 223,
      "ģ": 224,
      "Ĥ": 225,
      "ĥ": 226,
      "Ħ": 227,
      "ħ": 228,
      "Ĩ": 229,
      "ĩ": 230,
      "Ī": 231,
      "ī": 232,
      "Ĭ": 233,
      "ĭ": 234,
      "Į": 235,
      "į": 236,
      "İ": 237,
      "ı": 238,
      "Ĳ": 239,
      "ĳ": 240,
      "Ĵ": 241,
      "ĵ": 242,
      "Ķ": 243,
      "ķ": 244,
      "ĸ": 245,
      "Ĺ": 246,
      "ĺ": 247,
      "Ļ": 248,
      "ļ": 249,
      "Ľ": 250,
      "ľ": 251,
      "Ŀ": 252,
      "ŀ": 253,
      "Ł": 254,
      "ł": 255,
      "Ń": 256,
      "¦¾": 257,
      "à¦¾": 258,
      "¦°": 259,
      "à¦°": 260,
      "§ĩ": 261,
      "à§ĩ": 262,
      "§į": 263,
      "à§į": 264,
      "¦¿": 265,
      "à¦¿": 266,
      "¦¨": 267,
      "à¦¨": 268,
      "¦ķ": 269,
      "à¦ķ": 270,
      "¦¬": 271,
      "à¦¬": 272,
      "¦¯": 273,
      "à¦¯": 274,
      "¦¤": 275,
      "à¦¤": 276,
      "¦¸": 277,
      "à¦¸": 278,
      "¦®": 279,
      "à¦®": 280,
      "¦²": 281,
      "à¦²": 282,
      "¦ª": 283,
      "à¦ª": 284,
      "¦¼": 285,
      "à¦¼": 286,
      "¦¦": 287,
      "à¦¦": 288,
      "§ģ": 289,
      "à§ģ": 290,
      "Ġà¦ķ": 291,
      "Ġà¦¸": 292,
      "Ġà¦¬": 293,
      "¦¹": 294,
      "à¦¹": 295,
      "¦Ł": 296,
      "à¦Ł": 297,
      "¦ľ": 298,
      "à¦ľ": 299,
      "Ġà¦ª": 300,
      "§ĭ": 301,
      "à§ĭ": 302,
      "à¥": 303,
      "¦¶": 304,
      "à¦¶": 305,
      "à¥¤": 306,
      "¦Ĺ": 307,
      "à¦Ĺ": 308,
      "¦Ĩ": 309,
      "à¦Ĩ": 310,
      "¦ĩ": 311,
      "à¦ĩ": 312,
      "¦ı": 313,
      "à¦ı": 314,
      "Ġà¦Ĩ": 315,
      "§Ģ": 316,
      "à§Ģ": 317,
      "¦Ľ": 318,
      "à¦Ľ": 319,
      "Ġà¦®": 320,
      "Ġà¦ı": 321,
      "¦ļ": 322,
      "à¦ļ": 323,
      "Ġà¦¨": 324,
      "Ġà¦¹": 325,
      "¦¡": 326,
      "à¦¡": 327,
      "à¦¼à§ĩ": 328,
      "Ġà¦¦": 329,
      "¦·": 330,
      "à¦·": 331,
      "¦Ń": 332,
      "à¦Ń": 333,
      "¦¥": 334,
      "à¦¥": 335,
      "¦§": 336,
      "à¦§": 337,
      "Ġà¦ķà¦°": 338,
      "¦ĵ": 339,
      "à¦ĵ": 340,
      "Ġà¦¤": 341,
      "¦ĸ": 342,
      "à¦ĸ": 343,
      "¦ħ": 344,
      "à¦ħ": 345,
      "Ġà¦ħ": 346,
      "à¦¼à¦¾": 347,
      "Ġà¦ľ": 348,
      "¦Ĥ": 349,
      "à¦Ĥ": 350,
      "¦ī": 351,
      "à¦ī": 352,
      "Ġà¦°": 353,
      "¦£": 354,
      "à¦£": 355,
      "Ġà¦¶": 356,
      "Ġà¦¯": 357,
      "¦«": 358,
      "à¦«": 359,
      "Ġà¦Ĺ": 360,
      "Ġà¦ļ": 361,
      "§§": 362,
      "à§§": 363,
      "à§ĩà¥¤": 364,
      "Ġà¦ī": 365,
      "Ġà¦ĵ": 366,
      "§¦": 367,
      "à§¦": 368,
      "Ġà¦Ń": 369,
      "§¨": 370,
      "à§¨": 371,
      "Ġà¦¹à¦¯": 372,
      "Ġà¦ªà¦°": 373,
      "âĢ": 374,
      "Ġà¦ıà¦ķ": 375,
      "Ġà¦¥": 376,
      "Ġà¦²": 377,
      "Ġà¦¸à¦®": 378,
      "Ġà¦«": 379,
      "¦ł": 380,
      "à¦ł": 381,
      "Ġà¦ĩ": 382,
      "§Ĥ": 383,
      "à§Ĥ": 384,
      "§ĥ": 385,
      "à§ĥ": 386,
      "Ġà¦ĸ": 387,
      "à¦°à¦¤": 388,
      "Ġà¦Ľ": 389,
      "Ġà¦Ĩà¦®": 390,
      "¦Ļ": 391,
      "à¦Ļ": 392,
      "Ġà¦ħà¦¨": 393,
      "Ġà¦¬à¦²": 394,
      "à§§à": 395,
      "à§§à§": 396,
      "Ġà§¨": 397,
      "¦ģ": 398,
      "à¦ģ": 399,
      "Ġà¦Ł": 400,
      "¦ĥ": 401,
      "à¦ĥ": 402,
      "¦ĺ": 403,
      "à¦ĺ": 404,
      "à¦°à¦ķ": 405,
      "Ġà¦ľà¦¨": 406,
      "à¦ĵà¦¯": 407,
      "à¦¾à¦Ĥ": 408,
      "à¦°à¦£": 409,
      "Ġ(": 410,
      "Ġà¦¡": 411,
      "Ġà¦ıà¦¬": 412,
      "à¦¬à¦°": 413,
      "Ġà¦Ĩà¦°": 414,
      "à¦¾à¥¤": 415,
      "à¦ľà¦¨": 416,
      "à¦®à¦¨": 417,
      "ĠâĢ": 418,
      "Ġà¦ıà¦ĩ": 419,
      "à¦ªà¦°": 420,
      "..": 421,
      "Ġà¦§": 422,
      "¦ŀ": 423,
      "à¦ŀ": 424,
      "Ġà¦ĺ": 425,
      "à¦¼à¥¤": 426,
      "à¦ªà¦¨": 427,
      "à¦¾à¦ģ": 428,
      "âĢĻ": 429,
      "§°": 430,
      "à§°": 431,
      "§©": 432,
      "à§©": 433,
      "à¦¼à¦¿": 434,
      "Ġà¦ıà¦ķà¦Ł": 435,
      "à§ĩ,": 436,
      "à¦¿à¥¤": 437,
      "Ġa": 438,
      "§«": 439,
      "à§«": 440,
      "Ġà§¨à§¦": 441,
      "§Ī": 442,
      "à§Ī": 443,
      "à¦¤à¦°": 444,
      "§ª": 445,
      "à§ª": 446,
      "in": 447,
      "à¦¬à¦¨": 448,
      "Ġà¥¤": 449,
      "Ġà§§à§": 450,
      "Ġà¦īà¦ª": 451,
      "Ġà¦¹à¦¬": 452,
      "à¦¬à¦¸": 453,
      "§Į": 454,
      "à§Į": 455,
      "Ġà§§": 456,
      "à¦ĸà¦¨": 457,
      "Ġà¦Ĩà¦²": 458,
      "à¦°à¦®": 459,
      "Ġt": 460,
      "Ġà¦Ĩà¦¸": 461,
      "Ġà¦ķà¦°à¦¤": 462,
      "Ġà¦®à¦¨": 463,
      "Ġà¦ıà¦°": 464,
      "à¦ķà¦°": 465,
      "à¦¶à¦¨": 466,
      "ĠâĢĺ": 467,
      "Ġà¦Ĩà¦Ĺ": 468,
      "à¦¿à¦Ĥ": 469,
      "§İ": 470,
      "à§İ": 471,
      "er": 472,
      "à¦ĩà¦¨": 473,
      "à¦¾,": 474,
      "Ġs": 475,
      "à¦°à¦¬": 476,
      "on": 477,
      "§¬": 478,
      "à§¬": 479,
      "Ġà¦Ĩà¦¬": 480,
      "à¦ªà¦¤": 481,
      "§Ń": 482,
      "à§Ń": 483,
      "an": 484,
      "Ġà¦¸à¦¬": 485,
      "Ġ2": 486,
      "Ġà¦¸à¦®à¦¯": 487,
      "Ġà¦¹à¦²": 488,
      "Ġà¦ķà¦®": 489,
      "à¦°à¦¸": 490,
      "Ġà¦®à¦§": 491,
      "Ġà¦ħà¦Ń": 492,
      "Ġp": 493,
      "§®": 494,
      "à§®": 495,
      "¦Ŀ": 496,
      "à¦Ŀ": 497,
      "Ġb": 498,
      "re": 499,
      "§¯": 500,
      "à§¯": 501,
      "Ġà¦Ĩà¦ªà¦¨": 502,
      "à¦²à¦¨": 503,
      "Ġà¦§à¦°": 504,
      "Ġà§¨à§¦à§§à§": 505,
      "Ġà¦īà¦¦": 506,
      "à¦ļà¦¨": 507,
      "Ùİ": 508,
      "à¦²à¦ķ": 509,
      "à¦·à¦£": 510,
      "Ġà¦ªà¦¡": 511,
      "Ġà¦Ĩà¦¨": 512,
      "Ġà¦¹à¦¤": 513,
      "Ġà¦ıà¦¸": 514,
      "Ġc": 515,
      "at": 516,
      "Ġà¦ķà¦¥": 517,
      "Ġà¦ļà¦²": 518,
      "à¦īà¦¨": 519,
      "Ġà§©": 520,
      "à¦Ľà¦°": 521,
      "à¦¸à¦²": 522,
      "Ġà¦¸à¦Ļ": 523,
      "à¦¿,": 524,
      "en": 525,
      "Ġ1": 526,
      "¦¢": 527,
      "à¦¢": 528,
      "à¦¼à§ĭ": 529,
      "à¦Łà¦¨": 530,
      "à¦ķà¦²": 531,
      "ar": 532,
      "Ġm": 533,
      "à¦¦à¦¨": 534,
      "Ġ-": 535,
      "à¦°à¦¦": 536,
      "Ġ:": 537,
      "Ġà¦¬à¦°": 538,
      "à¦¹à¦®": 539,
      "Ġà¦¸à¦¹": 540,
      "Ġà¦¬à¦Ľà¦°": 541,
      "à¦¤à¦¨": 542,
      "om": 543,
      "es": 544,
      "à¦¼,": 545,
      "à¦·à¦¯": 546,
      "à¦°à¦¹": 547,
      "...": 548,
      "à¦ĩà¦²": 549,
      "Ġà¦¸à¦°à¦ķ": 550,
      "or": 551,
      "à¦¬à¦²": 552,
      "à¦¯à¦¬": 553,
      "Ġà¦ħà¦°": 554,
      "à¦²à¦¯": 555,
      "à¦¦à¦°": 556,
      "Ġà¦Ĩà¦Ľ": 557,
      "Ġà¦¢": 558,
      "Ġh": 559,
      "à¦¦à¦ķ": 560,
      "à¦°à¦¯": 561,
      "Ġà¦¬à¦¨": 562,
      "Ġà¦ħà¦¬": 563,
      "01": 564,
      "is": 565,
      "à¦°à¦§": 566,
      "al": 567,
      "Ġà¦®à¦¤": 568,
      "à¦¥à¦®": 569,
      "à¦°à¦¶": 570,
      "Ġn": 571,
      "Ġà¦®à¦¹": 572,
      "Ġà¦¸à¦°": 573,
      "à¦¨à¦¤": 574,
      "à¦¯à¦ķ": 575,
      "à¦¼à§Ģ": 576,
      "Ġd": 577,
      "it": 578,
      "Ġà¦¤à¦¬": 579,
      "Ġà¦ıà¦Ł": 580,
      "à¦®à¦¤": 581,
      "à¦®à¦²": 582,
      "Ġà¦¹à¦ļ": 583,
      "le": 584,
      "Ġà¦¦à¦²": 585,
      "Ġth": 586,
      "à¦¯à¦®": 587,
      "à¦²à¦¤": 588,
      "Ġà¦ıà¦ĸà¦¨": 589,
      "Ġà¦ħà¦¸": 590,
      "Ġà§«": 591,
      "Ġà¦Ĩà¦ľ": 592,
      "Ġf": 593,
      "à¦ķà¦Ł": 594,
      "à¦°à¦¨": 595,
      "à¦¤à¦¬": 596,
      "Ġà¦Ĩà¦®à¦°": 597,
      "Ġà¦ıà¦²": 598,
      "Ġà¦ĵà¦¯": 599,
      "Ġà§ª": 600,
      "Ġà¦ķà¦°à¦Ľ": 601,
      "Ġà¦ħà¦§": 602,
      "Ġw": 603,
      "à¦¸à¦¬": 604,
      "à¦¯à¦¬à¦¸": 605,
      "Ġà¦ĩà¦¨": 606,
      "ou": 607,
      "Ġà¦°à¦¯": 608,
      "à¦¹à¦¤": 609,
      "à¦¤à¦®": 610,
      "à¦ªà¦ķ": 611,
      "à¦°à¦¥à¦®": 612,
      "à¦¯à¦¨": 613,
      "ed": 614,
      "Ġà¦¸à¦Ń": 615,
      "Ġà¦Ĺà¦¤": 616,
      "Ġà¦¸à¦¨": 617,
      "à§¨à§¦": 618,
      "Ġà¦īà¦ªà¦ľ": 619,
      "ĠØ": 620,
      "à¦Ĺà¦°": 621,
      "à¦ĩà¦ķ": 622,
      "Ġà¦¨à¦¯": 623,
      "Ġà¦Ĩà¦ķ": 624,
      "Ġà¦ĩà¦¸à¦²": 625,
      "à¦Łà¦ķ": 626,
      "Ġà¦ķà¦°à¦¬": 627,
      "à¦ĩà¦Ł": 628,
      "à¦Ĺà¦¤": 629,
      "Ġà¦ıà¦®à¦¨": 630,
      "Ġ201": 631,
      "à¦·à¦ķ": 632,
      "ic": 633,
      "à¦¸à¦¹": 634,
      "à¦²à¦¬": 635,
      "Ġà§§à§¦": 636,
      "ÙĦ": 637,
      "à¦¸à¦¨": 638,
      "Ġà¦ħà¦¤": 639,
      "Ġà¦ķà¦²": 640,
      "à¦ıà¦¨": 641,
      "Ġà¦ĺà¦Łà¦¨": 642,
      "Ġà¦¨à¦¤": 643,
      "la": 644,
      "Ġà¦ħà¦¬à¦¸": 645,
      "Ġà¦Ĩà¦¦": 646,
      "à¦¸à¦®": 647,
      "st": 648,
      "à¦¬à¦¬": 649,
      "à¤": 650,
      "à¦ķà¦¤": 651,
      "Ġà¦¬à¦¡": 652,
      "Ġà¦īà¦¤": 653,
      "à¦¦à¦¸": 654,
      "Ġà§¬": 655,
      "Ġà¦¹à¦ĵà¦¯": 656,
      "Ġà¦Ĩà¦¶": 657,
      "ew": 658,
      "à¦®à¦°": 659,
      "à¦¯à¦¬à¦¹": 660,
      "Ġo": 661,
      "à¦¹à¦°": 662,
      "Ġà¦ķà¦°à¦²": 663,
      "Ġà¦¯à¦¦": 664,
      "Ġà¦ł": 665,
      "à¦¾-": 666,
      "à¦°à¦ļ": 667,
      "Ġà¦īà¦¨": 668,
      "à¦ıà¦¸": 669,
      "Ġà¦ħà¦ªà¦°": 670,
      "à§¦à§¦": 671,
      "à¦ıà¦®": 672,
      "à§ĭà¥¤": 673,
      "Ġà¦Ĩà¦¯": 674,
      "à¦¨à¦¬": 675,
      "à§İà¦¸": 676,
      "00": 677,
      "Ġà§§à§¯": 678,
      "à¦ĩà¦°": 679,
      "Ġà§Ń": 680,
      "à¦°à¦ª": 681,
      "à¦¬à¦ķ": 682,
      "Ġthe": 683,
      "à¦®à¦ķ": 684,
      "à¦¨à¦¯": 685,
      "Ġà¦ıà¦¤": 686,
      "Ġà¦Ŀ": 687,
      "ing": 688,
      "à¦¸à¦ª": 689,
      "Ġà¦°à¦¹à¦®": 690,
      "Ġà¦¤à¦¥": 691,
      "Ġà¦«à¦²": 692,
      "Ġà¦¸à¦ķ": 693,
      "Ġà¦ħà¦ª": 694,
      "à¦ĸà¦¤": 695,
      "à¦Ĺà¦ŀ": 696,
      "Ġin": 697,
      "à¦ĩà¦¯": 698,
      "Ġà¦īà¦ł": 699,
      "Ġà§¦": 700,
      "Ġà¦¸à¦¦à¦¸": 701,
      "Ġà¦ĵà¦ĩ": 702,
      "Ġà¦ĩà¦¤": 703,
      "ad": 704,
      "Ġà§®": 705,
      "à¦°à¦²": 706,
      "à¦¤à¦ķ": 707,
      "à¦ķà¦¬": 708,
      "à§ģà¦ģ": 709,
      "Ġà¦¬à¦¸": 710,
      "Ġà¦Ĩà¦ĩà¦¨": 711,
      "id": 712,
      "Ġà¦ªà¦¦": 713,
      "Ġà¦ĩà¦īà¦¨": 714,
      "à¦¨à¦ķ": 715,
      "Ġà¦°à¦ķ": 716,
      "à¦ķà¦¦": 717,
      "Ġà¦īà¦ļ": 718,
      "Ġg": 719,
      "Ġà¦Ľà¦¬": 720,
      "à¦§à¦¨": 721,
      "Ġà¦²à¦ķ": 722,
      "à¦¨à¦¨": 723,
      "ent": 724,
      "à¦¨à¦®à¦¨": 725,
      "à¦®à¦¸": 726,
      "à¦īà¦ľ": 727,
      "Ġà¦ķà¦¯": 728,
      "à¦®à¦¦": 729,
      "ion": 730,
      "lo": 731,
      "ÙĲ": 732,
      "ĠâĢĵ": 733,
      "âĢĿ": 734,
      "Ġà¦Ĩà¦ĵà¦¯": 735,
      "Ġà§¯": 736,
      "à§Ģ,": 737,
      "Ġà¦Ĩà¦°à¦ĵ": 738,
      "à¦°à¦Ń": 739,
      "à¦¨à¦Ł": 740,
      "il": 741,
      "à¦¶à¦ķ": 742,
      "Ġà§¨à§¦à§§à§¯": 743,
      "ews": 744,
      "th": 745,
      "à¦ļà¦²": 746,
      "Ġ/": 747,
      "Ġà¦¤à¦ĸà¦¨": 748,
      "Ø§": 749,
      "ĠÙ": 750,
      "à¦®à¦¬": 751,
      "Ġà¦¶à¦¤": 752,
      "à§Ģà¥¤": 753,
      "Ġan": 754,
      "à¦ĩà¦¸": 755,
      "ĠâĢľ": 756,
      "Ġà¦¶à¦°": 757,
      "à¦ıà¦¨à¦ª": 758,
      "Ġà¦ıà¦ķà¦ľà¦¨": 759,
      "¦Ī": 760,
      "à¦Ī": 761,
      "am": 762,
      "à¦¹à¦²": 763,
      "à¦®à¦¯": 764,
      "à¦¸à¦°": 765,
      "Ġà¦Ĺà¦£": 766,
      "Ġà¦īà¦ªà¦°": 767,
      "Ġà¦īà¦²": 768,
      "à¦¹à¦¸": 769,
      "Ġà¦ħà¦«": 770,
      "Ġà¦¸à¦®à¦¸": 771,
      "ÙĴ": 772,
      "à¦¬à¦ª": 773,
      "Ġ\"": 774,
      "ang": 775,
      "à¦°à¦¹à¦£": 776,
      "à¦°à¦ĵ": 777,
      "ro": 778,
      "Ġk": 779,
      "com": 780,
      "Ġj": 781,
      "ay": 782,
      "Ġà¦Ĩà¦¤": 783,
      "Ġà§§à§¨": 784,
      "et": 785,
      "à¦łà¦¨": 786,
      "Ġà¦ķà¦¬": 787,
      "Ġof": 788,
      "à¦¿-": 789,
      "à¦®à¦ķà¦°": 790,
      "Ġv": 791,
      "im": 792,
      "Ġto": 793,
      "Ġà¦Ĩà¦ª": 794,
      "Ġà¦ıà¦¨": 795,
      "as": 796,
      "ch": 797,
      "Ġre": 798,
      "à¦Ĺà¦²": 799,
      "Ġ0": 800,
      "Ġà¦ıà¦®": 801,
      "à¦īà¦Ł": 802,
      "Ġà¦¬à¦ķ": 803,
      "Ġà¦ħà¦ķ": 804,
      "Ġà¦ĸà¦¬à¦°": 805,
      "Ġà¦ĺà¦Ł": 806,
      "Ġu": 807,
      "à¦Łà¦°": 808,
      "Ġà§§à§§": 809,
      "Ġà¦ľà¦®": 810,
      "à¦·à¦¤": 811,
      "à¦¨à¦¸": 812,
      "Ġl": 813,
      "ex": 814,
      "Ġà¦īà¦ªà¦¸": 815,
      "à¦ĸà¦²": 816,
      "Ġà¦¬à¦²à¦²": 817,
      "à¦¸à¦ķ": 818,
      "Ġà¦Ĩà¦¹à¦®": 819,
      "¦Ĳ": 820,
      "à¦Ĳ": 821,
      "Ġ'": 822,
      "à¦ªà¦¦": 823,
      "Ġà¦¸à¦¤": 824,
      "Ġà¦ªà¦ķ": 825,
      "Ùı": 826,
      "Ġ3": 827,
      "à¦Łà¦Ĺ": 828,
      "à¦¯à¦¤": 829,
      "ct": 830,
      "à¦Ńà¦¬": 831,
      "Ġà¦ľà¦¯": 832,
      "Ġà¦¯à¦ĸà¦¨": 833,
      "el": 834,
      "Ġà¦Ĳ": 835,
      "Ġà¦¸à¦ķà¦²": 836,
      "Ġon": 837,
      "à¦¥à¦¨": 838,
      "Ġà¦ªà¦¥": 839,
      "Ġà§§à§«": 840,
      "Ġi": 841,
      "à¦Ľà¦¨": 842,
      "Ġà¦ĩà¦ī": 843,
      "à¦«à¦¤": 844,
      "à¦¾à¦ĥ": 845,
      "Ġ...": 846,
      "Ġà¦¬à¦¹": 847,
      "à¦«à¦²": 848,
      "Ġà¦Ĺà¦²": 849,
      "Ġà¦ĺà¦°": 850,
      "à¦§à¦¬": 851,
      "ÙĨ": 852,
      "Ġà¦ıà¦¦": 853,
      "à¦¿)": 854,
      "Ġà¦ıà¦¸à¦¬": 855,
      "à¦·à¦¦": 856,
      "Ġà¦¦à¦°": 857,
      "Ġà¦¬à¦¯": 858,
      "Ġà§§à§ª": 859,
      "§±": 860,
      "à§±": 861,
      "Ġà§¨à§¦à§§à§®": 862,
      "à¦¨à¦¦": 863,
      "Ġà¦Ī": 864,
      "ur": 865,
      "Ġà¦ıà¦ĸ": 866,
      "à¦¸à¦¦": 867,
      "Ġ[": 868,
      "Ġà¦ıà¦Ĺ": 869,
      "Ġà¦ĵà¦ªà¦°": 870,
      "à¦¼à§ģ": 871,
      "Ġà¦ļà¦Ł": 872,
      "à§ĩà¦ģ": 873,
      "Ġà¦Ĩà¦Łà¦ķ": 874,
      "à¦¿à¦ĥ": 875,
      "Ġand": 876,
      "ag": 877,
      "....": 878,
      "Ġ,": 879,
      "à¦°à¦Ł": 880,
      "Ġà¦īà§İ": 881,
      "ĠÂ": 882,
      "ol": 883,
      "à¦°à¦ĩ": 884,
      "em": 885,
      "Ġà¦ıà¦ķà¦ĩ": 886,
      "Ġà¦§à¦°à¦¨": 887,
      "à¦Ĩà¦ĩ": 888,
      "Ġà¦Ĩà¦ĩ": 889,
      "à§ĩ?": 890,
      "à§ĭà¦ģ": 891,
      "à¦¬à¦¤": 892,
      "Ġà¦Ĺà¦¡": 893,
      "à§ĭ,": 894,
      "à¦Ĺà¦£": 895,
      "ra": 896,
      "--": 897,
      "Ġà¦¦à¦ķ": 898,
      "Ġà¦Ĩà¦¹": 899,
      "Ġà¦Ńà¦°": 900,
      "à¦¦à¦²": 901,
      "Ġà¦¬à¦Ļ": 902,
      "à¦·à¦®à¦¤": 903,
      "à¦°à¦«": 904,
      "Ġà§¨à§¦à§¨à§¦": 905,
      "Ġà¦¶à¦¹à¦°": 906,
      "à¦ķà¦¨": 907,
      "Ġà¦¶à¦¨": 908,
      "Ġà¦°à¦¬": 909,
      "à§ĭ.": 910,
      "à¦ıà¦°": 911,
      "Ġat": 912,
      "un": 913,
      "ÙĬ": 914,
      "ot": 915,
      "à¦ľà¦°": 916,
      "Ġy": 917,
      "à¦¨à¦ĵ": 918,
      "Ġà¦ıà¦ª": 919,
      "angla": 920,
      "à¦¬à¦¹": 921,
      "à¦²à¦Ĺ": 922,
      "ul": 923,
      "à¦¯à¦¦": 924,
      "Ġà§§à§®": 925,
      "Ġà¦«à¦°": 926,
      "à¦«à¦°": 927,
      "ig": 928,
      "Ġà¦ħà¦¬à¦¶": 929,
      "Ġà¦®à¦Ļ": 930,
      "Ġà¦¶à¦ķ": 931,
      "à¦¨à¦°": 932,
      "à¦ĩà¦¬": 933,
      "Ġà¦ıà¦Ľ": 934,
      "à¦¼à¦¾,": 935,
      "Ġà¦¹à¦ķ": 936,
      "iv": 937,
      "Ùħ": 938,
      "Ġà¦ĩà¦¯": 939,
      "),": 940,
      "à¦°à¦Ĺ": 941,
      "Ġâ": 942,
      ");": 943,
      "Ġà¦Ńà¦¯": 944,
      "Ġà¦ħà¦¥": 945,
      "ment": 946,
      "Ġà¦ķà¦ĸà¦¨": 947,
      "Ġà¦¨à¦Ń": 948,
      "ir": 949,
      "à¦¼à§ĩà¥¤": 950,
      "Ġnews": 951,
      "Ġà§§à§¬": 952,
      "Ġà§§à§©": 953,
      "Ġà¦ľà¦°": 954,
      "à¦Ĩà¦®": 955,
      "Ġà¦ķà¦¨": 956,
      "à¦Ĺà¦łà¦¨": 957,
      "Ġà¦¸à¦ļ": 958,
      "Ġà¦ķà¦¤": 959,
      "à¦łà¦ķ": 960,
      "ut": 961,
      "Ġà¦¸à¦¬à¦ļ": 962,
      "à¦Ĺà¦®": 963,
      "à¦Ĺà¦¨": 964,
      "Ġà¦Ĩà¦²à¦®": 965,
      "Ġà¦¬à¦²à¦¤": 966,
      "Ġà¦¨à¦¬": 967,
      "Ùĩ": 968,
      "à¦ľà¦¯": 969,
      "Ġà¦¨à¦®": 970,
      "à¦ļà¦¯": 971,
      "Ġ4": 972,
      ")à¥¤": 973,
      "ĠØ§": 974,
      "Ġà¦ıà¦°à¦ªà¦°": 975,
      "ow": 976,
      "Ġà§¨à§¦à§§à§Ń": 977,
      "à§§à§¯": 978,
      "à¦ĩà¦ľ": 979,
      ").": 980,
      "à¦ķà¦¸": 981,
      "à§ĩ-": 982,
      "à¦Ĺà¦²à¦¬": 983,
      "Ġà§¨à§ª": 984,
      "à¦ķà¦Ń": 985,
      "??": 986,
      "20": 987,
      "Ġà¦¸à¦¡": 988,
      "à¦¯à¦°": 989,
      "Ġà¦¬à¦²à¦Ľ": 990,
      "ht": 991,
      "à¦¾âĢĻ": 992,
      "Ġà¦Ĺà¦°": 993,
      "se": 994,
      "Ġà§©à§¦": 995,
      "Ġà¦¨à¦¦": 996,
      "Ġà§§à§Ń": 997,
      "à¦Ĺà¦¬à¦¨": 998,
      "à¦ľà¦¸": 999,
      "Ġbangla": 1000,
      "à¦¬à¦¶": 1001,
      "à§ĭà¦ĥ": 1002,
      "vi": 1003,
      "Ġe": 1004,
      "Ġà¦ľà¦²": 1005,
      "à¦¨à¦®": 1006,
      "Ùĳ": 1007,
      "Ġà¦¸à¦¹à¦ľ": 1008,
      "Ġà¦¹à¦¨": 1009,
      "Ġà¦®à¦°": 1010,
      "Ġà¦ķà§°": 1011,
      "à¦°à¦ªà¦°": 1012,
      "Ġ5": 1013,
      "Ġà§¨à§¦à§¦": 1014,
      "à¦°à¦ķà¦²": 1015,
      "à¦¤à¦¤": 1016,
      "à¦¬à¦¦": 1017,
      "à¦ĩà¦¡": 1018,
      "Ġà§¨à§«": 1019,
      "ha": 1020,
      "24": 1021,
      "à¦ĩà¦®": 1022,
      "Ġà¦Ĩà¦¸à¦²": 1023,
      "ub": 1024,
      "ome": 1025,
      "Ġà¦ļà¦²à¦Ľ": 1026,
      "Ġà¦Īà¦¦": 1027,
      "à¦¿âĢĻ": 1028,
      "Ġà¦®à¦¸": 1029,
      "à¦ľà¦®": 1030,
      "Ġà¦ľà¦¬": 1031,
      "Ġà¦ªà¦¤": 1032,
      "à¦¤à¦²": 1033,
      "ate": 1034,
      "à¦ªà¦Ł": 1035,
      "à§§à§¨": 1036,
      "Ġar": 1037,
      "à¦īà¦²": 1038,
      "Ġà¦Ĩà¦¸à¦Ľ": 1039,
      "à¦ķà¦®": 1040,
      "Ġst": 1041,
      "à¦ľà¦§": 1042,
      "Ġr": 1043,
      "Ġà¦ħà¦Ĺ": 1044,
      "ĠØ§ÙĦ": 1045,
      "à¦°à¦®à¦£": 1046,
      "Ġis": 1047,
      "à§ģ,": 1048,
      "Ġà¦ħà¦¨à¦²": 1049,
      "Ġ=": 1050,
      "our": 1051,
      "Ġà¦¤à¦°": 1052,
      "est": 1053,
      "à§ģâĢĻ": 1054,
      "à¦¯à¦¸": 1055,
      "à¦¦à¦ª": 1056,
      "Ġà¦Ĺà¦¬": 1057,
      "à¦ļà¦ķ": 1058,
      "Ġà§į": 1059,
      "ext": 1060,
      "Ġà¦Ĩà¦Ĺà¦¸": 1061,
      "à¦§à¦¤": 1062,
      "ce": 1063,
      "Ġà¦¯à¦¤": 1064,
      "Ġà¦ªà¦¶": 1065,
      "us": 1066,
      "Ġà¦Ĩà¦¸à¦¨": 1067,
      "ia": 1068,
      "Ġà¦ªà¦£": 1069,
      "à§§à§¦": 1070,
      "à¦¯à¦ĩ": 1071,
      "Ġà¦ªà¦°à¦¬à¦°": 1072,
      "à¦Ĩà¦°": 1073,
      "à¦ĩà¦¤": 1074,
      "à§İà¦ķ": 1075,
      "Ġà¦®à¦ľ": 1076,
      "Ġpre": 1077,
      "à¦²à¦®": 1078,
      "à¦ľà¦¨à¦ķ": 1079,
      "Ġà¦¸à¦¦à¦°": 1080,
      "Ġcom": 1081,
      "Ġà¦ħà¦²": 1082,
      "Ġà¦¸à¦ª": 1083,
      "ĠÂ»": 1084,
      "oo": 1085,
      "ik": 1086,
      "//": 1087,
      "à¦¶à¦²": 1088,
      "à¦°à¦ľ": 1089,
      "Ġ2019": 1090,
      "Ġà¦ĩà¦®": 1091,
      "!!": 1092,
      "tp": 1093,
      "Ġà¦ľà¦¡": 1094,
      "Ġmo": 1095,
      "à¦¾.": 1096,
      "à¦ĺà¦°": 1097,
      "Ġà¦Ĩà¦¹à¦¤": 1098,
      "Ø±": 1099,
      "Ġch": 1100,
      "Ġà¦ļà¦°": 1101,
      "à¦²à¦¸": 1102,
      "à¦ķà¦ķ": 1103,
      "ly": 1104,
      "Ġà§¨à§¨": 1105,
      "ation": 1106,
      "Ġ20": 1107,
      "Ġà¦¸à¦¹à¦¯": 1108,
      "à¦ĩà¦Ń": 1109,
      "à¦°à¦Ľ": 1110,
      "Ġà¦¶à¦¹": 1111,
      "Ġà¦¤à¦¦à¦¨": 1112,
      "à¦¯à¦¯": 1113,
      "Ġà§¨à§§": 1114,
      "Ġà¦Ĩà¦¬à¦¦": 1115,
      "à¦·à¦®": 1116,
      "à§Įà¦ģ": 1117,
      "Ġà¦īà¦ĩà¦ķ": 1118,
      "Ġà¦ĵà¦ł": 1119,
      "à¦ķà¦ľà¦¨": 1120,
      "Ġà¦¦à¦¶": 1121,
      "à¦¸à¦Ł": 1122,
      "ap": 1123,
      "Ġà¦ªà¦¯": 1124,
      "ter": 1125,
      "ber": 1126,
      "://": 1127,
      "Ġà¦¶à¦¬": 1128,
      "tic": 1129,
      "Ġà¦Ĩà¦§": 1130,
      "Ġà¦Ľà¦¡": 1131,
      "à¦¹à¦¬": 1132,
      "ish": 1133,
      "à¦¶à¦Ĺ": 1134,
      "à§§à§§": 1135,
      "Ġ//": 1136,
      "ous": 1137,
      "Ġ6": 1138,
      "à¦°à¦°": 1139,
      "Ġà¦ĩà¦¸": 1140,
      "à¦ķà¦°à¦£": 1141,
      "Ġà¦¯à¦¥": 1142,
      "Ġà¦Ĩà¦«": 1143,
      "eng": 1144,
      "Ġà¦§à¦¨": 1145,
      "Ġà¦ľà¦¨à¦ª": 1146,
      "ck": 1147,
      "à¦¼à¦¾à¥¤": 1148,
      "Ġà¦ķà¦ł": 1149,
      "Ġà§¨à§©": 1150,
      "ind": 1151,
      "Ġpo": 1152,
      "à¦®à¦Ĺ": 1153,
      "Ġfor": 1154,
      "Ġà¦Ĩà¦ªà¦¡": 1155,
      "à¦¥à¦²": 1156,
      "Ġà¦ıà¦¡": 1157,
      "à¦īà¦¦": 1158,
      "Ġ+": 1159,
      "à¦¨à¦Ĺà¦°": 1160,
      "¦ĭ": 1161,
      "à¦®à¦ª": 1162,
      "à¦ĭ": 1163,
      "ak": 1164,
      "Ġà¦ªà¦²": 1165,
      "à¦ªà¦¸": 1166,
      "à¦¬à¦¯": 1167,
      "Ġà¦ķà¦ķ": 1168,
      "à¦¤à¦¦": 1169,
      "à¦®à¦§": 1170,
      "à¦ĩà¦«": 1171,
      "Ġhome": 1172,
      "à¦²à¦ª": 1173,
      "Ġam": 1174,
      "ip": 1175,
      "ÙİÙĳ": 1176,
      "Ġà¦¸à¦®à¦°": 1177,
      "Ġpm": 1178,
      "Ġse": 1179,
      "ab": 1180,
      "Ġà¦ĵà¦°": 1181,
      "à¦¤à¦°à¦£": 1182,
      "ÙĪ": 1183,
      "Ġà¦Ĺà¦¤à¦ķ": 1184,
      "ss": 1185,
      "Ġà¦ıà¦ķà¦¦": 1186,
      "à¥¤âĢĻ": 1187,
      "Ġal": 1188,
      "à¦£à¦¤": 1189,
      "à¦¸à¦Ń": 1190,
      "Ġà§¨à§¦à§§à§¬": 1191,
      "à¦ıà¦²": 1192,
      "à¦¶à¦Ł": 1193,
      "à¦¯à¦ª": 1194,
      "à¦°à¦ªà¦¤": 1195,
      "à¦ľà¦²": 1196,
      "Ġà¦ħà¦ŀ": 1197,
      "à¦ªà¦¡": 1198,
      "Ø¨": 1199,
      "Ġ10": 1200,
      "ve": 1201,
      "if": 1202,
      "Ġà¦ĺà¦¨": 1203,
      "Ġà¦ĭ": 1204,
      "ĠâĨ": 1205,
      "Ġde": 1206,
      "Ġà¦ĺà¦£": 1207,
      "à¦¯à¦ķà¦°": 1208,
      "âĢĺ": 1209,
      "Ġby": 1210,
      "ist": 1211,
      "esh": 1212,
      "Ġà¤": 1213,
      "Ġà¦Ĺà¦łà¦¨": 1214,
      "Ġà¦¬à¦ĩ": 1215,
      "Ġà¦®à¦¯": 1216,
      "ticle": 1217,
      "à¦Łà¦¸": 1218,
      "à¦¨à¦Ĺ": 1219,
      "à¦ıà¦ĩ": 1220,
      "18": 1221,
      "ers": 1222,
      "Ġà¦ĩà¦²": 1223,
      "à§§à§®": 1224,
      "op": 1225,
      "ine": 1226,
      "à¦ľà¦¶": 1227,
      "à¦¹à¦¨": 1228,
      "à¦īà¦¡": 1229,
      "Ġà¦ľà¦¨à¦Ĺà¦£": 1230,
      "à¦ıà¦«": 1231,
      "à¦®à¦ļ": 1232,
      "Ġà¦ħà¦¥à¦¬": 1233,
      "201": 1234,
      "à¦īà¦°": 1235,
      "Ġà¦Ĩà¦ľà¦ķ": 1236,
      "à¦¶à¦°": 1237,
      "ww": 1238,
      "à¦¬à¦ĩ": 1239,
      "Ġà¦ļà¦²à¦¤": 1240,
      "Ġà§¨à§¬": 1241,
      "à¦ĺà¦Łà¦¨": 1242,
      "Ġà¦®à¦¸à¦ľ": 1243,
      "Ġà¦Ĩà¦¨à¦¨": 1244,
      "Ġ7": 1245,
      "à§§à§Ń": 1246,
      "à¦ĸà¦ķ": 1247,
      "à§ĩà¦ĥ": 1248,
      "à¦Łà¦®": 1249,
      "Ġ2018": 1250,
      "Ġà¦ľà¦Ļ": 1251,
      "à¦ĸà¦¬": 1252,
      "à¦²à¦Ł": 1253,
      "Ġà¦īà§İà¦ª": 1254,
      "âĢĶ": 1255,
      "Ġsh": 1256,
      "à¦²à¦Ń": 1257,
      "à¦°à¦ķà¦®": 1258,
      "vious": 1259,
      "à§ĩà¥¤âĢĻ": 1260,
      "um": 1261,
      "à¦Łà¦²": 1262,
      "Ġbe": 1263,
      "ĠÙĪ": 1264,
      "à´": 1265,
      "à¦¥à¦ķ": 1266,
      "à¦¦à¦¶": 1267,
      "and": 1268,
      "à¦ľà¦ª": 1269,
      "à¦¯à¦¤à¦®": 1270,
      "Ġ8": 1271,
      "à¦Ĩà¦¨": 1272,
      "Ġ.": 1273,
      "Ġà¦ļà¦²à¦ļ": 1274,
      "Ġà¦ĩà¦ļ": 1275,
      "Ġà§«à§¦": 1276,
      "Ġ9": 1277,
      "à§ģà¦ĥ": 1278,
      "Ġà¦Ĩà¦¸à¦¬": 1279,
      "à¦¿?": 1280,
      "Ġà¦¨à¦ľà¦°": 1281,
      "à¦ĵà¦²": 1282,
      "Ġnext": 1283,
      "Ġà¦Ĩà¦¸à¦¤": 1284,
      "Ġprevious": 1285,
      "Ġà¦Ńà¦¬à¦¨": 1286,
      "Ġà¦¡à¦²": 1287,
      "Ġà§¨à§Ń": 1288,
      "Ġà¦ıà¦Ń": 1289,
      "Ġwh": 1290,
      "Ġà§¨à§®": 1291,
      "Ġà¦īà¦ªà¦²à¦ķ": 1292,
      "à¦ļà¦°": 1293,
      "à¦ªà¦£": 1294,
      "Ġà¦Ĺà¦Ń": 1295,
      "eb": 1296,
      "ith": 1297,
      "âĢĵ": 1298,
      "Ġ$": 1299,
      "à¦ľà¦¤": 1300,
      "à¦¼à§į": 1301,
      "à¦Łà¦¬à¦²": 1302,
      "Ġà¦Ĩà¦ļ": 1303,
      "à¦¯à¦¥": 1304,
      "à§ĩâĢĻ": 1305,
      "à¦ľà¦ķ": 1306,
      "Ġà¦¦à¦°à¦ķ": 1307,
      "Ġà¦·": 1308,
      "Ġà¦ļà¦ķ": 1309,
      "à¦«à¦Ł": 1310,
      "10": 1311,
      "à¦°à¦¸à¦Ļ": 1312,
      "ime": 1313,
      "à¦ķà¦¶": 1314,
      "Ø¯": 1315,
      "Ġarticle": 1316,
      "Ġpro": 1317,
      "art": 1318,
      "Ġà¦ķà¦²à¦ķ": 1319,
      "Ġà§°": 1320,
      "Ġà¦¨à¦Ĺà¦°": 1321,
      "Ġà¦¸à¦ł": 1322,
      "à§§à§«": 1323,
      "à§Ģ-": 1324,
      "25": 1325,
      "à§ģà¥¤": 1326,
      "Ġà¦Ĩà¦¹à¦®à¦¦": 1327,
      "à¦¹à¦ķ": 1328,
      "Ġà¦¬à¦¦à¦²": 1329,
      "ail": 1330,
      "Ġà¦®à¦¡": 1331,
      "Ġà¦¸à¦¹à¦ķ": 1332,
      "Ġà¦°à¦ķà¦®": 1333,
      "log": 1334,
      "à¦ľà¦¬": 1335,
      "à¦¸à¦ļ": 1336,
      "à¦§à¦°": 1337,
      "Ġà¦ıà¦ĸà¦¨à¦ĵ": 1338,
      "à¦°à¦ĸ": 1339,
      "à¦¸à¦°à¦ķ": 1340,
      "à¦¾!": 1341,
      "Ġ2017": 1342,
      "à§ĩ!": 1343,
      "Ġà¦Ĩà¦°à¦¬": 1344,
      "Ġà¦ħà¦®": 1345,
      "Ġit": 1346,
      "Ġà¦Ľà¦¯": 1347,
      "Ġà¦ĩà¦°": 1348,
      "à§¨à§ª": 1349,
      "qu": 1350,
      "Ġle": 1351,
      "à¦Ĩà¦²": 1352,
      "desh": 1353,
      "Ġht": 1354,
      "Ġpost": 1355,
      "Ġ12": 1356,
      "Ġà¦ªà¦¦à¦ķ": 1357,
      "à¦¾?": 1358,
      "Ġ*": 1359,
      "à¦²à¦¦": 1360,
      "Ġà¦ĩà¦īà¦°": 1361,
      "Ġà¦ıà¦®à¦ª": 1362,
      "Ø³": 1363,
      "Ġ}": 1364,
      "Ġà¦Ĩà¦¡": 1365,
      "Ġap": 1366,
      "lish": 1367,
      "à¦ªà¦²": 1368,
      "ov": 1369,
      "à¦¨à¦²": 1370,
      "Ġà¦Ĩà§°": 1371,
      "à¦¡à¦¨": 1372,
      "Øª": 1373,
      "Ġ>": 1374,
      "Ġà¦īà¦ªà¦ķ": 1375,
      "Ġx": 1376,
      "à¦¶à¦¬": 1377,
      "Ġ?": 1378,
      "Ġup": 1379,
      "Ġà¦²à¦¡": 1380,
      "Ġà¦ĸà¦°à¦ļ": 1381,
      "à§§à§¬": 1382,
      "Ġà§¨à§¯": 1383,
      "Ġà¦ªà¦Ľà¦¨": 1384,
      "Ġyou": 1385,
      "à¦§à¦ķ": 1386,
      "Ġcomment": 1387,
      "à¦¸à¦¤": 1388,
      "Ġà¦ħà¦Ļ": 1389,
      "('": 1390,
      "à¦Ŀà¦¤": 1391,
      "à¦ªà¦¥": 1392,
      "Ġà¥¤à¥¤": 1393,
      "Ġà¦īà§İà¦¸à¦¬": 1394,
      "à¦ĵà¦¤": 1395,
      "Ġà¦ķà¦·": 1396,
      "ont": 1397,
      "à¦¨à¦Ń": 1398,
      "à¦īà¦ķ": 1399,
      "à¦°à¦¦à¦°": 1400,
      "Ġ#": 1401,
      "Ġà¦ıà¦®à¦¨à¦ķ": 1402,
      "Ġà¦ħà¦ľ": 1403,
      "Ġ11": 1404,
      "ain": 1405,
      "Ġà¦ªà§°": 1406,
      "à¦ľà¦Ł": 1407,
      "Ġà¦ıà¦ķà¦¬": 1408,
      "Ġhttp": 1409,
      "à¦ļà¦Ł": 1410,
      "Ġla": 1411,
      "à¦·à¦°": 1412,
      "à¦Ĺà¦¬": 1413,
      "à¦ĸà¦Ľ": 1414,
      "Ġà¦ĭà¦£": 1415,
      "ĠØ¹": 1416,
      "à¦Ĺà¦¦": 1417,
      "Ġà¦Ńà¦¬": 1418,
      "à¦¯à¦®à¦¨": 1419,
      "os": 1420,
      "ember": 1421,
      "day": 1422,
      "à¦Ĺà¦¡": 1423,
      "Ġà¦Ĳà¦¤": 1424,
      "à¦ĩà¦ª": 1425,
      "Ġag": 1426,
      "Ġ2020": 1427,
      "Ġà¦¤à¦¤": 1428,
      "à¦ĩà¦¦": 1429,
      "Ġà¦ķà¦£": 1430,
      "à§©à§¦": 1431,
      "ary": 1432,
      "11": 1433,
      "à¦¤à¦Ń": 1434,
      "à¦ĸà¦°": 1435,
      "à¦¶à¦¤": 1436,
      "à¦¾)": 1437,
      "à¦¿.": 1438,
      "ort": 1439,
      "à§§à§ª": 1440,
      "à§§à§©": 1441,
      "Ġà¦ıà¦¶": 1442,
      "Ġà¦īà§İà¦¸": 1443,
      "----": 1444,
      "à¦ŀà¦¤": 1445,
      "Ġà¦°à¦¸": 1446,
      "ri": 1447,
      "ob": 1448,
      "Ġà¦¦à¦«": 1449,
      "Ġà¦ĩà¦ŀ": 1450,
      "à¦·à¦¨": 1451,
      "à¦¬à¦¹à¦¨": 1452,
      "engal": 1453,
      "Ġà§¨à§¦à§§à§«": 1454,
      "à§«à§¦": 1455,
      "Ġà¦°à¦Ļ": 1456,
      "Ġ19": 1457,
      "Ġà¦ļà¦¨": 1458,
      "Ġvi": 1459,
      "ide": 1460,
      "out": 1461,
      "à¦Ĺà¦ķ": 1462,
      "ust": 1463,
      "Ø¹": 1464,
      "bd": 1465,
      "à¦²à¦²": 1466,
      "Ġà§ªà§¦": 1467,
      "ess": 1468,
      "Ġà¦¸à¦«à¦°": 1469,
      "à§ģ-": 1470,
      "à¦°à¦ľà¦¨": 1471,
      "Ġà¦Ĳà¦ķ": 1472,
      "Ġà¦®à¦ŀ": 1473,
      "Ġà¦Ĩà¦Ł": 1474,
      "Ġà¦¸à¦°à¦¬à¦°": 1475,
      "à¦¡à¦²": 1476,
      "Ġà¦ĵà¦Ń": 1477,
      "à§°à¦¤": 1478,
      "âĢĻà¥¤": 1479,
      "à¦£à¦®": 1480,
      "Ġà¦¹à¦ł": 1481,
      "Ġwith": 1482,
      "à¦Ńà¦¯": 1483,
      "Ġà¦ħà¦¶": 1484,
      "Ġà¦ªà¦ŀ": 1485,
      "à¦Łà¦¤": 1486,
      "à¦īà¦¬": 1487,
      "à¦ıà¦¸à¦¸": 1488,
      "Ġà¦ľà¦¨à¦ķ": 1489,
      "Ġà¦¦à¦ĸà¦²": 1490,
      "Ġà¦ļà¦¤": 1491,
      "à¦ıà¦ķ": 1492,
      "Ġ!": 1493,
      "Ġbd": 1494,
      "nt": 1495,
      "à¦¼à¦ĥ": 1496,
      "Ġà¦Ĩà¦ĩà¦¸": 1497,
      "à¦®à¦ľ": 1498,
      "rit": 1499,
      "line": 1500,
      "Ġà¦ıà¦ķà¦®": 1501,
      "à¦¦à¦¯": 1502,
      "à¦¼-": 1503,
      "à¦ĩà¦¹": 1504,
      "news": 1505,
      "Ġà¦ĩà¦¨à¦¸": 1506,
      "à¦°à¦Ĩà¦¨": 1507,
      "Ġpub": 1508,
      "à¦®à¦¹": 1509,
      "à¦¸à¦¡": 1510,
      "à¦¸à¦²à¦®": 1511,
      "à¦²à¦°": 1512,
      "age": 1513,
      "Ġà¦Ĺà¦°à¦®": 1514,
      "à§¨à§«": 1515,
      "12": 1516,
      "ction": 1517,
      "à¦²à¦Ľ": 1518,
      "Ġà§§à§¯à§Ń": 1519,
      "Ġà¦ħà¦¥à¦ļ": 1520,
      "à§ĭ-": 1521,
      "ive": 1522,
      "à¦¼à§ĩ,": 1523,
      "à¦°à¦®à¦¨": 1524,
      "à§İà¦¸à¦ķ": 1525,
      "Ġas": 1526,
      "Ġà¦ıà¦¸à¦®à¦¯": 1527,
      "à¥¥": 1528,
      "Ġà¦¸à¦¤à¦°": 1529,
      "ant": 1530,
      "à¦Ĺà¦ľ": 1531,
      "Ġà¦īà¦¡": 1532,
      "ight": 1533,
      "à¦ĵà¦¨": 1534,
      "à§ĩ.": 1535,
      "Ġpr": 1536,
      "Ġà¦¦à¦¶à¦®": 1537,
      "à¦¨à¦ĩ": 1538,
      "od": 1539,
      "à¦¬à¦Ľà¦°": 1540,
      "Ġà¦¬à¦²à¦¬": 1541,
      "nd": 1542,
      "Ġà¦¸à¦«à¦²": 1543,
      "Ġà¦¸à¦ŀ": 1544,
      "à¦®à¦¡": 1545,
      "Ġà¦¤à¦²": 1546,
      "Ġà¦ķà¦ª": 1547,
      "up": 1548,
      "Ġà¦¸à¦®à¦¨": 1549,
      "Ġlo": 1550,
      "Ġà¦¨à¦¨": 1551,
      "Ġfr": 1552,
      "à¦ķà¦Ĺ": 1553,
      "à¦Ńà¦°": 1554,
      "Ġà¦ªà¦¬": 1555,
      "Ġà¦Ĩà¦ĩà¦¨à¦ľ": 1556,
      "Ġ15": 1557,
      "ill": 1558,
      "ph": 1559,
      "à¦ķà¦¶à¦¨": 1560,
      "à¦ªà¦·": 1561,
      "à¦¦à¦®": 1562,
      "ug": 1563,
      "Ġà§©à§§": 1564,
      "Ġ24": 1565,
      "Ġhe": 1566,
      "à¦ĵà¦°": 1567,
      "ver": 1568,
      "à¦ĩà¦Ľ": 1569,
      "Ġà¦ħà¦¸à¦®": 1570,
      "à¦£à¦¬": 1571,
      "Ġà§§à§¯à§¯": 1572,
      "Ġbangladesh": 1573,
      "ud": 1574,
      "ure": 1575,
      "Ġif": 1576,
      "Ġbengal": 1577,
      "ĠâĨĳ": 1578,
      "à¦¬à¦¬à¦°": 1579,
      "à§¦à§¦à§¦": 1580,
      "à¦·à¦ľ": 1581,
      "Ùĥ": 1582,
      "Ġpublish": 1583,
      "Ġnew": 1584,
      "à¦¨à¦¹": 1585,
      "Ġà¦¯à¦¨": 1586,
      "ave": 1587,
      "à¦¹à¦°à¦£": 1588,
      "ated": 1589,
      "à¦¤à¦ª": 1590,
      "Ġthis": 1591,
      "à¦¥à¦°": 1592,
      "à§¨à§§": 1593,
      "à¦ĩà¦ī": 1594,
      "ah": 1595,
      "Ġà¦ĵà¦·": 1596,
      "19": 1597,
      "ĠØ£": 1598,
      "Ġà¦Ĩà¦¦à¦°": 1599,
      "ĠÙħ": 1600,
      "à¦ħà¦¨": 1601,
      "à¦¨à¦¬à¦¨": 1602,
      "à§ĩ)": 1603,
      "à¦£à¦¨": 1604,
      "à¦¸à¦Ļ": 1605,
      "Ġ2016": 1606,
      "à¦¨à¦¡": 1607,
      "**": 1608,
      "Ġà¦¬à¦Ľà¦°à¦ĸ": 1609,
      "Ġà¥¥": 1610,
      "Ġà§¨à§¦à§§à§ª": 1611,
      "Ġmar": 1612,
      "Ġthat": 1613,
      "à¦Łà¦ª": 1614,
      "à¦²à¦ľ": 1615,
      "à¦¹à¦ľ": 1616,
      "ore": 1617,
      "ity": 1618,
      "à¦¦à¦Ł": 1619,
      "Ġad": 1620,
      "à§¨à§¨": 1621,
      "à§ĩ...": 1622,
      "sh": 1623,
      "à¦°à¦¸à¦Ń": 1624,
      "ere": 1625,
      "à¦ŀà¦ª": 1626,
      "à®": 1627,
      "à¦ķà¦Ľ": 1628,
      "pe": 1629,
      "Ġà¦Ĩà¦ĺ": 1630,
      "Ġà¦ĸà¦¨": 1631,
      "Ġà¦Ĺà¦£à¦®": 1632,
      "Ø§ÙĦ": 1633,
      "Ġà¦¹à¦¸": 1634,
      "à§¨à§¬": 1635,
      "Ġà¦ľà¦¨à¦¸": 1636,
      "Ġà¦ĵà¦¸": 1637,
      "Ġà¦Ĩà¦ķà¦°": 1638,
      "17": 1639,
      "à¦¦à¦¦": 1640,
      "à¦¼?": 1641,
      "ick": 1642,
      "Ġ&": 1643,
      "Ġà¦ıà¦ĩà¦ļ": 1644,
      "one": 1645,
      "xx": 1646,
      "Ùī": 1647,
      "ld": 1648,
      "à¦¬à¦§": 1649,
      "Ġread": 1650,
      "........": 1651,
      "à¦īà¦¨à¦²": 1652,
      "Ġà¦ĵà¦ª": 1653,
      "Ġà¦Ĩà¦ĵà¦¤": 1654,
      "Ġà¦Ĺà¦¨": 1655,
      "à¦¡à¦¸": 1656,
      "ĠØ¨": 1657,
      "à¦¸à¦®à¦¯": 1658,
      "Ġà¦¬à¦¸à¦¬": 1659,
      "à¦·à¦ķà¦¦": 1660,
      "à¦Łà¦Ł": 1661,
      "Ġà¦ĩà¦¬à¦¨": 1662,
      "pt": 1663,
      "ies": 1664,
      "Ġà¦īà¦Ńà¦¯": 1665,
      "Ġmore": 1666,
      "ong": 1667,
      "à¦Łà¦¬": 1668,
      "Ġà¦ıà¦¯": 1669,
      "à¦¨à¦ľ": 1670,
      "à¦²à¦«": 1671,
      "Ġdo": 1672,
      "à¦®à¦¶": 1673,
      "(\"": 1674,
      "Ġà§§à§¦à§¦": 1675,
      "à¦¡à¦ķ": 1676,
      "Ġà¦ĩà¦īà¦ª": 1677,
      "Ġà¦īà¦ľ": 1678,
      "Ġà¦ļà¦°à¦®": 1679,
      "à¦®à¦Ł": 1680,
      "Ġà¦¸à¦«": 1681,
      "Ġà¦ĵà¦¬": 1682,
      "ial": 1683,
      "Ġind": 1684,
      "à¤¾": 1685,
      "Ġà¦¬à¦ľ": 1686,
      "Ġà¦ıà¦ľ": 1687,
      "'s": 1688,
      "Ġà¦°à¦¶": 1689,
      "Ġ18": 1690,
      "30": 1691,
      "Ġago": 1692,
      "à¦¨à¦ª": 1693,
      "iz": 1694,
      "à¦¼à¦Ĥ": 1695,
      "Ġ14": 1696,
      "ays": 1697,
      "à¦¬à¦ľà¦¨": 1698,
      "Ġà¦§à¦°à¦£": 1699,
      "Ġà¦Ĩà¦®à¦²": 1700,
      "à§¦à§¯": 1701,
      "à§¨à§©": 1702,
      "ĠÙģ": 1703,
      "Ġà¦īà¦ķ": 1704,
      "à¦°à¦¸à¦¨": 1705,
      "Ġ16": 1706,
      "sc": 1707,
      "à§ªà§¦": 1708,
      "à¦ĩà¦Ĺ": 1709,
      "à¦ĺà¦¨": 1710,
      "15": 1711,
      "à¦ªà¦®": 1712,
      "Ø©": 1713,
      "à¦¿!": 1714,
      "Ġà¦ħà¦Ł": 1715,
      "ru": 1716,
      "ÙĤ": 1717,
      "Ġà¦Ĩà¦®à¦¦": 1718,
      "à¦¨à¦¶": 1719,
      "Ġjan": 1720,
      "à¦£à¦Ĺà¦ŀ": 1721,
      "Ġà¦¨à¦°": 1722,
      "à¦ĺà¦¦": 1723,
      "Ġà¦īà¦ªà¦¦": 1724,
      "Ġare": 1725,
      "ee": 1726,
      "Ġ::": 1727,
      "Ġ)": 1728,
      "Ġà¦ħà¦¦": 1729,
      "Ġà¦ķà¦ĸà¦¨à¦ĵ": 1730,
      "à§¦à§Ń": 1731,
      "Ġà¦Ĩà¦¶à¦Ļ": 1732,
      "end": 1733,
      "14": 1734,
      "ard": 1735,
      "à¦®à¦°à¦£": 1736,
      "Ġà¦¯à¦¶": 1737,
      "à¦īà¦¸": 1738,
      "ac": 1739,
      "Ġupd": 1740,
      "04": 1741,
      "à¦°à¦¸à¦¹": 1742,
      "Ġà¦®à¦®à¦¤": 1743,
      "Ġ13": 1744,
      "à§¦à§®": 1745,
      "ØŃ": 1746,
      "Ġà¦ıà¦«": 1747,
      "Ġab": 1748,
      "Ġor": 1749,
      "ice": 1750,
      "à¦ıà¦ĩà¦ļ": 1751,
      "Ġà¦ħà¦¬à¦¦": 1752,
      "Ġà¦īà¦¦à¦¯": 1753,
      "sp": 1754,
      "????": 1755,
      "à§¨à§Ń": 1756,
      "à¥į": 1757,
      "à¦¥à¦¤": 1758,
      "16": 1759,
      "Ġus": 1760,
      "http": 1761,
      "à¦Łà¦«": 1762,
      "Ġà¦īà¦łà¦²": 1763,
      "Ġme": 1764,
      "à¦¼à¦¾-": 1765,
      "ook": 1766,
      "à§¦à§«": 1767,
      "09": 1768,
      "à¦ļà¦¤": 1769,
      "Ġà¦īà¦ªà¦¨": 1770,
      "ata": 1771,
      "à¦Łà¦ĵà¦¯": 1772,
      "ory": 1773,
      "06": 1774,
      "ĠâĢ¢": 1775,
      "Ġmay": 1776,
      "Ġra": 1777,
      "Ġ17": 1778,
      "so": 1779,
      "Ġà¦¹à¦¯à¦°à¦¤": 1780,
      "à§¨à§®": 1781,
      "à§¦à§§": 1782,
      "Ġà¦¸à¦¬à¦ķ": 1783,
      "à¦ķà¦ª": 1784,
      "Ġmy": 1785,
      "ile": 1786,
      "Ġà¦¨à¦·": 1787,
      "ame": 1788,
      "Ġà¦²à¦¨": 1789,
      "à§¦à§¬": 1790,
      "Ġà¦Ĩà¦¬à¦¹": 1791,
      "Ġà¦ıà¦ıà¦®": 1792,
      "à¦¬à¦®": 1793,
      "Ġonline": 1794,
      "Ġà¦Ĩà¦īà¦Ł": 1795,
      "05": 1796,
      "Ġex": 1797,
      "à¦®à¦¨à¦¸": 1798,
      "à¦¦à¦£": 1799,
      "Ġà¦ĩà¦¬": 1800,
      "Ġà¦¹à¦°": 1801,
      "ib": 1802,
      "Ġso": 1803,
      "get": 1804,
      "Ġà¦ıà¦ľà¦¨": 1805,
      "à¦Ľà¦¡": 1806,
      "Ġà¦ĵà¦¦": 1807,
      "Ġà¦¹à¦ľ": 1808,
      "Ġ{": 1809,
      "load": 1810,
      "à¦¬à¦°à¦£": 1811,
      "000": 1812,
      "ĠØ§ÙĦÙĦ": 1813,
      "Ġà¦ļà¦²à¦¬": 1814,
      "ian": 1815,
      "Ġà§¨à§¦à§§à§©": 1816,
      "Ġvar": 1817,
      "Ġà¦ľà¦Ł": 1818,
      "Ġfrom": 1819,
      "Ġà¦ªà¦°à¦°": 1820,
      "Ġmin": 1821,
      "Ġpublished": 1822,
      "Ġà¦Ŀà¦¡": 1823,
      "à¦Ńà¦ķ": 1824,
      "à¦ķà¦¡": 1825,
      "à¦¡à¦¬": 1826,
      "az": 1827,
      "Ġà§©à§«": 1828,
      "à§¦à§©": 1829,
      "are": 1830,
      "Ġà¦¶à¦«": 1831,
      "Ġrep": 1832,
      "à¦¬à¦²à¦®": 1833,
      "à¦¬à¦ľ": 1834,
      "Ġwor": 1835,
      "con": 1836,
      "Ġà¦ķà¦¤à¦Ł": 1837,
      "à§©à§«": 1838,
      "Ġà¦ĵà¦ľà¦¨": 1839,
      "13": 1840,
      "à¦¡à¦Ń": 1841,
      "Ġnot": 1842,
      "à¦ıà¦¬": 1843,
      "Ġà¦¬à¦Ĺ": 1844,
      "à§¦à§ª": 1845,
      "Ġà¦Ĩà¦¨à¦¤": 1846,
      "à§¦à§¨": 1847,
      "Ġà¦Ĩà¦ļà¦°à¦£": 1848,
      "Ġà¦¸à¦¦": 1849,
      "all": 1850,
      "26": 1851,
      "Ġà§¦à§¯": 1852,
      "07": 1853,
      "à¦¨à¦¬à¦¬à¦¨": 1854,
      "à¦°à¦£à¦¤": 1855,
      "tr": 1856,
      "ink": 1857,
      "Ġà§¦à§¦": 1858,
      "ĠâĢĶ": 1859,
      "à¦¸à¦¸": 1860,
      "à¦²à¦Ļ": 1861,
      "Ġun": 1862,
      "oy": 1863,
      "à¦¹à¦«": 1864,
      "08": 1865,
      "à¦¿à¦ģ": 1866,
      "Ġà¦ħà¦¸à¦¹": 1867,
      "Ġà¦īà¦ªà¦¯": 1868,
      "Ġà¦°à¦¹": 1869,
      "Ġà¦Ĩà¦Ļ": 1870,
      "Ġcomments": 1871,
      "à¦°à¦¬à¦°": 1872,
      "Ġ25": 1873,
      "à¦¤à¦«": 1874,
      "Ġà¦¦à¦¶à¦ķ": 1875,
      "Ġà¦¦à¦°à¦ľ": 1876,
      "à¦¥à¦Ĺ": 1877,
      "à¦¬à¦£": 1878,
      "§³": 1879,
      "à§³": 1880,
      "Ġà§¬à§¦": 1881,
      "à¦Ĩà¦ª": 1882,
      "003": 1883,
      "Ġz": 1884,
      "Ġbengali": 1885,
      "ØĮ": 1886,
      "\"à¥¤": 1887,
      "Ġà¦ĩà¦®à¦°": 1888,
      "Ġà¦®à¦¦": 1889,
      "à¦°à¦Ĺà¦¤": 1890,
      "03": 1891,
      "ite": 1892,
      "Ġà¦īà¦łà¦¤": 1893,
      "à¥¤âĢĿ": 1894,
      "Ġoff": 1895,
      "Ġviews": 1896,
      "à¦®à¦£": 1897,
      "www": 1898,
      "à¦¨à¦ļ": 1899,
      "Ġà¦īà¦ªà¦¹": 1900,
      "ach": 1901,
      "à¦Ĩà¦ªà¦¨": 1902,
      "Ġte": 1903,
      "Ġà¦Ĺà¦£à¦¤à¦¨": 1904,
      "à§ĭ?": 1905,
      "Ġà§¨à§¦à§§à§¨": 1906,
      "Ġà¦ªà¦Ł": 1907,
      "à¦·à¦ķà¦°": 1908,
      "Ġcon": 1909,
      "à§ªà§«": 1910,
      "à§ĩ;": 1911,
      "ff": 1912,
      "av": 1913,
      "Ġdec": 1914,
      "Ġà¦«à¦ĸà¦°": 1915,
      "Ġà¦Ńà¦ķ": 1916,
      "ok": 1917,
      "Ġjul": 1918,
      "Ġà¦ıà¦°à¦ķà¦®": 1919,
      "Ġà¦Ĩà¦ĸ": 1920,
      "Ġà¦¦à¦²à¦Ł": 1921,
      "02": 1922,
      "à¦Ĺà¦Ľ": 1923,
      "Ġà¦Ĩà¦¤à¦Ļ": 1924,
      "à¦ļà¦®": 1925,
      "();": 1926,
      "à§¨à§¯": 1927,
      "à¦¼à§Ģ,": 1928,
      "ours": 1929,
      "à§°à¦£": 1930,
      "ast": 1931,
      "Ġà¦ĩà¦ķà¦¬": 1932,
      "own": 1933,
      "Ġà¦Ĩà¦¹à¦¬": 1934,
      "Ġà§§à§¯à§®": 1935,
      "ry": 1936,
      "Ġà¦°à¦«": 1937,
      "__": 1938,
      "Ġà¦¸à¦¬à¦¸": 1939,
      "Ġà¦Ĩà¦¸à¦°": 1940,
      "à¦īà¦®": 1941,
      "à¦ľà¦Ĺ": 1942,
      "aily": 1943,
      "anth": 1944,
      "à¦®à¦¹à¦¤": 1945,
      "Ġà¦ªà¦ł": 1946,
      "Ġà¦¸à¦¬à¦¸à¦®à¦¯": 1947,
      "Ùģ": 1948,
      "à¦ķà¦ļ": 1949,
      "23": 1950,
      "Ġà¦ĩà¦¸à¦°": 1951,
      "Ġà¦ıà¦°à¦ĩ": 1952,
      "à¤°": 1953,
      "à¦ĩà¦®à¦¸": 1954,
      "à¦Ľà¦¦": 1955,
      "à¦¾à¦ĥ)": 1956,
      "Ġsp": 1957,
      "Ġà¦«à¦Ł": 1958,
      "Ġà§¦à§®": 1959,
      "Ġall": 1960,
      "\",": 1961,
      "à¦¿à¥¤âĢĻ": 1962,
      "Ġà§¦à§§": 1963,
      "pm": 1964,
      "à¦¯à¦Ł": 1965,
      "à¦°à¦Ĺà¦ŀ": 1966,
      "ge": 1967,
      "à¦¾à¥¤âĢĻ": 1968,
      "27": 1969,
      "orn": 1970,
      "be": 1971,
      "Ġà¦°à¦ļà¦¨": 1972,
      "à¦¤à¦ľ": 1973,
      "à¦¨à¦¸à¦¹": 1974,
      "Ġyour": 1975,
      "ath": 1976,
      "¦Ĭ": 1977,
      "à¦Ĭ": 1978,
      "à¦ķà¦¯": 1979,
      "Ġà¦Ĩà¦«à¦Ĺ": 1980,
      "à¦¶à¦ª": 1981,
      "te": 1982,
      "Ġjun": 1983,
      "âĢ¡": 1984,
      "Ġ23": 1985,
      "ml": 1986,
      "Ġà¦ķà¦®à¦²": 1987,
      "Ġà¦®à¦¶": 1988,
      "Ġà¦ķà¦°à¦ª": 1989,
      "){": 1990,
      "à¦°à¦¥à¦®à¦¬": 1991,
      "à¦¤à¦Ł": 1992,
      "Ġnov": 1993,
      "cl": 1994,
      "Ġà¦ĩà¦Ń": 1995,
      "à¦ĵà¦¸": 1996,
      "gle": 1997,
      "ank": 1998,
      "à¦¾...": 1999,
      "Ġà¦¡à¦Ł": 2000,
      "Ġmon": 2001,
      "à¦¬à¦Ń": 2002,
      "Ġro": 2003,
      "Ġwas": 2004,
      "à¦¯à¦Ĺ": 2005,
      "à¦¸à¦«": 2006,
      "ie": 2007,
      "âĢĻ,": 2008,
      "Ġà¦īà¦°": 2009,
      "Ġà¦²à¦ķà¦¡": 2010,
      "28": 2011,
      "Ġim": 2012,
      "Ġà¦Īà¦¶": 2013,
      "ĠÙĬ": 2014,
      "à¦Ńà¦¬à¦¤": 2015,
      "Ġ;": 2016,
      "Ġcan": 2017,
      "à¦Łà¦¸à¦®": 2018,
      "à¦¬à¦Ł": 2019,
      "à¦²à¦¶": 2020,
      "hrit": 2021,
      "Ġà¦ķà¦®à¦ª": 2022,
      "¦Ķ": 2023,
      "à¦Ķ": 2024,
      "à§°à§°": 2025,
      "Ġapr": 2026,
      "à¦¸à¦°à¦£": 2027,
      "Ġà¦ıà¦°à¦¶": 2028,
      "Ġà¦¸à¦«à¦Ł": 2029,
      "ell": 2030,
      "Ġà¦«à¦¸à¦²": 2031,
      "Ġà§Ńà§¦": 2032,
      "edia": 2033,
      "Ġph": 2034,
      "Ġposted": 2035,
      "Ġà¦ħà¦¨à¦¨": 2036,
      "à¦¬à¦¡": 2037,
      "Ġà¦°à¦¹à¦¸": 2038,
      "Ġone": 2039,
      "Ġà¦ªà¦¨": 2040,
      "int": 2041,
      "à¦¸à¦¦à¦¸": 2042,
      "Ġsha": 2043,
      "Ġà§¦à§¨": 2044,
      "Ġà¦ªà¦°à¦ĵ": 2045,
      "ack": 2046,
      "Ġà§¨à§¦à§§à§§": 2047,
      "à¦¬à¦¤à¦¨": 2048,
      "Ġà¦ĩà¦«à¦¤": 2049,
      "à¦¦à¦¬": 2050,
      "Ġà¦Ĺà¦ł": 2051,
      "Ġà¦¨à¦ľ": 2052,
      "pl": 2053,
      "à¦¦à¦¤": 2054,
      "Ġà¦¦à¦®à¦¨": 2055,
      "à¦¤à¦¨à¦¤": 2056,
      "Ġà¦ļà¦²à¦®": 2057,
      "Ġno": 2058,
      "à¦®à¦Ĺà¦ŀ": 2059,
      "Ġdaily": 2060,
      "Ġà§¦à§Ń": 2061,
      "à¦¬à¦Ĺà¦ŀ": 2062,
      "Ġ2015": 2063,
      "Ġà¦ħà¦¬à¦°": 2064,
      "à¦Łà¦°à¦¸": 2065,
      "Ġà¦ħà¦¯": 2066,
      "Ġà¦«à¦°à¦®": 2067,
      "à¦Ĩà¦®à¦°": 2068,
      "Ġà¦ķà¦¨à¦¸": 2069,
      "Ġà¦Ķ": 2070,
      "ace": 2071,
      "Ġtr": 2072,
      "Ġà§¦à§¬": 2073,
      "Ġà¦¦à¦®": 2074,
      "à§ªà§Ń": 2075,
      "à§©à§®": 2076,
      "à§«à§«": 2077,
      "Ġà¦®à¦¹à¦²": 2078,
      "Ġà¦ħà¦¬à¦¹": 2079,
      "ount": 2080,
      "ĠÙĦ": 2081,
      "ress": 2082,
      "Ġà¦Ĩà¦¶à¦°": 2083,
      "âĢĻ-": 2084,
      "29": 2085,
      "à¦Łà¦¦": 2086,
      "he": 2087,
      "Ġà¦ļà¦®": 2088,
      "à¦¹à¦¯": 2089,
      "à¦¶à¦«": 2090,
      "...]": 2091,
      "Ġà§¦à§©": 2092,
      "Ġà¦¸à¦ľ": 2093,
      "ans": 2094,
      "Ġà¦¦à¦ª": 2095,
      "').": 2096,
      "Ġà¦īà¦ĩà¦¨": 2097,
      "Ġà¦®à¦£": 2098,
      "Ġà§®à§¦": 2099,
      "Ġoct": 2100,
      "Ġà§©à§¬": 2101,
      "ðŁ": 2102,
      "à¦ľà¦¦": 2103,
      "Ġà§¦à§«": 2104,
      "à§ªà§®": 2105,
      "==": 2106,
      "ai": 2107,
      "Ġà¦¨à¦¡": 2108,
      "à¦¯à¦¬à¦§": 2109,
      "Ġà¦īà¦®": 2110,
      "Ġà¦ıà¦ķà¦ķ": 2111,
      "Ġà¦Ĩà¦ĩà¦¡": 2112,
      "Ġà§ªà§«": 2113,
      "Ġ@": 2114,
      "ike": 2115,
      "Ġà¦²à¦®": 2116,
      "Ġà¦Ĩà¦²à¦®à¦Ĺ": 2117,
      "to": 2118,
      "Ġà¦ļà¦¡": 2119,
      "à§©à§Ń": 2120,
      "Ġà¦·à¦¡": 2121,
      "Ġ$(": 2122,
      "à¦Ĺà¦ł": 2123,
      "Ġdate": 2124,
      "Ġsa": 2125,
      "à§ªà§§": 2126,
      "à¦ĺà¦Ł": 2127,
      "à§ĢâĢĻ": 2128,
      "à§©à§¬": 2129,
      "Ġà¦ıà¦®à¦¨à¦Ł": 2130,
      "à§©à§¨": 2131,
      "org": 2132,
      "à¦°à¦¬à¦¨": 2133,
      "à¦®à¦¬à¦Ļ": 2134,
      "Ġdis": 2135,
      "à¦ħà¦°": 2136,
      "Ġlat": 2137,
      "à¦Īà¦¦": 2138,
      "Ġ22": 2139,
      "Ġà¦²à¦ľ": 2140,
      "Ġ<": 2141,
      "Ġà§¦à§ª": 2142,
      "ood": 2143,
      "à¦¶à¦¯": 2144,
      "Ġà§¨à§¦à§§à§¦": 2145,
      "à¦²à¦ĵà¦¯": 2146,
      "Ġà¦Łà¦¨": 2147,
      "Ġà¦°à¦ª": 2148,
      "Ġ[...]": 2149,
      "à¦Łà¦ķà¦®": 2150,
      "Ġà¦ķà¦¬à¦°": 2151,
      "à§©à§§": 2152,
      "Ġà¦®à¦°à¦¦": 2153,
      "old": 2154,
      "à¦¼!": 2155,
      "Ġtag": 2156,
      "Ġ30": 2157,
      "Ġà¦«à¦ľà¦²": 2158,
      "Ġà¦ľà¦Ĺà¦¤": 2159,
      "ash": 2160,
      "Ġman": 2161,
      "Ġà¦Ĩà¦ĩà¦ª": 2162,
      "Ġlast": 2163,
      "Ġà¦Ĩà¦®à¦¨": 2164,
      "44": 2165,
      "Ġà§©à§Ń": 2166,
      "Ġ21": 2167,
      "Ġfeb": 2168,
      "aper": 2169,
      "cc": 2170,
      "Ø¬": 2171,
      "à¦ĸà¦¯": 2172,
      "à¦¨à¦ľà¦¨": 2173,
      "Ġaug": 2174,
      "Ġà¦¸à¦«à¦Łà¦ĵà¦¯": 2175,
      "Ġwe": 2176,
      "Ġhave": 2177,
      "à¦Ľà¦¤": 2178,
      "à§©à§¯": 2179,
      "Ġà¦ĩà¦Ł": 2180,
      "Ġsy": 2181,
      "Ġqu": 2182,
      "po": 2183,
      "Ġà¦¨à¦ĵ": 2184,
      "à¦īà¦¯": 2185,
      "hritime": 2186,
      "for": 2187,
      "à¦ħà¦ªà¦°": 2188,
      "Ġà¦°à¦®à¦ľ": 2189,
      "ĠÙĤ": 2190,
      "Ġkal": 2191,
      "irst": 2192,
      "ms": 2193,
      "Ġà¦®à¦¤à¦¬": 2194,
      "à§©à§©": 2195,
      "ens": 2196,
      "à§°à¦ķ": 2197,
      "https": 2198,
      "ire": 2199,
      "Ġà§©à§¨": 2200,
      "àµ": 2201,
      "low": 2202,
      "ree": 2203,
      "Ġà¦ªà¦°à¦®": 2204,
      "Ġhttps": 2205,
      "bn": 2206,
      "Ġà¦Ĭ": 2207,
      "Ġà¦ľà¦¨à¦¤": 2208,
      "à¦¥à¦¬à¦Ľà¦°": 2209,
      "36": 2210,
      "à¦¶à¦®": 2211,
      "Ð°": 2212,
      "à¦¿à¦Ĥ,": 2213,
      "à¦¥à¦®à¦¨": 2214,
      "min": 2215,
      "à¦®à¦®": 2216,
      "à¦¤à¦ĩ": 2217,
      "à¦¯à¦ĵ": 2218,
      "Ġà¦¸à¦¬à¦ľ": 2219,
      "à¦Ĺà¦Ĺ": 2220,
      "à§Ģ?": 2221,
      "à§ĩà¥¤âĢĿ": 2222,
      "à¦¡à¦®": 2223,
      "à¦¾/": 2224,
      "à¦ķà¦ĩ": 2225,
      "url": 2226,
      "Ġà§§à§¯à§¬": 2227,
      "ase": 2228,
      "Ø£": 2229,
      "à¦«à¦¸": 2230,
      "kh": 2231,
      "Ġà¦«à¦¯": 2232,
      "à¦¶à¦ĩ": 2233,
      "Ġà¦¬à¦ĩà¦¯": 2234,
      "ĠâĨĴ": 2235,
      "à§ªà§¯": 2236,
      "ther": 2237,
      "Ġ26": 2238,
      "50": 2239,
      "Ġà¦ĩà¦¹": 2240,
      "Ġà¦®à§İà¦¸": 2241,
      "aj": 2242,
      "man": 2243,
      "lam": 2244,
      "à§ªà§¬": 2245,
      "22": 2246,
      "Øµ": 2247,
      "à¦ªà¦¯": 2248,
      "ĠâĢĻ": 2249,
      "Ãł": 2250,
      "Ġà¦ĵà¦¸à¦®": 2251,
      "à¦¬à¦ļ": 2252,
      "bangla": 2253,
      "à¦¾'": 2254,
      "Ġà¦ķà¦¡": 2255,
      "ĠÂ«": 2256,
      "à¦°à¦£à¦¯": 2257,
      "Ġ28": 2258,
      "Ġ27": 2259,
      "ue": 2260,
      "itle": 2261,
      "à¦Ŀà¦¡": 2262,
      "Ġà¦¦à¦²à¦ķ": 2263,
      "antho": 2264,
      "Ġco": 2265,
      "Ġà¦ĵà¦ķ": 2266,
      "Ġà¦Ĩà¦ŀ": 2267,
      "33": 2268,
      "à¥¤à¥¤": 2269,
      "utes": 2270,
      "af": 2271,
      "Ġà¦²à¦Ĺ": 2272,
      "à§Ģà¦ĥ": 2273,
      "Ġà¦§à¦°à¦¤": 2274,
      "this": 2275,
      "Ġne": 2276,
      "Ġà¦ªà¦¦à¦¤": 2277,
      "à¦ªà¦Ĺ": 2278,
      "ĠØ§ÙĦÙĦÙĩ": 2279,
      "à§©à§ª": 2280,
      "imes": 2281,
      "à¦°à¦¦à¦²": 2282,
      "Ġvide": 2283,
      "ert": 2284,
      "à§«à§¨": 2285,
      "Ġupdated": 2286,
      "Ġà¦¬à¦Ł": 2287,
      "Ġsc": 2288,
      "à¦¨à¦ªà¦¤": 2289,
      "Ġà¦ªà¦°à¦ĩ": 2290,
      "Ġà¦¬à¦¸à¦¤": 2291,
      "Ġdown": 2292,
      "à§ªà§¨": 2293,
      "à¦¾;": 2294,
      "à¦¼à¦¾à¦Ĥ": 2295,
      "à¦¬à¦Ľ": 2296,
      "ĠâĢĺâĢĺ": 2297,
      "Ġwill": 2298,
      "à§İà¦ª": 2299,
      "Ġà§¨à§¦à§¦à§¯": 2300,
      "à§«à§¬": 2301,
      "à¦°à¦¹à¦¨": 2302,
      "à¦¾à§ĩ": 2303,
      "à§¨à§¦à§§à§¯": 2304,
      "Ġà§©à§®": 2305,
      "Ġbut": 2306,
      "à§«à§Ń": 2307,
      "âĢĿà¥¤": 2308,
      "df": 2309,
      "ram": 2310,
      "Ġà§ªà§®": 2311,
      "à¦ļà¦¬": 2312,
      "à¦«à¦¨": 2313,
      "à¦£à¦ķ": 2314,
      "Ġà¦ıà¦ķà¦¸à¦Ļ": 2315,
      "à¦ıà¦®à¦ª": 2316,
      "Ġjuly": 2317,
      "à¦ĥ)": 2318,
      "à§«à§®": 2319,
      "Ġà¦ļà¦®à¦ķ": 2320,
      "Ġcont": 2321,
      "à§¨à§¦à§§à§®": 2322,
      "!!!!": 2323,
      "à¦Ľà¦¬": 2324,
      "Ġà¦¬à¦ĩà¦Ł": 2325,
      "der": 2326,
      "html": 2327,
      "Ġà¦®à¦²": 2328,
      "45": 2329,
      "à¦¯à¦Łà¦¨": 2330,
      "Ġ200": 2331,
      "uy": 2332,
      "99": 2333,
      "able": 2334,
      "unction": 2335,
      "Ġà¦Ĩà¦¬à¦°": 2336,
      "à¦¼à¦¿,": 2337,
      "à¦¨à¦¬à¦¤": 2338,
      "Ġhas": 2339,
      "à¦ıà¦Ł": 2340,
      "à¦īà¦¤": 2341,
      "Ġà¦ħà¦¬à¦ķ": 2342,
      "Ġà¦ķà¦¨à¦«": 2343,
      "Ġà§¯à§¦": 2344,
      "48": 2345,
      "ft": 2346,
      "Ġà¦°à¦ĩà¦²": 2347,
      "uary": 2348,
      ".)": 2349,
      "à¦Ĺà¦¸": 2350,
      "erk": 2351,
      "Ġà¦ļà¦®à§İà¦ķ": 2352,
      "Ġà¦¡à¦Łà¦ķà¦®": 2353,
      "à¦®à¦Ľ": 2354,
      "act": 2355,
      "Ġà¦¶à¦Ļ": 2356,
      "Ġà¦¶à¦ªà¦¥": 2357,
      "no": 2358,
      "tion": 2359,
      "à§ªà§ª": 2360,
      "Ġà¦¶à¦¯": 2361,
      "Ġà¦¸à¦°à¦ŀ": 2362,
      "Ġtw": 2363,
      "ult": 2364,
      "à¤¿": 2365,
      "à¦°à¦¬à¦²": 2366,
      "aa": 2367,
      "Ġà¦ľà¦¹": 2368,
      "Ġsex": 2369,
      "à¥¤[": 2370,
      "Ġà¦īà¦łà¦Ľ": 2371,
      "Ġà¦Ĩà¦¹à¦¸": 2372,
      "Ùį": 2373,
      "ould": 2374,
      "à¸": 2375,
      "Ġà¦ķà¦Ł": 2376,
      "cont": 2377,
      "à¦¤à§°": 2378,
      "Ġhours": 2379,
      "à§«à§¯": 2380,
      "à¦§à¦®": 2381,
      "Ġfirst": 2382,
      "hak": 2383,
      "Ġlatest": 2384,
      "Ġà¦¤à¦ĸà¦¨à¦ĩ": 2385,
      "Ġà¦¹à¦ĩà¦¤": 2386,
      "35": 2387,
      "Ġ2014": 2388,
      "Ø°": 2389,
      "Ġà¦ĩà¦īà¦Ł": 2390,
      "à¦ªà¦ļ": 2391,
      "à¦¶à¦¸": 2392,
      "Ġà¦¤à§İà¦ķ": 2393,
      "ance": 2394,
      "Ġ29": 2395,
      "Ġà§«à§¦à§¦": 2396,
      "Â¦": 2397,
      "à¦°à¦¥": 2398,
      "Ġà¦īà¦ªà¦Ń": 2399,
      "Ġsays": 2400,
      "21": 2401,
      "Ġindia": 2402,
      "Ġjanuary": 2403,
      "à¦Ĺà¦Ł": 2404,
      "lect": 2405,
      "à§ªà§©": 2406,
      "à¦°à¦§à¦°": 2407,
      "à¦°à¦ļà¦²": 2408,
      "à¦¼à§Ĥ": 2409,
      "Ġà¦¬à¦ŀ": 2410,
      "87": 2411,
      "à¦ĩà¦¦à¦¹": 2412,
      "à¦īà¦ª": 2413,
      "à¦īà¦ĩ": 2414,
      "og": 2415,
      "Ġà¦Ĩà¦²à¦¹": 2416,
      "Ġà¦ĩà¦ķ": 2417,
      "Ġà¦ħà¦¡": 2418,
      "book": 2419,
      "ally": 2420,
      "à¦¥à¦¬": 2421,
      "Ġà¦¨à¦Ĺ": 2422,
      "à¦°à¦·": 2423,
      "à¦®à¦°à¦¤": 2424,
      "ĠâĢĿ": 2425,
      "à¦¨à¦¶à¦¨": 2426,
      "Ġmarch": 2427,
      "Ġinter": 2428,
      "Ġapril": 2429,
      "Ġreply": 2430,
      "à¦ĸà¦¬à¦°": 2431,
      "de": 2432,
      "à¦Łà¦«à¦°": 2433,
      "à¦¯à¦Ń": 2434,
      "Ġà¦ıà¦ķà¦¤": 2435,
      "à¦¾.)": 2436,
      "à¦Ĩà¦¬": 2437,
      "à¦ħà¦Ń": 2438,
      "40": 2439,
      "Ġà¦Ĩà¦ªà¦¤": 2440,
      "ll": 2441,
      "à¦¿...": 2442,
      "à¦ķà§°": 2443,
      "Ġà¦²à¦Ļ": 2444,
      "Ġà¦ķà¦²à¦®": 2445,
      "Ġà¦ĩà¦ľ": 2446,
      "à¤¨": 2447,
      "Ġà¦¨à¦Ĺà¦¦": 2448,
      "à§«à§ª": 2449,
      "\").": 2450,
      "Ġà¦ħà¦¹": 2451,
      "');": 2452,
      "--------": 2453,
      "cu": 2454,
      "wik": 2455,
      "Ġweb": 2456,
      "Ġà§©à§¯": 2457,
      "Ġbang": 2458,
      "Ġjune": 2459,
      "à¦ĩà¦¨à¦¬": 2460,
      "à¦¡à¦ª": 2461,
      "Ø«": 2462,
      "à¦·à¦Ł": 2463,
      "à¦Ĩà¦°à¦¸": 2464,
      "Ġà§©à§©": 2465,
      "à¦¶à¦¦": 2466,
      "ign": 2467,
      "Ġnovember": 2468,
      "37": 2469,
      "Ġed": 2470,
      "Ġà¦ķà¦°à¦£": 2471,
      "39": 2472,
      "lement": 2473,
      "Ġcomp": 2474,
      "à¦ıà¦ķà¦Ł": 2475,
      "......": 2476,
      "Ġà¦¸à¦®à¦¬": 2477,
      "à¦²à¦ļ": 2478,
      "Ġà¦ľà¦¨à¦Ĺ": 2479,
      "ube": 2480,
      "à§«à§©": 2481,
      "ery": 2482,
      "Ġ01": 2483,
      "Ġà¦¶à¦°à¦£": 2484,
      "\":": 2485,
      "Ġà¦¬à¦¹à¦¨": 2486,
      "à¦²à¦®à¦¨": 2487,
      "à¦§à¦Ń": 2488,
      "Ġà¦Ŀà¦°": 2489,
      "lay": 2490,
      "Ġdecember": 2491,
      "ake": 2492,
      "ear": 2493,
      "Ġà¦²à¦ŀ": 2494,
      "ĠØŃ": 2495,
      "Ġà¦¦à¦¤": 2496,
      "à¦¦à¦°à¦¬": 2497,
      "val": 2498,
      "47": 2499,
      "pro": 2500,
      "ĠØ¥": 2501,
      "à¦ľà¦Ń": 2502,
      "ives": 2503,
      "à¦Ľà¦²": 2504,
      "Ġà¦¤à¦®": 2505,
      "à¦¦à¦«": 2506,
      "Ġ2013": 2507,
      "Ġà¦ıà¦¸à¦ıà¦®": 2508,
      "38": 2509,
      "46": 2510,
      "ruary": 2511,
      "Ġà¦¸à¦®à¦Ĺ": 2512,
      "à§Ģ)": 2513,
      "Ġà¦²à¦¬à¦£": 2514,
      "Ġà¦¹à¦ĩà¦¯": 2515,
      "âĢľ": 2516,
      "Ġà¦ªà¦°à¦ªà¦°": 2517,
      "lan": 2518,
      "Ġà¦¸à¦«à¦²à¦¤": 2519,
      "ober": 2520,
      "à§«à§§": 2521,
      "à¦¯à¦Łà¦ķ": 2522,
      "Ġà¦ħà¦ªà¦¸": 2523,
      "Ġà¦¦à¦¯": 2524,
      "à¥ĩ": 2525,
      "à¦ķà¦¥": 2526,
      "à¦¤à¦¬à¦¤": 2527,
      "à¦·à¦§": 2528,
      "55": 2529,
      "ich": 2530,
      "co": 2531,
      "Ġblog": 2532,
      "à¦ĩà¦ĵ": 2533,
      "Ġà¦īà¦ªà¦²à¦¬": 2534,
      "à¦Ĩà¦ľ": 2535,
      "rip": 2536,
      "à¦¶à¦ķà¦°": 2537,
      "amp": 2538,
      "à¦²à¦¨à¦ķ": 2539,
      "title": 2540,
      "à¦ªà¦¶": 2541,
      "à¦Ńà¦¨": 2542,
      "indow": 2543,
      "Ġkh": 2544,
      "Ġà¦¨à¦ķà¦¶": 2545,
      "its": 2546,
      "Ġpar": 2547,
      "à¦¼à¦¿à¥¤": 2548,
      "Ġà¦ĵà¦°à¦«": 2549,
      "à¦¨à¦Ľ": 2550,
      "',": 2551,
      "ect": 2552,
      "ĠØ±": 2553,
      "ÙĬÙĩ": 2554,
      "Ġà¦¸à¦¨à¦¦": 2555,
      "à¦¬à¦Ļ": 2556,
      "à¦¤à¦ķà¦°à¦£": 2557,
      "à¦¦à¦°à¦¬à¦¨": 2558,
      "):": 2559,
      "Ġà¦ıà¦ķà¦°": 2560,
      "Ġfebruary": 2561,
      "by": 2562,
      "Ġà¦¬à¦¦": 2563,
      "Ġpe": 2564,
      "Ġà¦Ĩà¦ĩà¦Ł": 2565,
      "Ġà§¨à§¦à§¦à§®": 2566,
      "Ġà¦ĵà¦®à¦°": 2567,
      "Ġà¦Ĩà¦ĩà¦¨à¦¶": 2568,
      "ild": 2569,
      "Ġaugust": 2570,
      "à¦īà¦ĩà¦¯": 2571,
      "php": 2572,
      "Ġà¦ĩà¦¨à¦«": 2573,
      "ĠðŁ": 2574,
      "Ġoctober": 2575,
      "Ġdownload": 2576,
      "Ġdes": 2577,
      "Ġà§©à§ª": 2578,
      "Ġà¦Ĺà¦£à¦¤": 2579,
      "à§¨à§¦à§§à§Ń": 2580,
      "Ġget": 2581,
      "à§ģ'": 2582,
      "ence": 2583,
      "à¦²à¦Ĺà¦ŀ": 2584,
      "ift": 2585,
      "ps": 2586,
      "row": 2587,
      "attr": 2588,
      "Ġà¦Ńà¦Ļ": 2589,
      "ound": 2590,
      "à¦·à¦Ń": 2591,
      "Ġà¦Ĩà¦ĩà¦ıà¦¸": 2592,
      "300": 2593,
      "à¦¨à§°": 2594,
      "Ġabout": 2595,
      "Ġ????": 2596,
      "à¦ĩà¦ľà¦¨": 2597,
      "à¦¥à¦ª": 2598,
      "uck": 2599,
      "à¦¹à¦¬à¦§": 2600,
      "Ġà¦¸à¦®à¦ķ": 2601,
      "Ġà¦Ĭà¦°": 2602,
      "à¦Ĩà¦¤": 2603,
      "à¦¿/": 2604,
      "Ġà¦ħà¦¬à¦¸à¦°": 2605,
      "à¦ĩà¦²à¦Ł": 2606,
      "à§¨à§¦à§§à§¨": 2607,
      "erkantho": 2608,
      "Ġà¦¤à¦¹à¦¬": 2609,
      "à¦ıà¦¸à¦ĩ": 2610,
      "ptember": 2611,
      "Ġà¦¦à¦«à¦¤à¦°": 2612,
      "49": 2613,
      "Ø§Ø": 2614,
      "Ġà¦¤à¦¨": 2615,
      "à¦¸à¦Ĺ": 2616,
      "à¦¯à¦ľ": 2617,
      "à¯": 2618,
      "à¦¦à¦Ĺ": 2619,
      "Ġen": 2620,
      "Ġpage": 2621,
      "Ġà¦ķà¦ļ": 2622,
      "Ġà¦ħà¦ªà¦¹à¦°à¦£": 2623,
      "per": 2624,
      "Ġà¦ıà¦ķà¦¦à¦®": 2625,
      "65": 2626,
      "Ġà¦ªà¦ľ": 2627,
      "Ġà¦īà¦ªà¦ķà¦°à¦£": 2628,
      "Ġwhat": 2629,
      "Ġlike": 2630,
      "Ġ00": 2631,
      "wid": 2632,
      "Ġà¦ıà¦ķà¦¸": 2633,
      "Ġ2012": 2634,
      "Ġkalerkantho": 2635,
      "à¦ļà¦¡": 2636,
      "à¦ĵà¦¡": 2637,
      "Ġà§§à§¯à§Ńà§§": 2638,
      "Ġem": 2639,
      "Ġà¦īà¦łà¦¬": 2640,
      "Ġà§ªà§Ń": 2641,
      "oogle": 2642,
      "à¦Łà¦Ľ": 2643,
      "ĠÐ": 2644,
      "à¤Ĥ": 2645,
      "Ġà¦¯à¦¤à¦Ł": 2646,
      "Ġà¦ĸà¦²": 2647,
      "ĠÂ·": 2648,
      "Ġseptember": 2649,
      "ÙĲÙĳ": 2650,
      "Ġher": 2651,
      "à¦¬à§°": 2652,
      "à¦°à¦¬à¦£à¦¤": 2653,
      "à¦ķà¦¸à¦Ń": 2654,
      "=\"": 2655,
      "à¦ĩà¦¸à¦¬": 2656,
      "à¦ľà¦Ĺà¦ŀ": 2657,
      "Ġà¦ıà¦¸à¦ıà¦¸à¦¸": 2658,
      "Ġà¦¸à¦¬à¦ĩ": 2659,
      "ĠÌ": 2660,
      "à¦°à¦¡": 2661,
      "hs": 2662,
      "ks": 2663,
      "Ġcl": 2664,
      "à¦ĩà¦ļ": 2665,
      "the": 2666,
      "Ġà¦°à¦¨": 2667,
      "à¦īà¦ļ": 2668,
      "Ġà¦ıà¦¤à¦Ł": 2669,
      "hi": 2670,
      ",,": 2671,
      "à§ĭà¦Ĥ": 2672,
      "Ġarch": 2673,
      "à§ĭâĢĻ": 2674,
      "à¦ĩà¦¶": 2675,
      "Â»": 2676,
      "Ġà¦ķà¦®à¦ªà¦ķ": 2677,
      "à¦īà¦¶à¦¨": 2678,
      "Ġà¦ĩà¦īà¦¸": 2679,
      "Ø§ÙĨ": 2680,
      "Ġà¦¶à¦¤à¦ķ": 2681,
      "à¦¿'": 2682,
      "Ġà¦ıà¦ķà¦¥": 2683,
      "Ġà¦ıà¦ķà¦¸à¦®à¦¯": 2684,
      "oug": 2685,
      "Ġà¦ķà¦«": 2686,
      "Ã±": 2687,
      "Ġà¦ħà¦¬à¦²à¦®": 2688,
      "cument": 2689,
      "à¦¼.": 2690,
      "Ġà¦Ķà¦·à¦§": 2691,
      "Ġà¦²à¦¤": 2692,
      "lang": 2693,
      "ition": 2694,
      "Ġà¦ľà¦²à¦¬": 2695,
      "à¦¸à¦®à¦°": 2696,
      "Ġà¦¨à¦ĵà¦Ĺ": 2697,
      "Ġà§ªà§¬": 2698,
      "à¦£à¦Ń": 2699,
      "à¦ªà¦¬": 2700,
      "Ġà¦Ĩà¦ľà¦ĵ": 2701,
      "Ġà§ªà§¯": 2702,
      "paper": 2703,
      "Ñģ": 2704,
      "à¦°à¦ªà¦°à¦ĵ": 2705,
      "Ġà¦¬à§°": 2706,
      "ĠØ¹ÙĦ": 2707,
      "Ġmu": 2708,
      "ational": 2709,
      "pr": 2710,
      "à¦¼âĢĻ": 2711,
      "mar": 2712,
      "Ġà¦ĩà¦Ļ": 2713,
      "à¦¤à¦¦à¦¨": 2714,
      "tw": 2715,
      "Ġà¦ľà¦Ĺà¦¨": 2716,
      "à¦¾à¦ģ,": 2717,
      "à¦¦à¦«à¦¤à¦°": 2718,
      "à¦¹à§İ": 2719,
      "Ġà¦¹à¦ĩà¦²": 2720,
      "ical": 2721,
      "Ġà¦¤à¦°à¦«": 2722,
      "Ġout": 2723,
      "ds": 2724,
      "à¦¸à¦ĵà¦¯": 2725,
      "à¦ĵà¦®": 2726,
      "Ġbo": 2727,
      "()": 2728,
      "ner": 2729,
      "à¦¬à¦¨à¦¯": 2730,
      "Ġà§ªà§¨": 2731,
      "port": 2732,
      "Ġà¦Ĩà¦¶à¦ª": 2733,
      "Ġà¦¸à¦²": 2734,
      "à¦¬à¦¦à¦²": 2735,
      "Ġcount": 2736,
      "Ġà¦¨à¦ķ": 2737,
      "io": 2738,
      "Ġà¦Īà¦®": 2739,
      "Ġà§©à§¦à§¦": 2740,
      "ics": 2741,
      "Ġ--": 2742,
      "ins": 2743,
      "ĠâĢº": 2744,
      "à¦²à¦ĺ": 2745,
      "net": 2746,
      "Ġà¦ħà¦ļ": 2747,
      "à¦¨à¦¸à¦®": 2748,
      "Ġser": 2749,
      "Ġ\\": 2750,
      "Ġà¦¡à¦ķ": 2751,
      "Ð¾": 2752,
      "à¦ķà¦ľ": 2753,
      "\"+": 2754,
      "57": 2755,
      "à¦¬à¦Ĺ": 2756,
      "à¦¯à§İ": 2757,
      "à¦°à¦ĵà¦¯": 2758,
      "56": 2759,
      "34": 2760,
      "****": 2761,
      "au": 2762,
      "ass": 2763,
      "58": 2764,
      "à¦ıà¦¸à¦ª": 2765,
      "Ġà¦®à¦ķ": 2766,
      "Ġà¦ĩà¦¨à¦ļ": 2767,
      "à¦¯à¦«": 2768,
      "à¦Łà¦Ń": 2769,
      "à¦¸à¦ķà¦²": 2770,
      "à¦ľà¦Ľ": 2771,
      "à¦ıà¦¸à¦¬": 2772,
      "Ġhis": 2773,
      "lat": 2774,
      "Ġper": 2775,
      "à¦¨à¦¤à¦®": 2776,
      "du": 2777,
      "Ġà§«à§«": 2778,
      "à¦ıà¦¨à¦ľ": 2779,
      "à¦¤à¦¶": 2780,
      "Ġà¦ĵà¦²": 2781,
      "Ġshare": 2782,
      "Ġeng": 2783,
      "à§¯à§¯": 2784,
      "ĠØª": 2785,
      "Ġà¦¦à¦²à¦Ĺ": 2786,
      "à¦Ĩà¦Ĺ": 2787,
      "Ġtime": 2788,
      "index": 2789,
      "à¦ĸà¦ª": 2790,
      "';": 2791,
      "Ġà¦ĸà¦¤": 2792,
      "Â°": 2793,
      "Ġà¦ħà¦·": 2794,
      "à¦²à¦¸à¦¹": 2795,
      "Ġshe": 2796,
      "à¦£à¦¦": 2797,
      "à¦Ńà¦¬à¦¨": 2798,
      "Ġà¦ħà¦¬à¦¨": 2799,
      "à¥Ģ": 2800,
      "Ġà¦ªà¦¤à¦¨": 2801,
      "Ġany": 2802,
      "Ġkn": 2803,
      "Ġgr": 2804,
      "à¦®à¦£à¦¬": 2805,
      "ipedia": 2806,
      "Ġà¦ıà¦¤à¦¦": 2807,
      "à¦°à¦¸à¦°": 2808,
      "Ġà¦¸à¦¸": 2809,
      "Ġà¦°à¦«à¦¤": 2810,
      "Ġà§«à§Ń": 2811,
      "à¦Ĺà¦ĩ": 2812,
      "Ġstory": 2813,
      "59": 2814,
      "Ġà¦°à¦®": 2815,
      "Ġà¦ıà¦¸à¦Ĩà¦ĩ": 2816,
      "form": 2817,
      "Ġà¦ĵà¦ĸ": 2818,
      "Ġà¦¸à¦®à¦Ŀ": 2819,
      "Ġà¦«à¦¤": 2820,
      "Ġjust": 2821,
      "Ġà¦Ĩà¦¨à¦¸": 2822,
      "Ġà¦Ĺà¦®": 2823,
      "Ø®": 2824,
      "Ġà¦Łà¦®": 2825,
      "Ġà¦Ńà¦¦": 2826,
      "ren": 2827,
      "à¦¬à¦²à¦¤": 2828,
      "Ġà¦¬à¦¸à¦¨": 2829,
      "cial": 2830,
      "à¦Ĺà¦ª": 2831,
      "Ġà¦īà¦ĩà¦²": 2832,
      "Ġtoday": 2833,
      "main": 2834,
      "ÑĢ": 2835,
      "à¦¡à¦Ł": 2836,
      "à¦ªà§°": 2837,
      "Ġà§Ńà§«": 2838,
      "à¦¤à¦Ĺ": 2839,
      "ÙĦÙħ": 2840,
      "à§ĭ!": 2841,
      "olk": 2842,
      "lass": 2843,
      "('.": 2844,
      "Ġvideo": 2845,
      "Ġà¦«à¦ķ": 2846,
      "Ġminutes": 2847,
      "Ġwho": 2848,
      "Ġà¦ħà¦ªà¦¶à¦¨": 2849,
      "Ġà§ªà§§": 2850,
      "Ġà¦īà¦·": 2851,
      "à¦¼;": 2852,
      "Ġ100": 2853,
      "à§İà¦ªà¦°à¦¤": 2854,
      "à¦ĵà¦¦": 2855,
      "à¦ķà¦Ĩà¦ª": 2856,
      "acebook": 2857,
      "31": 2858,
      "Ġtech": 2859,
      "à¦¹à¦ķà¦¦": 2860,
      "ĠØµ": 2861,
      "itt": 2862,
      "Ġbr": 2863,
      "à¦ħà¦¤": 2864,
      "à¦²à¦¥": 2865,
      "Ġà¦ĩà¦īà¦ıà¦¨": 2866,
      "à¦²à¦ĩ": 2867,
      "à¦Ĩà¦ĩà¦¸": 2868,
      "Ġà¦ıà¦ĩà¦¸à¦¬": 2869,
      "à¦Ńà¦Ļ": 2870,
      "ĠÎ": 2871,
      "Ġà¦®à¦¨à¦¸": 2872,
      "à¦¿)à¥¤": 2873,
      "ateg": 2874,
      "lock": 2875,
      "à¦¨à¦ľà¦Ł": 2876,
      "Ġsup": 2877,
      "na": 2878,
      "px": 2879,
      "lah": 2880,
      "Ġ09": 2881,
      "agra": 2882,
      "Ġfe": 2883,
      "''": 2884,
      "à°": 2885,
      "ya": 2886,
      "ull": 2887,
      "Ġporn": 2888,
      "Ġ05": 2889,
      "Ġà¦ıà¦®à¦¨à¦ĩ": 2890,
      "Ġà¦ıà¦ķà¦¦à¦²": 2891,
      "Ġà¦ĵà¦¡": 2892,
      "Ġsu": 2893,
      "à¦®à¦ĵ": 2894,
      "à¦¯à¦¬à¦¦": 2895,
      "!!!": 2896,
      "à¦®à¦Ļ": 2897,
      "Ġà¦¤à¦¦": 2898,
      "Ġres": 2899,
      "Ġà¦ħà¦ªà¦°à¦¦": 2900,
      "Ġmonth": 2901,
      "Ġcr": 2902,
      "cy": 2903,
      "à¦Ĥ-": 2904,
      "Ġgo": 2905,
      "har": 2906,
      "sehritime": 2907,
      "Ø§Ø¨": 2908,
      "Ġwindow": 2909,
      "78": 2910,
      "Ġcol": 2911,
      "Ġupdate": 2912,
      "Ġà¦¸à¦ķà¦²à¦ķ": 2913,
      "Ġà¦ªà¦°à¦¦": 2914,
      "iss": 2915,
      "Ġà§«à§¬": 2916,
      "à¦¤à¦ļ": 2917,
      "Ġass": 2918,
      "à¦£à¦°": 2919,
      "Ġà¦īà¦ªà¦¸à¦°": 2920,
      "Ġà¦ľà¦¨à¦¨": 2921,
      "thor": 2922,
      "bo": 2923,
      "ĠâĨĲ": 2924,
      "à¦ĵà¦Ł": 2925,
      "Ġà¦ĩà¦¨à¦ľ": 2926,
      "Ġthey": 2927,
      "à¦¯à¦¹": 2928,
      "à¦Ĩà¦ĩà¦¡": 2929,
      "ax": 2930,
      "-%": 2931,
      "ester": 2932,
      "Ġà¦ľà¦¸": 2933,
      "Ġgen": 2934,
      "Ð¸": 2935,
      "itter": 2936,
      "Ġà§ªà§©": 2937,
      "Ġà¦Ľà¦ķ": 2938,
      "Ġbook": 2939,
      "Ġà¦¯à¦®": 2940,
      "Ġà¦Ĩà¦ķà¦¬à¦°": 2941,
      "Ġà¦ĵà¦Ł": 2942,
      "32": 2943,
      "à¦¼à¥¤âĢĻ": 2944,
      "Ùĭ": 2945,
      "Ġà¦Ĩà¦Ĺà¦®à¦¨": 2946,
      "ÙĦÙī": 2947,
      "Ġleave": 2948,
      "Ġwww": 2949,
      "Ġdhak": 2950,
      "Ðµ": 2951,
      "\",\"": 2952,
      "à¦ħà¦¬": 2953,
      "over": 2954,
      "Ġà¦ıà¦ĸà¦¨à¦ĩ": 2955,
      "Ġà¦īà¦ĩ": 2956,
      "app": 2957,
      "jp": 2958,
      "à¦¿à¦Ĥà¥¤": 2959,
      "Ġ08": 2960,
      "Ġà§ªà§ª": 2961,
      "reat": 2962,
      "oti": 2963,
      "Ġpol": 2964,
      "à¦·à¦¸": 2965,
      "à¦²à¦ĸ": 2966,
      "Ġwee": 2967,
      "Ġà¦¹à¦ĩ": 2968,
      "Ġà¦Ĺà¦£à¦¹à¦¤": 2969,
      "function": 2970,
      "Ġaf": 2971,
      "ina": 2972,
      "Ġà¦Ĩà¦Ń": 2973,
      "Ġ02": 2974,
      "à¦°à¦°à¦«": 2975,
      "Ġtimes": 2976,
      "Ġà¦¸à§İ": 2977,
      "Ġà¦¹à¦°à¦¤": 2978,
      "à¦°à¦«à¦°à¦®": 2979,
      "Ġà¦¨à¦¥": 2980,
      "Ġà¦¨à¦°à¦®": 2981,
      "ĠÙĥ": 2982,
      "ĠØ¹ÙĦÙĬÙĩ": 2983,
      "ne": 2984,
      "atch": 2985,
      "Ġà§Ńà§§": 2986,
      "ited": 2987,
      "Ġà¦¦à¦£": 2988,
      "Ø´": 2989,
      "oc": 2990,
      "india": 2991,
      "à¦£à¦«": 2992,
      "à¦¤à¦¸": 2993,
      "à¦¡à¦°": 2994,
      "Ġà¦Ĺà¦Ńà¦°": 2995,
      "led": 2996,
      "Ġadd": 2997,
      "next": 2998,
      "lh": 2999,
      "à§ĩà¦Ĥ": 3000,
      "à¦ªà¦Łà¦ª": 3001,
      "à¦ıà¦¸à¦Ĩà¦ĩ": 3002,
      "ts": 3003,
      "Ġà§¬à§«": 3004,
      "Ġà¦Ńà¦Ł": 3005,
      "ings": 3006,
      "Ġwrit": 3007,
      "à¦¦à¦ªà¦¤": 3008,
      "à¦¯à¦¶": 3009,
      "Ġyear": 3010,
      "Ġà¦Ĺà¦£à¦ª": 3011,
      "à¦Ĺà¦¤à¦Ń": 3012,
      "Ġhow": 3013,
      "aking": 3014,
      "àµį": 3015,
      "ÙĦØ§": 3016,
      "content": 3017,
      "Ġà¦Ĺà¦Ļ": 3018,
      "à¦·à¦ª": 3019,
      "à¦¹à§°": 3020,
      "wikipedia": 3021,
      "Ġarchives": 3022,
      "Ġinst": 3023,
      "Ġ06": 3024,
      "Ġnow": 3025,
      "olkata": 3026,
      "inter": 3027,
      "à§İà¦ªà¦°": 3028,
      "à¦°à¦¹à¦£à¦¯": 3029,
      "me": 3030,
      "Ġà´": 3031,
      "\\\"": 3032,
      "Ø¶": 3033,
      "à¦ĵà¦¬": 3034,
      "à¦ĵà¦ķ": 3035,
      "Ġ07": 3036,
      "Ġsome": 3037,
      "Ġcomm": 3038,
      "Ø³ÙĦÙħ": 3039,
      "arch": 3040,
      "Ġà¦ĩà¦¦": 3041,
      "sole": 3042,
      "à¦¶à¦ķà¦¦": 3043,
      "à§Ĥà¦ģ": 3044,
      "Ġ2011": 3045,
      "Ġà¦¶à¦ª": 3046,
      "Ġworld": 3047,
      "article": 3048,
      "Ġà¦¨à¦ķà¦²": 3049,
      "ĠÂ©": 3050,
      "Ġsun": 3051,
      "Ġour": 3052,
      "Ġà§«à§¨": 3053,
      "ĠâĹ": 3054,
      "Ġà¦¬à¦¦à¦°": 3055,
      "Ġfree": 3056,
      "à¦ıà¦¸à¦ıà¦«": 3057,
      "Ġsub": 3058,
      "lhet": 3059,
      "we": 3060,
      "ham": 3061,
      "2018": 3062,
      "idin": 3063,
      "ople": 3064,
      "Ġà¦ıà¦¨à¦ľ": 3065,
      "Ġà¦ıà¦ĩà¦Ł": 3066,
      "time": 3067,
      "à¦ħà¦ķ": 3068,
      "Ġà¦§à¦¸": 3069,
      "wor": 3070,
      "Ġà¦§à¦°à¦²": 3071,
      "à¦²à¦ĵ": 3072,
      "à¦¼)": 3073,
      "à¦Īà¦®": 3074,
      "ĠÃ": 3075,
      "à¦ħà¦ª": 3076,
      "à¦ŀà¦°": 3077,
      "Ġà¦ľà¦ľ": 3078,
      "Ġà¦Ĩà¦ªà¦²": 3079,
      "lanews": 3080,
      "ature": 3081,
      "Ġà¦Ĺà¦ľ": 3082,
      "ife": 3083,
      "Ġà¦¤à§İà¦ªà¦°à¦¤": 3084,
      "Ġ03": 3085,
      "à¦²à¦Łà¦¨": 3086,
      "find": 3087,
      "à§¬à§¦": 3088,
      "à¦ļà¦¨à¦ķ": 3089,
      "80": 3090,
      "Ġport": 3091,
      "rhs": 3092,
      "Ġà¦Ĩà¦ľà¦®": 3093,
      "à¦¾]": 3094,
      "Ġà¦¬à¦°à¦Ĺ": 3095,
      "Ġsaid": 3096,
      "ular": 3097,
      "oldid": 3098,
      "Ġfig": 3099,
      "Ġtags": 3100,
      "Ġist": 3101,
      "Ġà¦°à¦¹à¦®à¦¤": 3102,
      "roll": 3103,
      "Ġà¦¸à¦¶à¦¸": 3104,
      "Ġà¦ĭà¦¤": 3105,
      "][": 3106,
      "95": 3107,
      "à¦°à¦¹à¦£à¦ķ": 3108,
      "Ġà§«à§®": 3109,
      "Ġà¦Łà¦ª": 3110,
      "Ġà§¨à§¦à§¦à§Ń": 3111,
      "Ġà¦ªà¦°à¦ķ": 3112,
      "à¦ĸà¦£": 3113,
      "Ġent": 3114,
      "view": 3115,
      "à§ģà¦Ĥ": 3116,
      "Ġislam": 3117,
      "Ġà¦Ĩà¦ĸà¦¤": 3118,
      "Ġ04": 3119,
      "ĠÙĪØ³ÙĦÙħ": 3120,
      "Ġà¦¹à¦Ł": 3121,
      "Ġà¦¬à¦¸à¦²": 3122,
      "Ġbuy": 3123,
      "Ġ});": 3124,
      "ĠØ³": 3125,
      "à¦®à¦ŀ": 3126,
      "à¦¬à¦ķà¦ķ": 3127,
      "pre": 3128,
      "Ġpart": 3129,
      "à¦īà¦¥": 3130,
      "Ġà¦¹à¦ĩà¦¬": 3131,
      "Ġli": 3132,
      "97": 3133,
      "ale": 3134,
      "Ġid": 3135,
      "ading": 3136,
      "Ġà¦¬à¦ī": 3137,
      "à¦®à¦ĺà¦Ł": 3138,
      "Ġkolkata": 3139,
      "ble": 3140,
      "................": 3141,
      "Ġxxx": 3142,
      "ual": 3143,
      "Ġà¦ķà¦¬à¦²": 3144,
      "Ġà¦¨à¦ľà¦°à¦¦": 3145,
      "Ġbre": 3146,
      "à¦¦à¦¨à¦ķ": 3147,
      "Ġ31": 3148,
      "ade": 3149,
      "Ġà¦ĸà¦£": 3150,
      "Ġdays": 3151,
      "Ġà¦ĩà¦¨à¦ķ": 3152,
      "à¦¿;": 3153,
      "Ġà¦ķà¦¨à¦Ł": 3154,
      "Ġà¦¨à¦°à¦¸": 3155,
      "loc": 3156,
      "ier": 3157,
      "____": 3158,
      "Ðº": 3159,
      "à¦·à¦Ĺ": 3160,
      "à¦¼à§Ģà¥¤": 3161,
      "à¦Īà¦¨": 3162,
      "ani": 3163,
      "à¦ĩà¦¸à¦Ļ": 3164,
      "med": 3165,
      "Ġau": 3166,
      "âĢ²": 3167,
      "Åĵ": 3168,
      "Ġà¦Łà¦ķ": 3169,
      "Ġà¦Ľà¦¨": 3170,
      "à¤ķ": 3171,
      "Ġacc": 3172,
      "60": 3173,
      "press": 3174,
      "fer": 3175,
      "text": 3176,
      "ÙĮ": 3177,
      "Ġà¦ħà¦ªà¦®": 3178,
      "à§ĩâĢĶ": 3179,
      "Ġhel": 3180,
      "à¦¹à¦ķà¦°": 3181,
      "67": 3182,
      "roy": 3183,
      "Ġq": 3184,
      "à¦ĥ:": 3185,
      "2019": 3186,
      "Ġà¦¨à¦ĩ": 3187,
      "Ġà¦Ĩà¦ľà¦¹": 3188,
      "Ġà¦ĵà¦¨": 3189,
      "ĠÎ¿": 3190,
      "à§Ģ!": 3191,
      "à¦Ĩà¦ĩà¦¨": 3192,
      ")-": 3193,
      "Ġact": 3194,
      "mo": 3195,
      "Ġà¦ªà¦°à¦¸": 3196,
      "Ġev": 3197,
      "à§¨à§¦à§§à§¬": 3198,
      "à¦¿à¦Ĥ-": 3199,
      "ors": 3200,
      "Ġà¦ĵà¦®": 3201,
      "Ġbanglanews": 3202,
      "element": 3203,
      "Ġà¦ħà¦¬à¦¨à¦¤": 3204,
      "Ġrel": 3205,
      "Ġpeople": 3206,
      "à¦²à¦¹": 3207,
      "my": 3208,
      "Ġà¦Ńà¦°à¦¸": 3209,
      "à¦ĥ-": 3210,
      "Ġnewspaper": 3211,
      ".....": 3212,
      "à¦¬à¦¸à¦®": 3213,
      "Ġà§¬à§ª": 3214,
      "43": 3215,
      "Ġà¦¬à¦°à¦ĸ": 3216,
      "Ġà¦ħà¦ªà¦¬": 3217,
      "à¦£à¦ª": 3218,
      "yle": 3219,
      "Ġà¦ħà¦¤à¦ıà¦¬": 3220,
      "2017": 3221,
      "à¦°à¦Ļ": 3222,
      "Ġà§§à§«à§¦": 3223,
      "Ġur": 3224,
      "à¦¬à¦¨à¦ķ": 3225,
      "Ġà§«à§¯": 3226,
      "Ġà¦·à¦·": 3227,
      "Ġà¦¬à¦¶": 3228,
      "à¦°à¦ļà¦£": 3229,
      "à¦ªà¦ª": 3230,
      "esterday": 3231,
      "à¦ħà¦¸": 3232,
      "Ġà¦ĩà¦īà¦ľ": 3233,
      "fo": 3234,
      "omoy": 3235,
      "42": 3236,
      "à¦Ĺà§°": 3237,
      "Ġknow": 3238,
      "Ġà¦Ĩà¦ĩà¦¯": 3239,
      "Ġyesterday": 3240,
      "à¦§à¦Ł": 3241,
      "Ġà§Ńà§¨": 3242,
      "à¦¶à¦ĵ": 3243,
      "Ġhere": 3244,
      "ations": 3245,
      "les": 3246,
      "Ġmob": 3247,
      "bp": 3248,
      "à¦°à¦¦à¦¤": 3249,
      "à¦¨à¦«": 3250,
      "Ġà¦¸à¦¬à¦Ĺ": 3251,
      "Ġdocument": 3252,
      "Ġrec": 3253,
      "ond": 3254,
      "Ġà¦ĺà¦Łà¦Ľ": 3255,
      "Ġà§§à§¨à§¦": 3256,
      "irl": 3257,
      "width": 3258,
      "41": 3259,
      "'t": 3260,
      "Ġho": 3261,
      "à¦£à¦¯": 3262,
      "à§¨à§¦à§¨à§¦": 3263,
      "à¦°à¦¤à¦ķ": 3264,
      "Ġà¦Ĩà¦Łà¦Ł": 3265,
      "ize": 3266,
      "à¦°à¦¹à¦°": 3267,
      "Ġsat": 3268,
      "Ġthere": 3269,
      "Ġà¦īà¦¹": 3270,
      "Ġà§¬à§®": 3271,
      "uk": 3272,
      "Ġà§«à§§": 3273,
      "red": 3274,
      "à¦ĵà¦Ń": 3275,
      "Ġà¦²à¦¸": 3276,
      "Ġbdst": 3277,
      "à¦®à§°": 3278,
      "à¦Ĩà¦īà¦Ł": 3279,
      "Ġà¦ľà¦¨à¦Ĺà¦£à¦ķ": 3280,
      "à¦¬à¦¦à¦¨": 3281,
      "aw": 3282,
      "online": 3283,
      "à¦¬à¦ªà¦¨": 3284,
      "bel": 3285,
      "Ġdr": 3286,
      "Ø²": 3287,
      "Ġà¦¥à¦ķ": 3288,
      "lease": 3289,
      "sha": 3290,
      "ush": 3291,
      "à¦®à¦ĩ": 3292,
      "Ġlink": 3293,
      "à§ĩ'": 3294,
      "pur": 3295,
      "ating": 3296,
      "Ġà¦Ńà¦Ĺ": 3297,
      "à¦¤à¦°à¦ķ": 3298,
      "100": 3299,
      "à¦ķà¦«": 3300,
      "Ġever": 3301,
      "click": 3302,
      "bangladesh": 3303,
      "Ġà¦Ĺà¦£à¦¸": 3304,
      "Ġjob": 3305,
      "à¦¾âĢĿ": 3306,
      "à¦°à¦ļà¦°": 3307,
      "data": 3308,
      "Ġà¤ķ": 3309,
      "à¦Ĩà¦ĩà¦ª": 3310,
      "à¦ĵà¦ª": 3311,
      "à§¨à§¦à§§à§§": 3312,
      "ict": 3313,
      "Ġgoogle": 3314,
      "ÑĤ": 3315,
      "ta": 3316,
      "Ġà¦ľà¦¨à¦ķà¦¨": 3317,
      "à¦¦à§°": 3318,
      "à§±à¦¸": 3319,
      "arm": 3320,
      "à¦ļà¦¶": 3321,
      "à¦°à¦¨à¦Ĺà¦°": 3322,
      "Ġset": 3323,
      "Ġà§¬à§Ń": 3324,
      "Ġtra": 3325,
      "Ġà¦ĩà¦¸à¦®": 3326,
      "bs": 3327,
      "(){": 3328,
      "à¦ĩà¦ĵà¦¯": 3329,
      "Ġav": 3330,
      "à¦¶à¦ĸ": 3331,
      "Ġà¦ķà¦®à¦¬": 3332,
      "à¦łà¦¤": 3333,
      "à¦Ĥ,": 3334,
      "igh": 3335,
      "Ġche": 3336,
      "ips": 3337,
      "à¦Ĩà¦¦": 3338,
      "Ġdhaka": 3339,
      "Ġà¦ĺà¦Łà¦²": 3340,
      "à¦°à¦ķà¦°": 3341,
      "Ġà¦ĺà¦¡": 3342,
      "à¦ĸà¦®": 3343,
      "à¦¾à¥¤âĢĿ": 3344,
      "Ġà¦Ĩà¦°à¦®": 3345,
      "ze": 3346,
      "Ġà¦§à§°": 3347,
      "à¦¸à¦ĵ": 3348,
      "ref": 3349,
      "Ġà§¬à§¬": 3350,
      "à¦Ŀà¦ĸ": 3351,
      "à¦ķà¦ĵ": 3352,
      "à¦¡à¦Ĺ": 3353,
      "à¦²à¦ªà¦®": 3354,
      "Ġà§«à§ª": 3355,
      "Ġà¦¦à¦°à¦¬": 3356,
      "Ġchoti": 3357,
      "à¦°à¦®à¦§": 3358,
      "ful": 3359,
      "à¦¶à¦ľ": 3360,
      "Ġà¦īà¦Ĺ": 3361,
      "rent": 3362,
      "à¦¬à¦ķà¦¦": 3363,
      "Ġsong": 3364,
      "à¦·à¦ĩ": 3365,
      "Ġà¦ĥ": 3366,
      "='": 3367,
      "scrip": 3368,
      "Ġ\"\"": 3369,
      "Ġspe": 3370,
      "Ġà¦¸à¦¹à¦ķà¦°": 3371,
      "ÙıÙĳ": 3372,
      "à¦¶à¦¨à¦ķ": 3373,
      "54": 3374,
      "à¦Ŀà¦²": 3375,
      "à¦ªà¦ľ": 3376,
      "à¦Ńà¦¸": 3377,
      "}}": 3378,
      "Ġ\"+": 3379,
      "à¦Ĺà¦ĵ": 3380,
      "Ð½": 3381,
      "Ġgu": 3382,
      "Ġà¦ĩà¦īà¦ıà¦¸": 3383,
      "ann": 3384,
      "à¦¼...": 3385,
      "Ġà¦Ĺà¦£à¦¨": 3386,
      "Ġvis": 3387,
      "Ġà¦¢à¦²": 3388,
      "88": 3389,
      "à¦Ļà¦ļ": 3390,
      "Ġà¦Ĩà¦ĩà¦«": 3391,
      "Ġà¦ıà¦®à¦¬": 3392,
      "ÛĮ": 3393,
      "ke": 3394,
      "Ġviagra": 3395,
      "ty": 3396,
      "ons": 3397,
      "Ġà¦ĩà¦ľà¦¤": 3398,
      "à¦¤à¦ĵ": 3399,
      "à¦ıà¦ĸà¦¨": 3400,
      "ÙĬÙĨ": 3401,
      "aut": 3402,
      "artime": 3403,
      "ikroy": 3404,
      "Ġà¦°à¦ĵà¦¨": 3405,
      "Ġà¦īà¦¸": 3406,
      "52": 3407,
      "Ġà¦¸à¦°à¦¦": 3408,
      "ix": 3409,
      "Ġà¦°à¦ŀ": 3410,
      "53": 3411,
      "Ġà¦ıà¦¡à¦Ń": 3412,
      "Ġmobile": 3413,
      "Ġsehritime": 3414,
      "Ġà¦ªà¦ª": 3415,
      "Ġà¦¬à¦ĩà¦®": 3416,
      "Ġà¦¸à¦®à¦¤": 3417,
      "Ġdiv": 3418,
      "Ġà¦¶à¦Ł": 3419,
      "Ġà¦¬à¦°à¦£": 3420,
      "à¦Ļà¦¨": 3421,
      "urn": 3422,
      "Ġà¦¶à¦¤à¦Ń": 3423,
      "à¦¬à¦°à¦¤": 3424,
      "Ġà¦²à¦°": 3425,
      "à§«à§¦à§¦": 3426,
      "Ġhim": 3427,
      "à¦·à¦¬": 3428,
      "Ġà§¨à§¦à§¦à§¦": 3429,
      "à¦¼à¦¾âĢĻ": 3430,
      "Ġcor": 3431,
      "à¦ĩà¦¸à¦²": 3432,
      "à¦ħà¦§": 3433,
      "à§İà¦¸à¦ķà¦°": 3434,
      "à¦ľà¦ķà¦°": 3435,
      "Ġà¦ĵà¦¹": 3436,
      "\":\"": 3437,
      "Ġop": 3438,
      "à¦ľà§°": 3439,
      "Ġac": 3440,
      "Ġà¦¨à¦¬à¦®": 3441,
      "à¦·à¦ķà¦ķ": 3442,
      "Ġauthor": 3443,
      "Ġund": 3444,
      "gb": 3445,
      "ese": 3446,
      "ater": 3447,
      "ÙĪØ§": 3448,
      "51": 3449,
      "Ġbest": 3450,
      "à¦Ĺà¦ľà¦ªà¦¤": 3451,
      "Ġah": 3452,
      "azar": 3453,
      "à§®à§¦": 3454,
      "Ġul": 3455,
      "Ġà¦ĺà¦Łà¦¤": 3456,
      "select": 3457,
      "à§¨à§¦à§§à§«": 3458,
      "ely": 3459,
      "à¦Łà¦ĵ": 3460,
      "à¦ĩà¦ĸ": 3461,
      "ions": 3462,
      "à¦·à¦ķà¦¤": 3463,
      "sy": 3464,
      "Ġday": 3465,
      "air": 3466,
      "top": 3467,
      "br": 3468,
      "Ġwest": 3469,
      "enews": 3470,
      "off": 3471,
      "arta": 3472,
      "Ø·": 3473,
      "console": 3474,
      "à¦°à¦®à¦¶": 3475,
      "à¦Ĺà¦«": 3476,
      "Ġà¦«à¦²à¦¨": 3477,
      "à¦Ĩà¦ĩà¦ľ": 3478,
      "Ġà¦Ĩà¦Ĺà¦¤": 3479,
      "inner": 3480,
      "ãģ": 3481,
      "ng": 3482,
      "ism": 3483,
      "à¦ªà¦ķà¦²": 3484,
      "à¦¨à¦¸à¦Ń": 3485,
      "Ġwhen": 3486,
      "ana": 3487,
      "Ġà¦ļà¦²à¦²": 3488,
      "66": 3489,
      "Ġà§«à§©": 3490,
      "Ġà¦ķà¦¨à¦Ń": 3491,
      "Ø§Ø±": 3492,
      "Ġgener": 3493,
      "Ġ50": 3494,
      "à¤¬": 3495,
      "ories": 3496,
      "à¦§à¦°à¦¨": 3497,
      "à¦®à¦¸à¦®à¦°": 3498,
      "Ġà¦¸à¦ļà¦²": 3499,
      "???": 3500,
      "à¦ĩà¦Łà¦¸": 3501,
      "getelement": 3502,
      "Ġalso": 3503,
      "Ġaw": 3504,
      "à¦ıà¦¨à¦ı": 3505,
      "Ġà¦Łà¦¯": 3506,
      "Ġgood": 3507,
      "Ġà¦ħà¦®à¦°": 3508,
      "bad": 3509,
      "à¯į": 3510,
      "à¦¼à¦¾)": 3511,
      "ates": 3512,
      "Ġà§ªà§¦à§¦": 3513,
      "Ġfacebook": 3514,
      "Ġà¦īà§İà¦ķ": 3515,
      "bf": 3516,
      "Ġà¦ıà¦ķà¦¶": 3517,
      "à¦Ĺà¦łà¦¨à¦Ł": 3518,
      "Ġà¦īà¦¬": 3519,
      "Ġover": 3520,
      "amil": 3521,
      "Ġhd": 3522,
      "Ġà¦ħà¦¬à¦§": 3523,
      "Ġsch": 3524,
      "à¦ıà¦ª": 3525,
      "ÙĪÙĦ": 3526,
      "Ġà¦Łà¦¸": 3527,
      "Ġà¦²à¦Ĺà¦¤": 3528,
      "Ġà§Ńà§Ń": 3529,
      "à¦ķà¦¸à¦¹": 3530,
      "Ġà§¬à§¯": 3531,
      "Ġà¦ıà¦ĩà¦ļà¦ıà¦¸à¦¸": 3532,
      "],": 3533,
      "gr": 3534,
      "Ġà§¨à§¦à§¦à§¬": 3535,
      "$(": 3536,
      "Ġphot": 3537,
      "Ġà¦ľà¦Ĺ": 3538,
      "Ġà§Ńà§®": 3539,
      "Ġà¦Ĩà¦«à¦°": 3540,
      "Ġà¦ĩà¦¶": 3541,
      "à¦¼à¦¾à¦ĥ": 3542,
      "ough": 3543,
      "à¦°à¦£à¦ķ": 3544,
      "Ġthank": 3545,
      "Ġà¦ıà¦ķà¦ĩà¦Ń": 3546,
      "mm": 3547,
      "Ġapp": 3548,
      "Ġlog": 3549,
      "à¦ķà¦¸à¦ĩ": 3550,
      "Ġà¦ħà¦²à¦°": 3551,
      "à¦¨à¦¸à¦Ļ": 3552,
      "bengal": 3553,
      "Ġprat": 3554,
      "Û¡": 3555,
      "Ġà¦ªà¦°à¦ªà¦°à¦ĩ": 3556,
      "Ġà¦ķà¦®à¦¤": 3557,
      "Ġà¦īà¦ĸ": 3558,
      "à¦Ĩà¦¸": 3559,
      "list": 3560,
      "Ġfil": 3561,
      "bar": 3562,
      "Ġel": 3563,
      "block": 3564,
      "Ġà¦¬à¦°à¦«": 3565,
      "à¦°à¦ļà¦¨": 3566,
      "Ġà¦ľà¦¨à¦¸à¦Ń": 3567,
      "Ġà§¯à§¯": 3568,
      "Ġhot": 3569,
      "uc": 3570,
      "à¦ªà¦Ĺà¦ŀ": 3571,
      "urrent": 3572,
      "Ġà¦¶à¦¸": 3573,
      "90": 3574,
      "ody": 3575,
      "à¦ļà¦ľà¦¨": 3576,
      "à¦®à¦Ń": 3577,
      "('#": 3578,
      "Ġà¦Ĩà¦Ĺà¦·": 3579,
      "Ġà¦Ńà¦²": 3580,
      "Ġà¦ıà¦ķà¦ľà¦¨à¦ķ": 3581,
      "site": 3582,
      "Ġà¦ħà¦¬à¦®": 3583,
      "byid": 3584,
      "à¦¯à¦®à¦¯": 3585,
      "Ġà¦®à¦°à¦¹": 3586,
      "Ġà¦ļà¦ķà¦°": 3587,
      "ivers": 3588,
      "à¦¬à¦ĵ": 3589,
      "getelementbyid": 3590,
      "Ġ>>": 3591,
      "do": 3592,
      "().": 3593,
      "Ġhad": 3594,
      "à¦Łà¦ĸ": 3595,
      "à¦ıà¦¨à¦¸": 3596,
      "Ġà¦ıà¦ķà¦¨": 3597,
      "à¦¸à¦¨à¦ķ": 3598,
      "cre": 3599,
      "Ġà§¨à§«à§¦": 3600,
      "Ġà¦°à¦ļ": 3601,
      ",\"": 3602,
      "à¦ľà¦¨à¦¶": 3603,
      "Ġà¦Ĩà¦¨à¦²": 3604,
      "à¦²à¦¡": 3605,
      "à¦¨à¦Ĩà¦®": 3606,
      "Ġà¦ĩà¦īà¦ķ": 3607,
      "Ġ]": 3608,
      "à¦ĩà¦Łà¦Ł": 3609,
      "à¦ļà¦°à¦£": 3610,
      "Ġà¦¹à¦ľà¦°à¦¤": 3611,
      "à¦§à¦ķà¦¤": 3612,
      "à¦Ĩà¦°à¦Ł": 3613,
      "à¦¬à¦ªà¦¤": 3614,
      "Ġfuck": 3615,
      "à¦ıà¦®à¦¨": 3616,
      "à¦¥à¦ķà¦¦": 3617,
      "Ġà§¨à§¦à§¦à§§": 3618,
      "nc": 3619,
      "à¦ľà¦¡": 3620,
      "à¦¹à¦Ń": 3621,
      "?âĢĻ": 3622,
      "Ġà¦¸à¦°à¦²": 3623,
      "à¦ĩà¦ķà¦®": 3624,
      "à¦¾âĢĻà¥¤": 3625,
      "Ġenglish": 3626,
      "98": 3627,
      "à¦ľà¦ĵ": 3628,
      "77": 3629,
      "Ġà®": 3630,
      "à¦ķà¦²à¦¨": 3631,
      "à¦¹à¦¤à¦¦": 3632,
      "/-": 3633,
      "ement": 3634,
      "à¦ľà¦ªà¦¥": 3635,
      "Ġtheir": 3636,
      "Ġsm": 3637,
      "job": 3638,
      "xxxx": 3639,
      "Ġà¦ıà¦ķà¦®à¦¤": 3640,
      "Ġbar": 3641,
      "but": 3642,
      "à¦ķà¦ľà¦¨à¦ķ": 3643,
      "Ġportal": 3644,
      "à¦Ľà¦ª": 3645,
      "àª": 3646,
      "à¦¼à¦¿à¦Ĥ": 3647,
      "68": 3648,
      "Ġlabel": 3649,
      "Ġà¦¯à¦¤à¦ĩ": 3650,
      "Ġname": 3651,
      "tal": 3652,
      "ote": 3653,
      "à¦¯à¦®à¦ķ": 3654,
      "Ġà¦¨à¦¬à¦¬à¦°": 3655,
      "Ġà¦ķà¦®à¦¨": 3656,
      "à¦¯à¦°à¦ķà¦®": 3657,
      "Ġwork": 3658,
      "div": 3659,
      "Ġsylhet": 3660,
      "200": 3661,
      "====": 3662,
      "bt": 3663,
      "ged": 3664,
      "selector": 3665,
      "à§Ńà§¦": 3666,
      "à¦ĺà¦®": 3667,
      "à¦®à¦ĺ": 3668,
      "fi": 3669,
      "Ġmovi": 3670,
      "ys": 3671,
      "Ġà¦¤à¦«à¦¸": 3672,
      "Ġà¦«à¦°à¦¹": 3673,
      "2016": 3674,
      "Ġà¦Ĩà¦¬à¦¶": 3675,
      "Ġà¦ķà¦Ń": 3676,
      "irc": 3677,
      "à¦¸à¦Ńà¦¬à¦¨": 3678,
      "Ġthem": 3679,
      "scroll": 3680,
      "Ġpublisher": 3681,
      "Ġà¦°à¦¤à¦¨": 3682,
      "new": 3683,
      "rc": 3684,
      "Ġà§Ńà§¬": 3685,
      "innerhtml": 3686,
      "Ġpl": 3687,
      "alo": 3688,
      "à¦ļà¦Ĺà¦¡": 3689,
      "Ġmod": 3690,
      "à¦ķà¦®à¦¤": 3691,
      "Ġtv": 3692,
      "à¦£à¦¹": 3693,
      "Ġpratidin": 3694,
      "à¦¥à¦Ń": 3695,
      "à¦Ĺà¦ªà¦¤": 3696,
      "à¦°à¦¬à¦¤": 3697,
      "ader": 3698,
      "Ġà§®à§«": 3699,
      "Ġmd": 3700,
      "Ġà¦ķà¦ĩ": 3701,
      "Ġà¦Łà¦Ļ": 3702,
      "Ġà¦ĸà¦¸à¦¡": 3703,
      "à§±à§°": 3704,
      "Ġother": 3705,
      "Ġwhich": 3706,
      "Ġà¦ĩà¦¨à¦Ń": 3707,
      "Ġà¦Ĳà¦¶": 3708,
      "ep": 3709,
      "tv": 3710,
      "Ġà¦Ĩà¦ĩà¦¨à¦Ĺà¦¤": 3711,
      "ho": 3712,
      "Ġ2010": 3713,
      "à¦Ĩà¦¯": 3714,
      "ton": 3715,
      "à¦¿à¥¤âĢĿ": 3716,
      "ci": 3717,
      "height": 3718,
      "à¦·à¦¦à¦°": 3719,
      "ÙĪÙĨ": 3720,
      "Ġà¦¬à¦£": 3721,
      "à¦ĸà¦¸": 3722,
      "Ġafter": 3723,
      "link": 3724,
      "tar": 3725,
      "à§°à¦¹": 3726,
      "Ġà¦¤à¦ĸà¦¨à¦ĵ": 3727,
      ",.": 3728,
      "ma": 3729,
      "Ġwould": 3730,
      "lic": 3731,
      "à¦¶à¦ķà¦¤": 3732,
      "Ġà§®à§®": 3733,
      "à¦ıà¦®à¦ĩ": 3734,
      "à§Ńà§§": 3735,
      "Ġbeen": 3736,
      "Ġà¦¦à¦¶à¦Ł": 3737,
      "à¦īà¦ľà¦Ł": 3738,
      "Ġà§§à§ªà§¨à§¬": 3739,
      "à¦¯à¦®à¦¤": 3740,
      "Ġà¦ªà¦Ļ": 3741,
      "à¦¬à§İ": 3742,
      "à¦°à¦¤à¦²": 3743,
      "Ġà¦¤à¦°à¦²": 3744,
      "à¦ľà¦īà¦¦": 3745,
      "idd": 3746,
      "read": 3747,
      "alth": 3748,
      "à¦ľà¦¹": 3749,
      "ise": 3750,
      "à¦īà¦ľà¦ķ": 3751,
      "Ġà¦Ĩà¦¹à¦¤à¦¦": 3752,
      "Ġà¦ľà¦ĸà¦®": 3753,
      "name": 3754,
      "Ġâĸ": 3755,
      "Ġà¦ıà¦°à¦®à¦§": 3756,
      "à¦ªà¦¶à¦¨": 3757,
      "Ġà¦¯à¦¤à¦¦": 3758,
      "ages": 3759,
      "Ġà¦¶à¦ĵ": 3760,
      "att": 3761,
      "ool": 3762,
      "ject": 3763,
      "à¦®à¦¨à¦ĩ": 3764,
      "han": 3765,
      "ĠâĢł": 3766,
      "Ġà¦®à¦¤à¦ĩ": 3767,
      "Ġà¦®à¦®": 3768,
      "Â¤": 3769,
      "Ġà§¬à§¨": 3770,
      "Ġà¦ĩà¦¨à¦¡": 3771,
      "à¦¾\"": 3772,
      "à¦¸à¦«à¦Ł": 3773,
      "à¦¦à¦ķà¦¦": 3774,
      "à¦°à¦ŀ": 3775,
      "Ġallah": 3776,
      "Ġà¦ĩà¦ª": 3777,
      "iy": 3778,
      "arn": 3779,
      "à¦¸à¦¯": 3780,
      "Ġà¦Ľà¦¤": 3781,
      "Ġà¦Ĩà¦²à¦¤": 3782,
      "Ġà¦¨à¦¬à¦ľ": 3783,
      "Ġke": 3784,
      "Ġadmin": 3785,
      "ĠÙĨ": 3786,
      "Ġà¦ķà¦¸": 3787,
      "à§İà¦¸à¦°": 3788,
      "à¦¯à¦ķà¦²": 3789,
      "Ġà¦¶à¦ĵà¦ķà¦¤": 3790,
      "à¦īà¦¨à¦¸": 3791,
      "Ġà¦ĩà¦īà¦ıà¦¨à¦ĵ": 3792,
      "à¦ıà¦®à¦ľ": 3793,
      "à¦²à¦§à¦¨": 3794,
      "Ġsal": 3795,
      "Ġà¦Ŀà¦Ĺà¦¡": 3796,
      "Ġà¦īà¦ªà¦®à¦¹": 3797,
      "ae": 3798,
      "ces": 3799,
      "à¦®à¦¸à¦¹": 3800,
      "esday": 3801,
      "à§ĩà¥¤[": 3802,
      "Ġtop": 3803,
      "à§°à¦®": 3804,
      "Ġà¦ıà¦ĩà¦¬": 3805,
      "aption": 3806,
      "à§İà¦¸à¦ķà¦¦": 3807,
      "Ġà¦¸à¦ĸ": 3808,
      "Ġmost": 3809,
      "right": 3810,
      "à§§à§¯à§¯": 3811,
      "Ø¥": 3812,
      "Ġà¦¶à¦¤à¦ķà¦°": 3813,
      "Ġà¦®à¦Īà¦¨": 3814,
      "Ġback": 3815,
      "Ġpaper": 3816,
      "Ġà¦¬à¦®": 3817,
      "Ġà¦ıà¦ķà¦ĩà¦¸à¦Ļ": 3818,
      "à¦ıà¦¸à¦ıà¦¸": 3819,
      "inal": 3820,
      "à¦ķà¦Ĺà¦ŀ": 3821,
      "font": 3822,
      "Ġà¦°à¦¤": 3823,
      "Ġà¦®à¦ĩ": 3824,
      "nal": 3825,
      "à¦®à¦ķà¦°à¦£": 3826,
      "Ġà¦ĸà¦¨à¦¨": 3827,
      "Ġevery": 3828,
      "</": 3829,
      "à¦Ĩà¦ķ": 3830,
      "Ġà¦ķà¦Ļ": 3831,
      "à¦ıà¦®à¦¬": 3832,
      "à¦¤à¦°à¦ª": 3833,
      "à¦¹à¦¹": 3834,
      "à¦²à§°": 3835,
      "à¦łà¦ª": 3836,
      "Ġbh": 3837,
      "à¦Ŀà¦¬": 3838,
      "dis": 3839,
      "69": 3840,
      "Ġà§®à§¬": 3841,
      "Ġunder": 3842,
      "ord": 3843,
      "à¦°à¦¬à¦£": 3844,
      "à¦¬à¦°à¦¦": 3845,
      "Ġsam": 3846,
      "Ġlife": 3847,
      "Ġà¦ľà¦¨à¦¸à¦®": 3848,
      "à¦°à¦¸à¦¬": 3849,
      "à¦Ĩà¦°à¦¬": 3850,
      "ĠÙĩ": 3851,
      "à¦ªà¦ķà¦Ń": 3852,
      "à¦ĩà¦¨à¦¸": 3853,
      "Ġsecon": 3854,
      "à¦²à¦ķà¦¦": 3855,
      "à¦ŀà¦¦": 3856,
      "orts": 3857,
      "Ġà¦¸à¦¹à¦¸": 3858,
      "Ġgol": 3859,
      "à¦Ĩà¦ĩà¦¬": 3860,
      "à¦¨à¦ľà¦¨à¦ķ": 3861,
      "Ġà¦Ĩà¦ĩà¦ľ": 3862,
      "Ġà¦¸à¦¤à¦¤": 3863,
      "py": 3864,
      "Ġoneindia": 3865,
      "à¦Ńà¦°à¦¶": 3866,
      "Ġurl": 3867,
      "Ġthen": 3868,
      "ung": 3869,
      "à¤²": 3870,
      "Ġwant": 3871,
      "Ġindian": 3872,
      "Ġbig": 3873,
      "ved": 3874,
      "Ġà¦ªà¦°à¦¤": 3875,
      "0000": 3876,
      "à¦¯à¦ľà¦¨à¦ķ": 3877,
      "à¦¡à¦«": 3878,
      "of": 3879,
      "Ġdon": 3880,
      "à¦¨à¦°à¦¤": 3881,
      "Ġà¦Ĺà¦¦": 3882,
      "Ġà¦Īà¦¦à¦Ĺ": 3883,
      "Ġstud": 3884,
      "Ġsite": 3885,
      "Ġà¦¹à¦ľà¦®": 3886,
      "Ġà¦¬à¦Ľ": 3887,
      "Ġà¦Ĩà¦¸à¦ķ": 3888,
      "Ġà§¬à§§": 3889,
      "Ġ`": 3890,
      "Ġvery": 3891,
      "Ġà¦ıà¦ķà¦ªà¦°": 3892,
      "ital": 3893,
      "Ġà¦Ĺà¦¯": 3894,
      "Ġà¦°à¦ĵ": 3895,
      "bengali": 3896,
      "Ġgirl": 3897,
      "file": 3898,
      "à¦Ļà¦²": 3899,
      "ode": 3900,
      "Ġer": 3901,
      "à¦«à¦ķ": 3902,
      "à¦ķà¦¹": 3903,
      "Ġmus": 3904,
      "td": 3905,
      "à¦ıà¦¡": 3906,
      "ari": 3907,
      "ric": 3908,
      "Ġà§¬à§©": 3909,
      "à¦¿),": 3910,
      "à¦¯à¦Łà¦ķà¦¦": 3911,
      "logy": 3912,
      "Ġsk": 3913,
      "à¦¬à¦ķà¦°": 3914,
      "Ġà¦Ĩà¦«à¦¸": 3915,
      "à¦°à¦ĺ": 3916,
      "Ġà¦¨à¦ĵà¦¯": 3917,
      "Ġà¦ĩà¦¡": 3918,
      "Ġbet": 3919,
      "à¦®à¦¨à¦Ł": 3920,
      "à¦ĺà¦²": 3921,
      "à¦ıà¦¸à¦ıà¦®": 3922,
      "set": 3923,
      "à¦ĸà¦Ł": 3924,
      "Ġà§¯à§¬": 3925,
      "Ġsee": 3926,
      "Ġà¦Ĩà¦¸à¦®": 3927,
      "hab": 3928,
      "itor": 3929,
      "Ġà¦ľà¦¨à¦Ĺà¦¨": 3930,
      "Ġview": 3931,
      "Ġcle": 3932,
      "à¦¹à¦¦": 3933,
      "à¦ĩà¦ľà¦¡": 3934,
      "Ġdel": 3935,
      "Ġà¦ıà¦¸à¦ª": 3936,
      "à¦¾âĢĺ": 3937,
      "script": 3938,
      "Ġà¦¸à¦¬à¦¶": 3939,
      "ony": 3940,
      "Ġà§¨à§¦à§¦à§ª": 3941,
      "à¦¼à§ĩ-": 3942,
      "Ġcar": 3943,
      "Ø§Ùħ": 3944,
      "reen": 3945,
      "Ġbreaking": 3946,
      "Ġà¦¹à¦°à¦®": 3947,
      "à¤¦": 3948,
      "ied": 3949,
      "à¦§à¦¹à¦¯": 3950,
      "Ġhigh": 3951,
      "span": 3952,
      "Ġreg": 3953,
      "à²": 3954,
      "à§ĭà¥¤âĢĻ": 3955,
      "à§ģà§ģ": 3956,
      "à´¾": 3957,
      "à¦¯à¦°à¦¤": 3958,
      "à§¨à§¦à§§à§©": 3959,
      "Ġà§®à§Ń": 3960,
      "Ġusd": 3961,
      "à¤¾à¤Ĥ": 3962,
      "à¦Łà¦¹": 3963,
      "Ġà¦ķà¦¦": 3964,
      "thing": 3965,
      "à¦¦à¦¨à¦¶": 3966,
      "Ġright": 3967,
      "roid": 3968,
      "Ġà¦ħà¦¬à¦¤": 3969,
      "Ġà¦ĸà¦°": 3970,
      "à¦Łà¦¸à¦¹": 3971,
      "Ġà¦¤à¦¤à¦ķ": 3972,
      "à¦ļà¦¸": 3973,
      "ser": 3974,
      "Ġà¦¸à¦ĩ": 3975,
      "à¦¶à¦¸à¦¹": 3976,
      "Ġà¦ħà¦¨à¦¶à¦¨": 3977,
      "à§¨à§¦à§§à§¦": 3978,
      "à¦¦à¦īà¦²": 3979,
      "ific": 3980,
      "Ġà¦Ĩà¦ł": 3981,
      "Ġà¦¹à¦¨à¦¨": 3982,
      "Ġà§¯à§®": 3983,
      "Ø§Ø¡": 3984,
      "bb": 3985,
      "Ġà¦¨à¦¬à¦¨": 3986,
      "à§İà¦¸à¦¬": 3987,
      "Ġà¦ķà¦ĸà¦¨à¦ĩ": 3988,
      "Ġà§¨à§¦à§¦à§«": 3989,
      "post": 3990,
      "Ġà§Ńà§¯": 3991,
      "ii": 3992,
      "Ġunivers": 3993,
      "Ġsep": 3994,
      "Ġà¦ķà¦¬à¦°à¦¸": 3995,
      "Ġwebsite": 3996,
      "Ġ},": 3997,
      "blog": 3998,
      "à¦¬à¦ľà¦¨à¦¦": 3999,
      "à¦ħà¦«": 4000,
      "à¦ıà¦¨à¦ıà¦¸": 4001,
      "')": 4002,
      "Ġmonths": 4003,
      "Ġna": 4004,
      "Ġà¦ªà¦¥à¦ļ": 4005,
      "Ġserv": 4006,
      "Ġbl": 4007,
      "Ġà¦ĸà¦¡": 4008,
      "Ġstr": 4009,
      "à¦¦à¦¹": 4010,
      "à¦¤à¦°à¦¨": 4011,
      "pad": 4012,
      "Ġà¦¸à¦¯": 4013,
      "à¦§à¦¦": 4014,
      "----------------": 4015,
      "Ġà¦Ĩà¦¨à¦¬": 4016,
      "Ġà¦Ĺà¦£à¦§à¦°": 4017,
      "ource": 4018,
      "Ġ$('.": 4019,
      "Ġà¦ıà¦¹": 4020,
      "Ġà¦ĺà¦Łà¦¬": 4021,
      "Ġits": 4022,
      "Ð»": 4023,
      "à¦īà¦ªà¦ľ": 4024,
      "(\"#": 4025,
      "ute": 4026,
      "Ġpers": 4027,
      "Ġwed": 4028,
      "Ġà§¯à§«": 4029,
      "land": 4030,
      "à¦Ĩà¦¶": 4031,
      "Ġhelp": 4032,
      "ertain": 4033,
      "Ġbla": 4034,
      "vide": 4035,
      "Ġplay": 4036,
      "à¦°à¦ªà¦ķ": 4037,
      "Ġsl": 4038,
      "Ġà¦¯à¦¤à¦ķ": 4039,
      "fil": 4040,
      "Ġfri": 4041,
      "à§°à¦¯": 4042,
      "à¤®": 4043,
      "Ġeur": 4044,
      "Ġfull": 4045,
      "let": 4046,
      "national": 4047,
      "à¦§à¦¸": 4048,
      "Ġà¦Ĺà¦¤à¦¬": 4049,
      "Ġà¦ıà¦¸à¦ıà¦®à¦ıà¦¸": 4050,
      "Ġà¦ıà¦¨à¦¡": 4051,
      "Ġsay": 4052,
      "à¦¾),": 4053,
      "à¦Ńà¦ľà¦¨à¦ķ": 4054,
      "à¦°à¦¶à¦¸": 4055,
      "lop": 4056,
      "Ġcateg": 4057,
      "Ġà§¯à§Ń": 4058,
      "Ġlook": 4059,
      "Ġjo": 4060,
      "à¦Ĺà¦°à¦£": 4061,
      "Ġ%": 4062,
      "mail": 4063,
      "à¦ĩà¦²à¦«": 4064,
      ":'": 4065,
      "hy": 4066,
      "70": 4067,
      "Ġà¦Ĺà¦£à¦Ńà¦¬à¦¨": 4068,
      "à§¨à§¦à§§à§ª": 4069,
      "ĠØ¬": 4070,
      "Ġà¦®à¦«": 4071,
      "à¦Ĩà¦ĩà¦¯": 4072,
      "ns": 4073,
      "Ġà¦Ľà¦²": 4074,
      "fa": 4075,
      "à§ĩâĢĿ": 4076,
      "etail": 4077,
      "86": 4078,
      "Ġban": 4079,
      "].": 4080,
      "class": 4081,
      "à¦ıà¦¸à¦¡": 4082,
      "à¦Ńà¦°à¦¯": 4083,
      "Ġà§Ńà§©": 4084,
      "Ġà¦Łà¦¹à¦²": 4085,
      "Ġmark": 4086,
      "Ġà¦ħà¦ļà¦²": 4087,
      "Ġà¦¸à¦®à¦®": 4088,
      "Ġà¦ıà¦ķà¦ª": 4089,
      "Ġà¦ľà¦¨à¦ªà¦¦": 4090,
      "à¦¥à¦¦": 4091,
      "à¦Łà¦ķà¦Ł": 4092,
      "gram": 4093,
      "Ġgolpo": 4094,
      "ãĥ": 4095,
      "à¦¯à§°": 4096,
      "Ġmp": 4097,
      "Ġ..": 4098,
      "à¦°à¦¸à¦®": 4099,
      "Ġà¦ļà¦²à¦¨": 4100,
      "Ġà¦¦à¦¸": 4101,
      "Ġfunction": 4102,
      "à¦²à¦¤à¦²": 4103,
      "+]": 4104,
      "Ġak": 4105,
      "âĻ": 4106,
      "jpg": 4107,
      "à¦ĵà¦¹": 4108,
      "Ġraj": 4109,
      "sw": 4110,
      "à¦£à¦ĺ": 4111,
      "dd": 4112,
      "Ġà¦ľà¦¨à¦¬à¦²": 4113,
      "Ġà§¬à§¦à§¦": 4114,
      "ting": 4115,
      "Ġà¦ħà¦¸à¦¨": 4116,
      "ildren": 4117,
      "Ġà¦¸à¦¹à¦¸à¦Ń": 4118,
      "Ġà¦ıà¦°à¦ªà¦°à¦ĩ": 4119,
      "Ġà¦ªà¦¹": 4120,
      "à¥¤\"": 4121,
      "Ġ[+]": 4122,
      "à¦¯à¦ľà¦¨": 4123,
      "Ġmed": 4124,
      "live": 4125,
      "Ġlist": 4126,
      "bikroy": 4127,
      "Ġà¦ıà¦ıà¦«": 4128,
      "inst": 4129,
      "Ġà§®à§¯": 4130,
      "à¦¦à¦Ĺà¦ŀ": 4131,
      "Ġ~": 4132,
      "à¦¸à¦ªà¦¤": 4133,
      "Ġ!!": 4134,
      "cent": 4135,
      "Ġà¦ľà¦²à¦ª": 4136,
      "Ġà¦¸à¦°à¦¬": 4137,
      "à¦Ľà¦Ł": 4138,
      "Ġà¦®à¦¤à¦¨": 4139,
      "Ġà¦Łà¦°": 4140,
      "ialis": 4141,
      "fore": 4142,
      "Ġà¦°à¦£à¦¬": 4143,
      "play": 4144,
      "96": 4145,
      "Ġuse": 4146,
      "Ġà¦¸à§°": 4147,
      "Ġstart": 4148,
      "Ġrah": 4149,
      "Ġà¦¬à¦§": 4150,
      "dow": 4151,
      "ident": 4152,
      "Ġà¦ıà¦ķà¦¯": 4153,
      "à¦°à¦¤à¦°": 4154,
      "ower": 4155,
      "Ġà¦¦à§°": 4156,
      "Ġà¦Łà¦²": 4157,
      "lection": 4158,
      "à§Ńà§«": 4159,
      "Ġà¦Ĺà¦£à¦ªà¦°": 4160,
      "Ġwom": 4161,
      "Ġà¦Ĩà¦ĩà¦ķ": 4162,
      "Ġà¦ķà¦®à¦Ľ": 4163,
      "à¦®à¦¦à¦ª": 4164,
      "cess": 4165,
      "à¦¹à¦Ł": 4166,
      "à¤µ": 4167,
      "ars": 4168,
      "Ġgbp": 4169,
      "Ġcialis": 4170,
      "Ġinform": 4171,
      "pa": 4172,
      "Ġà¦Ĩà¦Łà¦ķà¦ķ": 4173,
      "date": 4174,
      "à¤¤": 4175,
      "minutes": 4176,
      "à¦°à¦¥à¦®à¦¤": 4177,
      "Ġamar": 4178,
      "ĠØ§ÙĦÙĨ": 4179,
      "asy": 4180,
      "Ġà¦ĸà¦¬à¦°à¦Ł": 4181,
      "à¦¿âĢĿ": 4182,
      "Ġled": 4183,
      "à¦¬à¦¸à¦Ł": 4184,
      "Ġà¦¶à¦¶": 4185,
      "à¦¹à¦°à¦£à¦¸": 4186,
      "Ġmess": 4187,
      "à¦¤à¦¬à¦°": 4188,
      "à¦¦à¦ĵ": 4189,
      "Ġà¦®à¦ĵà¦¦": 4190,
      "Ġà¦¬à¦¬": 4191,
      "à¤¶": 4192,
      "Ġà¦¦à¦°à¦ªà¦¤": 4193,
      "Ġà¦ıà¦®à¦¨à¦Ń": 4194,
      "Ġà¦¬à¦ķà¦°": 4195,
      "ĠØ´": 4196,
      "ĠØµÙĦÙī": 4197,
      "Ġà¦Ĩà¦ķà¦¸": 4198,
      "Ġtits": 4199,
      "à§ĩâĢĻà¥¤": 4200,
      "à¦§à¦¶à¦¤": 4201,
      "Ġchar": 4202,
      "à¦łà¦¶": 4203,
      "downd": 4204,
      "Ġà§Ńà§ª": 4205,
      "downdate": 4206,
      "Ġsur": 4207,
      "Ġlive": 4208,
      "Ġà§§à§¯à§¯à§¬": 4209,
      "Ġmake": 4210,
      "Ġà¦¦à¦¨": 4211,
      "Ġonly": 4212,
      "Ġà¦ĩà¦¶à¦¤": 4213,
      "Ġcountdowndate": 4214,
      "à¦¿]": 4215,
      "Ġà§®à§¨": 4216,
      "2014": 4217,
      "?âĢĿ": 4218,
      "à¦²à¦ªà¦¥": 4219,
      "geth": 4220,
      "à¦¸à¦Ľ": 4221,
      "âĢĶâĢĶ": 4222,
      "ĠÛ": 4223,
      "à¦ľà¦¨à¦ĩ": 4224,
      "Ġ_": 4225,
      "Ġà¦ıà¦®à¦ı": 4226,
      "à¦®à¦¨à¦Ĺà¦°": 4227,
      "Ġ':'": 4228,
      "Ġlabeltext": 4229,
      "gethours": 4230,
      "getminutes": 4231,
      "iftartime": 4232,
      "Ġà¦Ĩà¦¨à¦¹": 4233,
      "});": 4234,
      "Ġà¦ĩà¦¨à¦¶": 4235,
      "Ġà¦²à¦Ł": 4236,
      "2015": 4237,
      "Ġuniversity": 4238,
      "à¨": 4239,
      "icket": 4240,
      "osh": 4241,
      "Ġret": 4242,
      "à§ģ)": 4243,
      "Ġpdf": 4244,
      "Ã©": 4245,
      "Ġfol": 4246,
      "à§°à¦¸": 4247,
      "Ġ40": 4248,
      "Ġà¦¶à¦ĸ": 4249,
      "rue": 4250,
      "raph": 4251,
      "à¦¸à¦°à¦¤": 4252,
      "Ġneed": 4253,
      "gin": 4254,
      "que": 4255,
      "Ġcirc": 4256,
      "à¦łà¦¦": 4257,
      "à¦¼à¦¿-": 4258,
      "Ġà¦¬à¦°à¦ķ": 4259,
      "last": 4260,
      "und": 4261,
      "ager": 4262,
      "à¦ķà¦ł": 4263,
      "Ġsim": 4264,
      "bl": 4265,
      "à¦®à¦«": 4266,
      "Ġvideos": 4267,
      "opy": 4268,
      "fe": 4269,
      "à¤¹": 4270,
      "Ġà¦ļà¦¯": 4271,
      "à¦¸à¦ĩ": 4272,
      "Ġà§¨à§¦à§¨à§§": 4273,
      "ĠðŁĺ": 4274,
      "ĠâĹı": 4275,
      "à¦²à¦ķà¦ķ": 4276,
      "zeenews": 4277,
      "à¦¥à¦ķà¦°": 4278,
      "Ġà¦ħà¦¬à¦Ĺà¦¤": 4279,
      "Ġcent": 4280,
      "à¦īà¦ıà¦®à¦ľ": 4281,
      "Ġà¦ħà¦¬à¦¤à¦°à¦£": 4282,
      "à¦Łà¦ļ": 4283,
      "Ġagain": 4284,
      "ali": 4285,
      "à¦¬à¦°à¦ĩ": 4286,
      "Ġhealth": 4287,
      "Ġkor": 4288,
      "Ġposts": 4289,
      "Ġà¦Ĩà¦¨à¦Ľ": 4290,
      "col": 4291,
      "2012": 4292,
      "Ġà¦¬à¦ĸ": 4293,
      "à¦¤à¦Ľ": 4294,
      "amily": 4295,
      "à¦·à¦£à¦ķ": 4296,
      "Ġ1000": 4297,
      "à¦¹à¦ª": 4298,
      "Ġà¦Ĩà¦²à¦¬": 4299,
      "ny": 4300,
      "qus": 4301,
      "Ġà¦¯à¦ĸà¦¨à¦ĩ": 4302,
      "Ġà¦®à¦¸à¦²": 4303,
      "[/": 4304,
      "à¦°à¦ľà¦¨à¦¨": 4305,
      "pdf": 4306,
      "Ġà¦®à¦¹à¦¸": 4307,
      "Ġtips": 4308,
      "bi": 4309,
      "Ġsw": 4310,
      "à¦Ńà¦®": 4311,
      "à§ģà§į": 4312,
      "Ġdid": 4313,
      "Ġ60": 4314,
      "à§¬à§«": 4315,
      "Ġà¦ıà¦ĩà¦Ń": 4316,
      "Ġhand": 4317,
      "89": 4318,
      "sk": 4319,
      "Ġprint": 4320,
      "81": 4321,
      "à§®à§®": 4322,
      "à¦ıà¦¸à¦Ł": 4323,
      "Ġwin": 4324,
      "Ġà¦¬à¦Ľà¦°à¦ĩ": 4325,
      "Ġà§¦à§§à§Ń": 4326,
      ">>": 4327,
      "à¦ĩà¦«à¦¸": 4328,
      "lowjob": 4329,
      "à¦²à¦ķà¦Ń": 4330,
      "Ġà¤®": 4331,
      "Ġà¦®à¦¨à¦ľ": 4332,
      "Ġweeks": 4333,
      "ara": 4334,
      "Ġà¦¨à¦¹": 4335,
      "à±": 4336,
      "à¦łà¦¸": 4337,
      "agram": 4338,
      "Ġà¦ħà¦ªà¦ª": 4339,
      "Ġbdnews": 4340,
      "arr": 4341,
      "Ġà¦ķà¦®à¦²à¦Ĺà¦ŀ": 4342,
      "Ġint": 4343,
      "Ġweek": 4344,
      "Ġà¦²à¦Ń": 4345,
      "à¦Ĩà¦°à¦ĵ": 4346,
      "twitter": 4347,
      "Ġfigure": 4348,
      "email": 4349,
      "à¦¿âĢĻà¥¤": 4350,
      "à¦¤à¦ªà¦ķ": 4351,
      "à¦¥à¦¸": 4352,
      "fin": 4353,
      "Ġgreat": 4354,
      "à¥ĭ": 4355,
      "à¦ľà¦ĩ": 4356,
      "Ġà¦ªà¦ļ": 4357,
      "à¦Łà¦ķà¦¯": 4358,
      "Ġki": 4359,
      "Ġreal": 4360,
      "Ġà¦ħà¦£": 4361,
      "vloc": 4362,
      "Ġà¦¦à¦¡": 4363,
      "ized": 4364,
      "à¦¾âĢĵ": 4365,
      "sb": 4366,
      "à§ĭ...": 4367,
      "Ġnat": 4368,
      "Ġà§®à§§": 4369,
      "ark": 4370,
      "75": 4371,
      "hat": 4372,
      "à¦¯à¦¸à¦¹": 4373,
      "Ġà¦«à¦ľ": 4374,
      "Ġcal": 4375,
      "à¦łà¦¬": 4376,
      "Ġà¦ļà¦¬": 4377,
      "Ġà¦®à¦ĩà¦¨": 4378,
      "oup": 4379,
      "Ġatt": 4380,
      "with": 4381,
      "wn": 4382,
      "cr": 4383,
      "caption": 4384,
      "Ġà§®à§ª": 4385,
      "Øº": 4386,
      "à§ĥà¦Ĥ": 4387,
      "ause": 4388,
      "Ġï": 4389,
      "à¦ĺà¦ķ": 4390,
      "rep": 4391,
      "Ġà¦®à¦°à¦£": 4392,
      "à¦ĩà¦¡à¦¬": 4393,
      "ices": 4394,
      "Ġà¦ªà¦°à¦¶": 4395,
      "eld": 4396,
      "à¦Ľà¦ķ": 4397,
      "Ġà¦¨à¦¸": 4398,
      "Ġà§§à§¯à§Ńà§«": 4399,
      "Ġmah": 4400,
      "Ġleading": 4401,
      "à¦®à¦ªà¦¨": 4402,
      "à¦ĵà¦Ĺ": 4403,
      "Ġmovie": 4404,
      "Ġlim": 4405,
      "ange": 4406,
      "Ġà¦īà¦ªà¦¤": 4407,
      "Ñĥ": 4408,
      "=\\\"": 4409,
      "Ġà§¨à§¦à§¦à§©": 4410,
      "Ġreally": 4411,
      "Ġtechno": 4412,
      "antha": 4413,
      "Ġ'/": 4414,
      "Ġà¦ıà¦¨à¦¬": 4415,
      "à¦ıà¦¸à¦ľ": 4416,
      "à¦ľà¦Ļ": 4417,
      "urs": 4418,
      "Ġà¦Ĩà¦īà¦¯": 4419,
      "à¦°à¦¦à¦ķ": 4420,
      "etails": 4421,
      "Ġtrans": 4422,
      "à¦ıà¦¤": 4423,
      "ti": 4424,
      "Ġà¦ħà¦ªà¦ķà¦°": 4425,
      "Ġsomoy": 4426,
      "Ġwere": 4427,
      "Ġbu": 4428,
      "Ġà¦ķà¦¦à¦°": 4429,
      "à¦Ĺà¦łà¦¨à¦Ĺ": 4430,
      "Ġprodu": 4431,
      "Ġet": 4432,
      "à¦«à¦«": 4433,
      "à¦¼à¥¤[": 4434,
      "Ġthink": 4435,
      "Ġà¦ľà¦Ĺà§İ": 4436,
      "ÂŃ": 4437,
      "anj": 4438,
      "Ġlogin": 4439,
      "à¦Łà¦ĩ": 4440,
      "Ġà¦ĩà¦®à¦¨": 4441,
      "sar": 4442,
      "à¦¬à¦ľà¦¨à¦°": 4443,
      "Ġfre": 4444,
      "à¦¾âĢĶ": 4445,
      "à¦Łà¦®à¦¸": 4446,
      "Ġ90": 4447,
      "Ġà¦¸à¦«à¦°à¦ķ": 4448,
      "áĢ": 4449,
      "2020": 4450,
      "à¦¦à¦¸à¦¹": 4451,
      "alse": 4452,
      "iness": 4453,
      "Ġà¦ıà¦¬à¦Ľà¦°": 4454,
      "Ġà¦¤à¦°à¦Ļ": 4455,
      "vis": 4456,
      "à¦¤à¦¥": 4457,
      "istory": 4458,
      "Ġà¦°à¦¥": 4459,
      "Ġà¦īà¦®à¦°": 4460,
      "Ġà¦ıà¦°à¦¦": 4461,
      "mad": 4462,
      "Ġwell": 4463,
      "ents": 4464,
      "Ġà¦ķà¦°à¦¨": 4465,
      "Ġà¦ħà§°": 4466,
      "Ġnational": 4467,
      "Ġà¦ªà¦²à¦ķ": 4468,
      "Ġkhan": 4469,
      "à¦ļà¦¤à¦°": 4470,
      "à§¬à§¬": 4471,
      "à¦¤à¦¯": 4472,
      "ather": 4473,
      "à¦ĸà¦ľà¦¨à¦ķ": 4474,
      "Ù°": 4475,
      "Ġà¦ıà¦®à¦¡": 4476,
      "à¦¸à¦ķà¦·": 4477,
      "à¦ľà¦ĵà¦¯": 4478,
      "++": 4479,
      ":\"": 4480,
      "à¦¼)à¥¤": 4481,
      "vel": 4482,
      "mp": 4483,
      "\");": 4484,
      "à¦¤à¦®à¦¨": 4485,
      "Ġtwitter": 4486,
      "ious": 4487,
      "76": 4488,
      "ster": 4489,
      "à¥¤'": 4490,
      "Ġandroid": 4491,
      "bal": 4492,
      "lace": 4493,
      "Ġà¦Ĩà¦ķà¦¤": 4494,
      "à¦®à¦ĸ": 4495,
      "Ġà¦ĵà¦ĩà¦¦": 4496,
      "Ġà¦Ĺà¦£à¦¶": 4497,
      "à¦¶à¦¨à¦Ł": 4498,
      "Ġfish": 4499,
      "à¦Ĺà¦łà¦ķ": 4500,
      "à¦Ŀà¦°": 4501,
      "Ġ250": 4502,
      "su": 4503,
      "Ġshould": 4504,
      "elf": 4505,
      "à¦¯à¦¸à¦®": 4506,
      "à§ĩ)à¥¤": 4507,
      "Ġthan": 4508,
      "Ġblack": 4509,
      "back": 4510,
      "à¦ĩà¦¨à¦Ł": 4511,
      "Ġcha": 4512,
      "Ø§Øª": 4513,
      "à¦¸à¦¸à¦¹": 4514,
      "ten": 4515,
      "Ġà¦Ĩà¦ĩà¦¨à¦®à¦¨": 4516,
      "Ġjour": 4517,
      "Ġà¦ĺà¦°à¦¬": 4518,
      "Ġbas": 4519,
      "che": 4520,
      "pos": 4521,
      "Ġty": 4522,
      "Ġfollow": 4523,
      "à¦¿à¦¾": 4524,
      "Ġà¦ķà¦¹": 4525,
      "Ġaut": 4526,
      "jv": 4527,
      "Ġyears": 4528,
      "Ġà¦ķà¦¤à¦¦": 4529,
      "à¦Łà¦ľ": 4530,
      "à¤Ĺ": 4531,
      "une": 4532,
      "Ġfore": 4533,
      "Ġà¦¨à¦¹à¦¯": 4534,
      "ĠÌĦ": 4535,
      "à¦°à¦«à¦°": 4536,
      "interval": 4537,
      "\"\"": 4538,
      "Ġmag": 4539,
      "à¦Ńà¦²": 4540,
      "ĠØ®": 4541,
      "section": 4542,
      "Ġseconds": 4543,
      "ãĤ": 4544,
      "Ġà§®à§©": 4545,
      "Ġà¦°à¦®à¦¨": 4546,
      "à§ģ!": 4547,
      "arg": 4548,
      "ka": 4549,
      "à¦·à¦ĵ": 4550,
      "Ġà¦Ĩà¦ĩà¦ıà¦¸à¦¬": 4551,
      "à§¨à§¦à§¦à§¯": 4552,
      "à§Į-": 4553,
      "Ġà¦°à¦ĵà¦¶à¦¨": 4554,
      "à¦¨à¦·": 4555,
      "Ġà¦®à¦¤à¦²à¦¬": 4556,
      "Ġà¦«à¦¨": 4557,
      "Ġ....": 4558,
      "ams": 4559,
      "Ġpur": 4560,
      "à¦¸à¦ªà¦¨": 4561,
      "à¦¸à¦¹à¦ķ": 4562,
      "!!!!!!!!": 4563,
      "à¦¾à¦Ĥ,": 4564,
      "Ġà¦ªà¦°à¦²": 4565,
      "à§¯à§¦": 4566,
      "à¦¡à¦ĵà¦¯": 4567,
      "Ġbus": 4568,
      "Ġà¦Ĩà¦¦à¦®": 4569,
      "Ġext": 4570,
      "Ġbel": 4571,
      "Ġmic": 4572,
      "Ġà¦®à¦ľà¦²": 4573,
      "wp": 4574,
      "Ġter": 4575,
      "Ġprice": 4576,
      "Ġà¦īà§İà¦ªà¦¤": 4577,
      "ef": 4578,
      "Ġà§¯à§¨": 4579,
      "Ġà¦¤à¦¡": 4580,
      "à¦°à¦¤à¦¬à¦°": 4581,
      "Ġà¦¸à¦¹à¦ª": 4582,
      "à¦¾(": 4583,
      "Ġthr": 4584,
      "71": 4585,
      "à¦¤à¦ľà¦¨": 4586,
      "porn": 4587,
      "à¦¤à¦ķà¦°": 4588,
      "à¦°à¦ķà¦¦": 4589,
      "Ġtagged": 4590,
      "à¦ĩà¦¨à¦ķ": 4591,
      "'à¥¤": 4592,
      "à¥ģ": 4593,
      "Ġdur": 4594,
      "Ġà¦ıà¦²à¦ľ": 4595,
      "res": 4596,
      "lag": 4597,
      "ister": 4598,
      "Ġdeve": 4599,
      "à¦¯à¦¬à¦°": 4600,
      "Ġins": 4601,
      "Ġà¦Ĩà¦ĩà¦²": 4602,
      "Ġtwo": 4603,
      "Ġ/*": 4604,
      "lim": 4605,
      "Ġma": 4606,
      "à¦ĩà¦īà¦Ł": 4607,
      "à¦¶à§°": 4608,
      "Ġà¦ķà¦ĩà¦°": 4609,
      "à§ĩ/": 4610,
      "Ġà¦¨à¦²": 4611,
      "Ġà¦°à¦£": 4612,
      "à§±à¦¨": 4613,
      "à¦¶à¦Ń": 4614,
      "ought": 4615,
      "stem": 4616,
      "250": 4617,
      "Ġperson": 4618,
      "Ġà¦®à¦¹à¦¡": 4619,
      "Ġà¦¤à¦¤à¦Ł": 4620,
      "eshe": 4621,
      "Ġnor": 4622,
      "Ġ\"\";": 4623,
      "Ġahmed": 4624,
      "à§°à¦¦": 4625,
      "ience": 4626,
      "Ġes": 4627,
      "à¦²à¦°à¦ķ": 4628,
      "Ġà¦ķà¦ĵà¦®": 4629,
      "Ġà§®à§¦à§¦": 4630,
      "à¦ªà¦ĵ": 4631,
      ",#": 4632,
      "Ġà¦¤à§İà¦ªà¦°": 4633,
      "Ġà¦Ĩà¦ĩà¦Ń": 4634,
      "à¦°à¦¤à¦®": 4635,
      "Ġimage": 4636,
      "Ġshow": 4637,
      "à¦®à¦ªà¦°": 4638,
      "Ġà¦īà§İà¦¸à¦°": 4639,
      "page": 4640,
      "79": 4641,
      "à¦ķà¦£": 4642,
      "********": 4643,
      "Ġsports": 4644,
      "à¦Ĩà¦ĵà¦¯": 4645,
      "ror": 4646,
      ".........": 4647,
      "Ġà§§à§¦à§¦à§¦": 4648,
      "Ġschool": 4649,
      "Ġà¦Ńà¦Ĺà¦¬": 4650,
      "à¦¸à¦ľ": 4651,
      "à¦ļà¦ª": 4652,
      "à¤¯": 4653,
      "Ġclear": 4654,
      "]à¥¤": 4655,
      "Ġtotal": 4656,
      "Ġà¦ħà¦ªà¦¹": 4657,
      "à¦¯à¦ļ": 4658,
      "vent": 4659,
      "ÙİØĮ": 4660,
      "ĠâĻ": 4661,
      "à¦Ľà¦Ĺ": 4662,
      "Ġjpy": 4663,
      "ĠðŁĻ": 4664,
      "mal": 4665,
      "à¦®à¦¤à¦²": 4666,
      "à¦ıà¦ĩà¦ļà¦¡": 4667,
      "à¦łà¦ķà¦¦": 4668,
      "à¦°à¦°à¦®": 4669,
      "por": 4670,
      "Ġplease": 4671,
      "à¦ıà¦¸à¦ĩà¦¤": 4672,
      "à¦«à¦²à¦¨": 4673,
      "à¦¯à¦§": 4674,
      "tube": 4675,
      "Ġà§¯à§§": 4676,
      "li": 4677,
      "à¦¾âĢĻ,": 4678,
      "à¦ªà¦°à¦¬à¦°": 4679,
      "Ġ[[": 4680,
      "à¦£à¦Ĺ": 4681,
      "Ġhapp": 4682,
      "à§Ńà§Ń": 4683,
      "cept": 4684,
      "Ġthanks": 4685,
      "google": 4686,
      "Ġinformation": 4687,
      "Ġemail": 4688,
      "à¤¸": 4689,
      "ator": 4690,
      "Ġpay": 4691,
      "à¦ĩà¦²à¦¸": 4692,
      "à¦īà¦«": 4693,
      "str": 4694,
      "à¦ļà¦ķà¦°": 4695,
      "à¦¬à¦°à¦ķ": 4696,
      "rab": 4697,
      "85": 4698,
      "zz": 4699,
      "alk": 4700,
      "Ġà¦¤à¦¤à¦¦": 4701,
      "Ġà§§à§¯à§Ńà§¨": 4702,
      "Ġà¦ħà¦¬à¦ľ": 4703,
      "Ġmuch": 4704,
      "0026": 4705,
      "à¦¤à¦°à¦¬à¦Ļ": 4706,
      "Ġreview": 4707,
      "umber": 4708,
      "ĺħ": 4709,
      "à¦¯à§±": 4710,
      "Ġà¦®à¦¨à¦Ł": 4711,
      "Ġà§¨à§¦à§¦à§¨": 4712,
      "Ġà¦°à¦¡": 4713,
      "à¦¸à¦ķà¦¦": 4714,
      "conom": 4715,
      "Ġà¦ıà¦¨à¦Ł": 4716,
      "Ġà¦ıà¦¤à¦ķ": 4717,
      "ctor": 4718,
      "à¦¤à¦¤à¦®": 4719,
      "à¦°à¦ļà¦²à¦¨": 4720,
      "à¦ıà¦®à¦ıà¦ķ": 4721,
      "mi": 4722,
      "Ġbro": 4723,
      "à¦¶à¦¹": 4724,
      "à¦¦à¦¨à¦Ł": 4725,
      "Ġà¦¨à¦ĸ": 4726,
      ",âĢĿ": 4727,
      "---": 4728,
      "gov": 4729,
      "overn": 4730,
      "à¦¤à¦¹": 4731,
      "Ġcre": 4732,
      "à¦°à¦£à¦Ł": 4733,
      "Ġclass": 4734,
      "ÙįØĮ": 4735,
      "Ġà¦Ĩà¦¹à¦²": 4736,
      "Ġfigcaption": 4737,
      "Ġà¦ĸà¦¸à¦°": 4738,
      "à§¬à§¯": 4739,
      "Ġ32": 4740,
      "Ġbec": 4741,
      "à¦ıà¦ķà¦ľà¦¨": 4742,
      "Ġexp": 4743,
      "Ġtu": 4744,
      "Ġà¦¬à¦ļ": 4745,
      "ities": 4746,
      "Ġsing": 4747,
      "Ġà§Ńà§¦à§¦": 4748,
      "Ġà¦ķà¦¸à¦®": 4749,
      "Ġà¦ħà¦Ńà¦¯": 4750,
      "Ġblowjob": 4751,
      "à¦²à¦ķà¦°": 4752,
      "nb": 4753,
      "à¦°à¦®à¦¬à¦°": 4754,
      "uss": 4755,
      "Ġà¦¦à¦Ĺ": 4756,
      "Ġwatch": 4757,
      "Ġaddress": 4758,
      "Ġword": 4759,
      "à¦ķà¦Łà¦ķ": 4760,
      "Ġangle": 4761,
      "irus": 4762,
      "Ġfind": 4763,
      "ati": 4764,
      "Ġhum": 4765,
      "ission": 4766,
      "Ġkar": 4767,
      "à¦ľà¦¨à¦¦": 4768,
      "Ġwrite": 4769,
      "Ġà¦ķà¦¤à¦ķ": 4770,
      "ĠÌĪ": 4771,
      "children": 4772,
      "Ġà¦ļà¦¶à¦®": 4773,
      "Ġà¦īà¦ªà¦ªà¦°": 4774,
      "body": 4775,
      "Ġà¦ļà§°à¦ķ": 4776,
      "Ġfin": 4777,
      "Ġval": 4778,
      "à´¿": 4779,
      "Ġdi": 4780,
      "ength": 4781,
      "à¦Łà¦¸à¦ħ": 4782,
      "à¦¸à¦ıà¦¨": 4783,
      "à¦ıà¦®à¦¸": 4784,
      "Ġmedia": 4785,
      "Ġà¦ıà¦«à¦¬": 4786,
      "ger": 4787,
      "Ġà¦§à¦°à¦¬": 4788,
      "à¦¨à¦ĸ": 4789,
      "Ġdevelop": 4790,
      "ider": 4791,
      "Ġà§¯à§©": 4792,
      "Ġpop": 4793,
      "cp": 4794,
      "Ġsign": 4795,
      "ution": 4796,
      "Ġjournal": 4797,
      "ideshe": 4798,
      "64": 4799,
      "ker": 4800,
      "ouse": 4801,
      "Ġà¦Ĩà¦®à¦ľ": 4802,
      "72": 4803,
      "istr": 4804,
      "Ġorig": 4805,
      "ÙĲØĮ": 4806,
      "Ġdin": 4807,
      "Ġinternational": 4808,
      "Ġà¦Ĩà¦°à¦ľ": 4809,
      "Ġmany": 4810,
      "Ġà¦°à¦ľà¦¨": 4811,
      "Ġprote": 4812,
      "Ð²": 4813,
      "ebideshe": 4814,
      "74": 4815,
      "Ġpower": 4816,
      "ØµÙĦÙī": 4817,
      "fr": 4818,
      "Ġko": 4819,
      "à¦Ĺà¦Ļ": 4820,
      "widget": 4821,
      "à¦§à¦¶": 4822,
      "Ġ:-": 4823,
      "Ġà¦Ĩà¦«à¦ľ": 4824,
      "Ġlang": 4825,
      "à§Ńà§®": 4826,
      "Ø§Ø¯": 4827,
      "Ġcap": 4828,
      "Â§": 4829,
      "ced": 4830,
      "à§ĩ?âĢĻ": 4831,
      "Ġrelated": 4832,
      "web": 4833,
      "Ġà¦¬à§İà¦¸à¦°": 4834,
      "ada": 4835,
      "à¦¶à¦¹à¦°": 4836,
      "à¦ĺà¦£": 4837,
      "à¦·à¦ľà¦¨": 4838,
      "Ġà¦¤à¦¤à¦ĩ": 4839,
      "2011": 4840,
      "Ġmet": 4841,
      "bdnews": 4842,
      "Ġà¦Ńà¦¬à¦¨à¦Ł": 4843,
      "uj": 4844,
      "Ġà¦¹à¦ĵ": 4845,
      "Ġsou": 4846,
      "Ġà¦¤à¦²à¦¬": 4847,
      "listing": 4848,
      "Ġfact": 4849,
      "ames": 4850,
      "à¦¤à¦°à¦Ł": 4851,
      "à¦²à¦¤à¦ª": 4852,
      "Ġlove": 4853,
      "adin": 4854,
      "Ġbank": 4855,
      "Ġrahman": 4856,
      "Ġà§§à§¯à§¯à§§": 4857,
      "uro": 4858,
      "atter": 4859,
      "Ġà¦Ĩà¦·": 4860,
      "Ġcox": 4861,
      "à¦Ĩà¦ľà¦ķ": 4862,
      "Ġà¦ıà¦ĵ": 4863,
      "Ġform": 4864,
      "cted": 4865,
      "newslisting": 4866,
      "fb": 4867,
      "à¦ķà¦·": 4868,
      "à¦ĩà¦īà¦¨": 4869,
      "âĢļ": 4870,
      "size": 4871,
      "Ġpres": 4872,
      "à¦ıà¦®à¦ĩà¦ı": 4873,
      "à¦Ĩà¦ĩà¦Ł": 4874,
      "Ġ';": 4875,
      "ache": 4876,
      "à¦ķà¦¸à¦¬": 4877,
      "Ġà¦¨à¦Ĺà¦°à¦¬": 4878,
      "Ġdisc": 4879,
      "Ġbir": 4880,
      "Ġsystem": 4881,
      "Ġway": 4882,
      "deshebideshe": 4883,
      "add": 4884,
      "wood": 4885,
      "ÙĬØ±": 4886,
      "Ġ==": 4887,
      "à¦¾)à¥¤": 4888,
      "à¦ħà¦¨à¦²": 4889,
      "à¦°à¦£à¦¬": 4890,
      "come": 4891,
      "'m": 4892,
      "Ġà¦īà¦ªà¦¬": 4893,
      "à¦¯à§±à¦¹": 4894,
      "Ġà§±": 4895,
      "Ġà¦ıà¦ĸà¦¨à¦ķ": 4896,
      "umb": 4897,
      "*/": 4898,
      "Ġà¦¸à¦ĵà¦¯": 4899,
      "ible": 4900,
      "Ġà§§à§ªà§¨à§«": 4901,
      "acy": 4902,
      "à§°à¦£à§°": 4903,
      "à§°à¦¥à¦®": 4904,
      ".,": 4905,
      "Ġtool": 4906,
      "Ġà¦Ĺà¦®à¦¨": 4907,
      "Ġà¦¦à¦ĩ": 4908,
      "à§¬à§®": 4909,
      "Ġpress": 4910,
      "à¦¼à¥¤âĢĿ": 4911,
      "à¦®à¦¸à¦®": 4912,
      "ga": 4913,
      "à§ĭ)": 4914,
      "ral": 4915,
      "à§§à§¯à§®": 4916,
      "à¦Ĩà¦ªà¦¡": 4917,
      "Ġà§¯à§ª": 4918,
      "Ġlet": 4919,
      "à¥Ĥ": 4920,
      "Ġà¦ħà¦®à¦¨": 4921,
      "Ġà¦ľà¦ĵà¦¯": 4922,
      "Ġstyle": 4923,
      "Ġà¦ĩà¦«": 4924,
      "Ġsol": 4925,
      "à¦¬à¦¨à¦®": 4926,
      "à¦¨à¦ĵà¦¯": 4927,
      "à§Ģ...": 4928,
      "uf": 4929,
      "eet": 4930,
      "Ġà¦īà¦ĩà¦®": 4931,
      "Ġà§§à§¯à§¯à§¯": 4932,
      "Ġcour": 4933,
      "à¦¤à¦¬à¦¯": 4934,
      "Ġà¦īà¦§": 4935,
      "à¦ĺà¦¸": 4936,
      "yout": 4937,
      "à¦°à¦®à¦ľ": 4938,
      "tim": 4939,
      "Ġcould": 4940,
      "Ġà¦®à¦ľà¦¬": 4941,
      "ude": 4942,
      "Ġà¦¶à¦ļ": 4943,
      "Ġcam": 4944,
      "Ġà¤¬": 4945,
      "à§ĩà¥¤'": 4946,
      "Ġà¦ĩà¦°à¦¶": 4947,
      "Ġà§§à§¯à§¯à§¦": 4948,
      "à¦ķà¦²à¦ķ": 4949,
      "Ġà¦«à¦Łà¦ķ": 4950,
      "à¦¶à¦Ĺà¦¤": 4951,
      "ats": 4952,
      "categ": 4953,
      "à¦¬à¦ĩà¦¯": 4954,
      "Ġà¦ıà¦¨à¦Ĩà¦°à¦¸": 4955,
      "à¦ķà¦¤à¦°": 4956,
      "à§ĩâĢĵ": 4957,
      "ality": 4958,
      "Ġà¦¡à¦¬": 4959,
      "à¦ªà¦ķà¦¥": 4960,
      "à¦ªà¦ķà¦¥à¦¨": 4961,
      "à¦¯à¦¥à¦Ń": 4962,
      "Ġnet": 4963,
      "lot": 4964,
      "ĠÃĹ": 4965,
      "dw": 4966,
      "Ġà¦¸à¦«à¦²à¦Ń": 4967,
      "à¦ļà¦Ĺ": 4968,
      "Ġtri": 4969,
      "ij": 4970,
      "à¦¦à¦ķà¦°": 4971,
      "Ġfriend": 4972,
      "Ġà¦¨à¦Ł": 4973,
      "ca": 4974,
      "Ġà¦®à¦¹à¦®": 4975,
      "\">": 4976,
      "Ġà¦ıà¦°à¦ªà¦°à¦ĵ": 4977,
      "current": 4978,
      "ertainment": 4979,
      "93": 4980,
      "à¦¦à¦®à¦¤": 4981,
      "thom": 4982,
      "emb": 4983,
      "Ġlong": 4984,
      "Ġcare": 4985,
      "à¦¬à¦¨à¦Ł": 4986,
      "Ġhistory": 4987,
      "'-": 4988,
      "à§Ńà§¨": 4989,
      "Ġà¦¸à¦¬à¦Ł": 4990,
      "à¦īà¦ĩà¦ķ": 4991,
      "ness": 4992,
      "Ġà¦®à¦Ĺ": 4993,
      "Ġek": 4994,
      "à¦Ĩà¦°à¦ª": 4995,
      "opens": 4996,
      "Ġgovern": 4997,
      "bangladeshonline": 4998,
      "Ġfeature": 4999,
      "Ġlimited": 5000,
      "Ġtest": 5001,
      "Ġbra": 5002,
      "illa": 5003,
      "any": 5004,
      "Ġà¦ıà¦ķà¦ļ": 5005,
      "udd": 5006,
      "Ġà¦ħà¦¬à¦²": 5007,
      "82": 5008,
      "Ġcontent": 5009,
      "Ġà¦ħà¦ªà¦Ł": 5010,
      "à¦¨à¦ķà¦°": 5011,
      "à¦Łà§°": 5012,
      "à¦¯à¦Ļ": 5013,
      "Ġbit": 5014,
      "Ġaj": 5015,
      "ita": 5016,
      "Ġà¦®à¦¦à¦¨": 5017,
      "search": 5018,
      "ÑģÐº": 5019,
      "à¦¥à¦²à¦¬à¦¨": 5020,
      "Ġà¦ıà¦ĩà¦ļà¦¡": 5021,
      "Ġà¦ľà¦¨à¦ľ": 5022,
      "à¦¶à¦¨à¦Ĺ": 5023,
      "ino": 5024,
      "à®¿": 5025,
      "Ġhead": 5026,
      "Ġà¤ª": 5027,
      "Ġinto": 5028,
      "Ġà¦¤à¦ªà¦¨": 5029,
      "Ġà¦¡à¦¨": 5030,
      "english": 5031,
      "var": 5032,
      "à§Ģà¦Ĥ": 5033,
      "akantha": 5034,
      "Ġà¦ħà¦¬à¦¸à¦°à¦ª": 5035,
      "à¦¯à§±à¦¸": 5036,
      "à¦§à¦ª": 5037,
      "Ġpass": 5038,
      "à¦ªà¦£à¦¨": 5039,
      "Ġdire": 5040,
      "ÙĬÙħ": 5041,
      "Ġarticleà¦¬": 5042,
      "Ġeditor": 5043,
      "Ġend": 5044,
      "Ġà¦ľà¦¨à¦¸à¦¨": 5045,
      "Ġcricket": 5046,
      "à¹": 5047,
      "Ġtube": 5048,
      "Ġdif": 5049,
      "Ġair": 5050,
      "Ġà¦¶à§°": 5051,
      "à¦ıà¦ĸ": 5052,
      "à¦¤à¦Ĺà¦¤": 5053,
      "Ġreport": 5054,
      "Ġcas": 5055,
      "ala": 5056,
      "à¦¬à¦ŀ": 5057,
      "à¦¬à¦¹à¦£": 5058,
      "Ġà¦ľà¦®à¦ľà¦®": 5059,
      "amar": 5060,
      "Ġwhere": 5061,
      "84": 5062,
      "à¦¼âĢĵ": 5063,
      "plus": 5064,
      "à§¨à§¦à§¦": 5065,
      "Ġred": 5066,
      "bc": 5067,
      "à¦ĩà¦īà¦ıà¦¨": 5068,
      "Äģ": 5069,
      "ainer": 5070,
      "Ġhard": 5071,
      "Ġvo": 5072,
      "Ã¸": 5073,
      "à¦ªà¦ŀ": 5074,
      "à¦īà¦ĩà¦¨": 5075,
      "Ġfound": 5076,
      "à¦°à¦ľà¦¨à¦ķ": 5077,
      "à¦¸à¦Łà¦²": 5078,
      "à¦ĩà¦¨à¦²": 5079,
      "lelement": 5080,
      "withad": 5081,
      "lelementwithad": 5082,
      "áĥ": 5083,
      "Ġà¦ıà¦ıà¦¸à¦Ĩà¦ĩ": 5084,
      "ba": 5085,
      "Ġjanakantha": 5086,
      "Ġ500": 5087,
      "ÙĢ": 5088,
      "Ġà¦ĩà¦Łà¦Ń": 5089,
      "94": 5090,
      "Ġmade": 5091,
      "Ġansw": 5092,
      "Ġà¦«à¦°à¦ľ": 5093,
      "à§İà¦«": 5094,
      "als": 5095,
      "Ġresult": 5096,
      "Ġà¤¸": 5097,
      "ni": 5098,
      "Ġvol": 5099,
      "sbazar": 5100,
      "Ġà¦¶à¦¹à¦°à¦Ł": 5101,
      "Ġà¦¬à¦°à¦ķà¦¤": 5102,
      "à¦¡à¦¶": 5103,
      "Ġfile": 5104,
      "Ġbol": 5105,
      "Ġà¦ĩà¦ĩà¦ī": 5106,
      "angbad": 5107,
      "à¦°à¦£à¦Ń": 5108,
      "Ġ35": 5109,
      "Ġà¦Ĩà¦ĩà¦°": 5110,
      "part": 5111,
      "Ġà¦ıà¦¸à¦¡": 5112,
      "Ã¶": 5113,
      "aaaa": 5114,
      "Ġà¦¨à¦¬à¦¬": 5115,
      "Ġhind": 5116,
      "eric": 5117,
      "annel": 5118,
      "\".": 5119,
      "à¦£à¦¸": 5120,
      "Ġ{});": 5121,
      "à§ģ.": 5122,
      "à¦®à¦¹à¦²": 5123,
      "Ġà¦Ĩà¦²à¦«": 5124,
      "Ġdesk": 5125,
      "à¦¬à¦¨à¦¬": 5126,
      "Ġ$('": 5127,
      "Ġgot": 5128,
      "à¦£à¦Ĺà¦¤": 5129,
      "Ġthrough": 5130,
      "à¦¨à¦Ĺà¦ŀ": 5131,
      "ira": 5132,
      "istance": 5133,
      "à§Ĥ-": 5134,
      "Ġram": 5135,
      "Ġà¦¤à¦ĸà¦¨à¦ķ": 5136,
      "Ġà¦¶à¦®": 5137,
      "document": 5138,
      "ran": 5139,
      "Ġà¦ĺà¦·": 5140,
      "saradin": 5141,
      "oney": 5142,
      "ĠØ«": 5143,
      "1144": 5144,
      "à¦²à¦§": 5145,
      "Ġà¦ļà¦ŀ": 5146,
      "Ġà¦¥à¦®à¦ķ": 5147,
      "à§ĩà¥¤\"": 5148,
      "jee": 5149,
      "Ġbecause": 5150,
      "Ġà¦¸à¦®à¦¤à¦²": 5151,
      "Ġbab": 5152,
      "))": 5153,
      "Ġeven": 5154,
      "par": 5155,
      "à§¬à§Ń": 5156,
      "Ġear": 5157,
      "Ġà§§à§¯à§¯à§®": 5158,
      "________": 5159,
      "Ġip": 5160,
      "Ġrs": 5161,
      "Ġà¦Ĩà¦¹à¦°à¦£": 5162,
      "Ġà¦ħà¦ªà¦ļà¦¯": 5163,
      "Ġtake": 5164,
      "Ġhy": 5165,
      "Ġà¦ĩà¦¨à¦«à¦°à¦®": 5166,
      "73": 5167,
      "Ø§Ø³": 5168,
      "âĸ": 5169,
      "ĠÃł": 5170,
      "Ġwomen": 5171,
      "/%": 5172,
      "cer": 5173,
      "Ġcons": 5174,
      "Ġà¦ªà¦°à¦¬": 5175,
      "à¦¨à¦¬à¦ľ": 5176,
      "Ġ{{": 5177,
      "Ġà¦ķà¦®à¦°": 5178,
      "à¦Ĺà¦¸à¦¹": 5179,
      "à¦ıà¦¸à¦ĩà¦¸": 5180,
      "order": 5181,
      "ven": 5182,
      "Ġdesign": 5183,
      "Ġbdsaradin": 5184,
      "Ġà¦ĩà¦®à¦¤": 5185,
      "à¦ķà¦¸à¦¨": 5186,
      "plic": 5187,
      "0465": 5188,
      "à¦ļà§°": 5189,
      "Ġeduc": 5190,
      "à¦Ļà¦¤": 5191,
      "Ġà¦īà§İà¦ªà¦¨": 5192,
      "Ġà¦¹à¦ĩà¦Ľ": 5193,
      "anta": 5194,
      "à¦¥à¦ªà¦¤": 5195,
      "barta": 5196,
      "kn": 5197,
      "Ġmom": 5198,
      "ward": 5199,
      "à¦Ĺà¦®à¦¨": 5200,
      "à¦¦à¦ķà¦ķ": 5201,
      "Ġà¦¹à¦¤à¦¦à¦°": 5202,
      "à¦·à¦Ļ": 5203,
      "iver": 5204,
      "Ġthese": 5205,
      "ative": 5206,
      "à¦ķà¦ĸ": 5207,
      "}.": 5208,
      "11440465": 5209,
      "Ġltd": 5210,
      "Ġdw": 5211,
      "ĠØ¯": 5212,
      "Ġmen": 5213,
      "à¦ķà¦ĵà¦¯": 5214,
      "ose": 5215,
      "fl": 5216,
      "]]": 5217,
      "à¦ıà¦¨à¦ıà¦¨": 5218,
      "istan": 5219,
      "Ġdoes": 5220,
      "à¦¨à¦Ĺà¦¤": 5221,
      "à¦Ĩà¦ĩà¦ıà¦¸": 5222,
      "à¦ıà¦®à¦ĩà¦ī": 5223,
      "Ġcontin": 5224,
      "Ġnumber": 5225,
      "à§§à§¦à§¦": 5226,
      "ĠÙħÙĨ": 5227,
      "gy": 5228,
      "eep": 5229,
      "2013": 5230,
      "Ġà¦Ĩà¦ĩà¦ķà¦¨": 5231,
      "era": 5232,
      "Ã¦": 5233,
      "63": 5234,
      "Â¦Â": 5235,
      ".\"": 5236,
      "à¦¨à¦®à¦ľ": 5237,
      "à¦¯à¦®à¦Ĺ": 5238,
      "Ġpak": 5239,
      "ograph": 5240,
      "Ġà¦Ńà¦°à¦ª": 5241,
      "Ġà§§à§§à§¦": 5242,
      "Ġà¦¬à¦¸à¦Ľ": 5243,
      "à¦¦à¦Ľ": 5244,
      "Ġquest": 5245,
      "à¦¥à¦Ł": 5246,
      "Ġà¦¸à¦¬à¦¥": 5247,
      "à¦Łà¦°à¦ķ": 5248,
      "Ġcurrent": 5249,
      "::": 5250,
      "ury": 5251,
      "Ġà¦¦à¦ĸà¦²à¦¦": 5252,
      "Ġà¦²à¦ĩà¦¯": 5253,
      "Ġà¦īà¦ªà¦ļ": 5254,
      "Ġmarket": 5255,
      "Ġmil": 5256,
      "Ġfl": 5257,
      "ron": 5258,
      "bra": 5259,
      "Ð¼": 5260,
      "61": 5261,
      "Ġà¦ħà¦°à¦£": 5262,
      "à§ĥ.": 5263,
      "info": 5264,
      "Ġbusiness": 5265,
      "ls": 5266,
      "Ġ&&": 5267,
      "gan": 5268,
      "à¦¿\"": 5269,
      "Ġà¦¿": 5270,
      "facebook": 5271,
      "iday": 5272,
      "à¦ĸà¦Ń": 5273,
      "Ġà¦Ĺà¦¹": 5274,
      "à¦ªà¦ĩ": 5275,
      "Ġeff": 5276,
      ",âĢĺ": 5277,
      "comment": 5278,
      "opyright": 5279,
      "Ġge": 5280,
      "à¦ľà¦¤à¦¨": 5281,
      "cd": 5282,
      "à´²": 5283,
      "Ġentertainment": 5284,
      "Ġphoto": 5285,
      "Ġà¦¨à¦ĩà¦²": 5286,
      "Ġdata": 5287,
      "Ġhom": 5288,
      "Ġà¦Ĺà¦£à¦«": 5289,
      "enger": 5290,
      "à¦§à¦Ĺ": 5291,
      "à¦ķà¦Ľà¦¡": 5292,
      "à´µ": 5293,
      "Ġta": 5294,
      "Ġkore": 5295,
      "Ġà¦ľà¦ĺà¦¨": 5296,
      "à¦¬à¦¨à¦Ĺà¦°": 5297,
      "Ġà§§à§¯à§¯à§Ń": 5298,
      "Ġrent": 5299,
      "Ġprem": 5300,
      "à§°à¦¶": 5301,
      "ersion": 5302,
      "Ġà§§à§¯à§ªà§Ń": 5303,
      "mark": 5304,
      "gu": 5305,
      "rs": 5306,
      "ĠâĹĪ": 5307,
      "arts": 5308,
      "details": 5309,
      "Ġà¦ĵà¦ĩà¦¸à¦¬": 5310,
      "à¦ªà¦ļà¦°": 5311,
      "Ġresp": 5312,
      "à¦¬à¦¸à¦¹": 5313,
      "Ġà¦ıà¦¨à¦¸": 5314,
      "else": 5315,
      "mon": 5316,
      "Ġ''": 5317,
      "Ġdisqus": 5318,
      "à¦¤à¦ĸà¦¨": 5319,
      "à¦§à¦ķà¦°": 5320,
      "go": 5321,
      "Ġmam": 5322,
      "Ġà¦«à¦ľà¦°": 5323,
      "ware": 5324,
      "Ø§Ùĩ": 5325,
      "à¦ĩà¦ĩ": 5326,
      "Ġà¦¸à¦ľà¦²": 5327,
      "à¦Ľà§°": 5328,
      "à¦¯à¦ªà¦¦": 5329,
      "Ġà§ĩ": 5330,
      "ility": 5331,
      "à¦ľà¦¸à¦¹": 5332,
      "Ġà¦¯à¦ķ": 5333,
      "ĠðŁĻĤ": 5334,
      "à§Ńà§¬": 5335,
      "Ġfo": 5336,
      "Ġsum": 5337,
      "Ġà¦¨à¦®à¦¨": 5338,
      "Ġà¦īà¦¸à¦®": 5339,
      "home": 5340,
      "after": 5341,
      "à§Ńà§¯": 5342,
      "Ø§Ø¦": 5343,
      "Ġà¦ľà¦¨à¦¶à¦ķ": 5344,
      "à¦¼à§ĩ...": 5345,
      "Ġà¦Ĩà¦ļà¦®à¦ķ": 5346,
      "Ġut": 5347,
      "Ġà¦ıà¦¨à¦ķ": 5348,
      "Ġà¤¹": 5349,
      "jan": 5350,
      "Ġà¦¸à¦°à¦¸": 5351,
      "cal": 5352,
      "à¦ĺà¦¡": 5353,
      "83": 5354,
      "à¤ľ": 5355,
      "Ġgh": 5356,
      "à¦ľà¦¨à¦¤": 5357,
      "Ġà¦ıà¦ıà¦«à¦ª": 5358,
      "Ġà¦Ĩà¦ķà¦¨": 5359,
      "Ġsuch": 5360,
      "à¦¯à¦ĸà¦¨": 5361,
      "Ġà¦īà¦ªà¦°à¦¨": 5362,
      "à¦¤à§°à¦¤": 5363,
      "Ġservice": 5364,
      "à¦ħà¦²": 5365,
      "Ġmal": 5366,
      "Ġà§§à§©à§¦": 5367,
      "à¦ĵà¦«": 5368,
      "à¦¯à¦ĸ": 5369,
      "à¦ĵà¦ĩ": 5370,
      "Ġà¦ķà¦²à¦Ļ": 5371,
      "Ġà¦ħà§±": 5372,
      "à¦¦à¦ĩ": 5373,
      "Ġà¦¬à¦¹à¦°": 5374,
      "Ġtoo": 5375,
      "Ġà¦ļà¦ķà¦¬": 5376,
      "Ġà§§à§ªà§ª": 5377,
      "Ġà¦ĩà¦®à¦ª": 5378,
      "à¦Łà¦Ĩà¦ª": 5379,
      "lex": 5380,
      "Ġà¦ĩà¦¥": 5381,
      "Ġvs": 5382,
      "Ġuser": 5383,
      "Ġà§§à§®à§®": 5384,
      "Å¡": 5385,
      "Ġha": 5386,
      "à¦Ńà¦Ł": 5387,
      "à¦¸à§°": 5388,
      "Ġà¦Ĩà¦ĩà¦¨à¦Ł": 5389,
      "Ġclearinterval": 5390,
      "Ġvisit": 5391,
      "Ġà¦¬à¦¹à¦¨à¦ķ": 5392,
      "length": 5393,
      "js": 5394,
      "à¦īà¦¶": 5395,
      "à¦ħà¦¬à¦¶": 5396,
      "abd": 5397,
      "Ġà¦ªà¦°à¦¨": 5398,
      "Ġask": 5399,
      "à§¨à§¦à§¦à§®": 5400,
      "à¦ĩà§°": 5401,
      "mg": 5402,
      "Ġà¦Ľà¦¦": 5403,
      "Ġbin": 5404,
      "Ġboo": 5405,
      "Ġsoft": 5406,
      "à¦īà¦Łà¦°": 5407,
      "ural": 5408,
      "Ġà¦§à¦°à¦Ľ": 5409,
      "à¦Ĺà¦Ń": 5410,
      "à¦ĩà¦Łà¦Ĺ": 5411,
      "à¦ıà¦®à¦¡": 5412,
      "btf": 5413,
      "à¤¡": 5414,
      "uage": 5415,
      "ract": 5416,
      "à¦ĩà¦²à¦«à¦²à¦ķ": 5417,
      "tg": 5418,
      "Ġelse": 5419,
      "à¦¶à¦Ļ": 5420,
      "Ġà¦ħà¦ľà¦¯": 5421,
      "Ġdev": 5422,
      "ye": 5423,
      "ona": 5424,
      "ning": 5425,
      "Ġà¦ıà¦°à¦ĩà¦®": 5426,
      "Ġtem": 5427,
      "Ġà¦¬à¦ĩà¦¤": 5428,
      "Ġà§§à§¯à§Ńà§¦": 5429,
      "unes": 5430,
      "sm": 5431,
      "à¦¹à¦¤à¦°": 5432,
      "Ġtar": 5433,
      "views": 5434,
      "Ġoriginal": 5435,
      "à¦ıà¦¸à¦ıà¦®à¦ıà¦®à¦ĩà¦ī": 5436,
      "à¦ªà¦Ľ": 5437,
      "à§¬à§¨": 5438,
      "à¦¡à¦ĵ": 5439,
      "ĠØ¹ÙĨ": 5440,
      "sr": 5441,
      "Ġgovernment": 5442,
      "Ġà¦®à¦¨à¦ķ": 5443,
      "âĢĻâĢĻ": 5444,
      "Ã¢": 5445,
      "Ġà¦Ķà¦ªà¦¨": 5446,
      "à¤·": 5447,
      "à¥¤...": 5448,
      "Ġà¦¤à¦°à¦®": 5449,
      "ways": 5450,
      "Ġà¦®à¦ĵà¦²": 5451,
      "dfpad": 5452,
      "à§¯à§«": 5453,
      "Ġà¦ħà¦¸à¦®à§°": 5454,
      "à¦¾à¦¾": 5455,
      "à§¯à§®": 5456,
      "nesday": 5457,
      "Ġopen": 5458,
      "Ġà¦¸à¦¹à¦®": 5459,
      "à§Ńà§©": 5460,
      "els": 5461,
      "à¦ĩà¦ĺ": 5462,
      "Ġ45": 5463,
      "Ġà¦ıà¦°à¦ĩà¦®à¦§": 5464,
      "à¦Ĺà¦²à¦ķ": 5465,
      "ĠØ§ÙĦØ±": 5466,
      "Ġwid": 5467,
      "à¦Ĺà¦¤à¦®": 5468,
      "Ġfun": 5469,
      "ety": 5470,
      "à¦¸à¦¦à¦°": 5471,
      "img": 5472,
      "gen": 5473,
      "Ġlot": 5474,
      "Ġà¦ıà¦®à¦¤": 5475,
      "Ġà¦ķà¦¨à¦ķ": 5476,
      "à§°à¦¨": 5477,
      "Ġsuper": 5478,
      "gh": 5479,
      "à¦Łà¦ķà¦°": 5480,
      "Ġà§§à§®à§¦": 5481,
      "à¦Ĩà¦«": 5482,
      "Ġà¤¨": 5483,
      "Ġà¦ªà¦Łà¦Ń": 5484,
      "ually": 5485,
      "Ġà¦¹à¦ľà¦¯": 5486,
      "Ġchannel": 5487,
      "Ġà¦Ĩà¦¦à¦²": 5488,
      ".......": 5489,
      "à¦ĩà¦īà¦°": 5490,
      "Ġà¦ıà¦«à¦¡": 5491,
      "Ġinv": 5492,
      "92": 5493,
      "lywood": 5494,
      "à¦°à¦Ĺà¦£": 5495,
      "Ġà§§à§¯à§¯à§¨": 5496,
      "à¦ıà¦¨à¦¬": 5497,
      "Ġcamp": 5498,
      "work": 5499,
      "Ġoffic": 5500,
      "à¦īà¦ľà¦¬": 5501,
      "à§Ģ'": 5502,
      "ika": 5503,
      "à¦ĩà¦«à¦¤": 5504,
      "gmail": 5505,
      "ves": 5506,
      "Ġrun": 5507,
      "à¦ĭà¦£": 5508,
      "Ġwik": 5509,
      "à¦ıà¦ı": 5510,
      "Ġtak": 5511,
      "Ġwater": 5512,
      "à¦°à¦¥à¦®à¦¦": 5513,
      "aster": 5514,
      "rol": 5515,
      "Ġà¦ľà¦¨à¦®à¦¤": 5516,
      "Ġà¦ıà¦®à¦¦": 5517,
      "Ġà¦Ŀà¦²à¦ķ": 5518,
      "Ġpri": 5519,
      "Ġà¦²à¦¯": 5520,
      "91": 5521,
      "à¦ĩà¦ĵà¦Ń": 5522,
      "à¦¤à¦¨à¦ķ": 5523,
      "à¦ľà¦ķà¦²": 5524,
      "crip": 5525,
      "ursday": 5526,
      "ason": 5527,
      "Ġà§§à§ªà§¦": 5528,
      "à¦®à¦®à¦¤": 5529,
      "Ġà¦¶à¦¹à¦°à¦Ĺ": 5530,
      "Ġwithout": 5531,
      "Ġà¦ĩà¦°à¦«": 5532,
      "ipur": 5533,
      "à¤ª": 5534,
      "hide": 5535,
      "ient": 5536,
      "Ġsar": 5537,
      "anews": 5538,
      "Ġâĸº": 5539,
      "Ġwhy": 5540,
      "dr": 5541,
      "ĠâĤ": 5542,
      "Ġà§§à§ªà§¨à§Ń": 5543,
      "à¦ıà¦®à¦ıà¦¸": 5544,
      "62": 5545,
      "please": 5546,
      "Ġ64": 5547,
      "à¦¬à¦²à¦¨": 5548,
      "ention": 5549,
      "à¦Ĩà¦¹": 5550,
      "tag": 5551,
      "Ġà¦ħà¦ªà¦°à¦ķ": 5552,
      "Ġson": 5553,
      "Ġsource": 5554,
      "Ġà¦ĭà¦·": 5555,
      "iddle": 5556,
      "Ġver": 5557,
      "Ġà¦¹à¦¸à¦ª": 5558,
      "Ġà¦ħà¦Ĺà¦£": 5559,
      "ane": 5560,
      "Ġ2009": 5561,
      "Ġprothom": 5562,
      "nbsp": 5563,
      "Ġà¦¦à¦²à¦ĩ": 5564,
      "à¦®à¦¸à¦¨": 5565,
      "Ġsin": 5566,
      "ope": 5567,
      "Ġold": 5568,
      "Ġ***": 5569,
      "ĠÂ°": 5570,
      "anch": 5571,
      "âĢĿ,": 5572,
      "window": 5573,
      "à¦¶à¦¨à¦¸": 5574,
      "ines": 5575,
      "à¦ĩà¦īà¦ľ": 5576,
      "Ġpolit": 5577,
      "Ġà¦Ĩà§°à¦®": 5578,
      "Ġà¦īà¦¯": 5579,
      "à§¬à§ª": 5580,
      "ainik": 5581,
      "Ġwednesday": 5582,
      "Ġà¦īà¦Ł": 5583,
      "Ġaud": 5584,
      "Ġcit": 5585,
      "Ġà¦Łà¦ªà¦ķ": 5586,
      "Ġà¦¡à¦ľà¦¨": 5587,
      "Ġgeneric": 5588,
      "à¦¯à¦ªà¦£": 5589,
      "Ġorder": 5590,
      "hri": 5591,
      "à¦¿âĢĶ": 5592,
      "hammad": 5593,
      "Ġmessenger": 5594,
      "Ġà¦ıà¦¡à¦®": 5595,
      "Ġthought": 5596,
      "Ġmad": 5597,
      "Ġtrue": 5598,
      "yo": 5599,
      "Ġbefore": 5600,
      "down": 5601,
      "sa": 5602,
      "à¦¿(": 5603,
      "à§ģ...": 5604,
      "ticles": 5605,
      "à¦®à¦īà¦¦": 5606,
      "Ġà¦īà¦ĩà¦¥": 5607,
      "à¦¶à¦²à¦Ĺà¦¤": 5608,
      "à§°à¦¬": 5609,
      "017": 5610,
      "à¦¨à¦Ńà¦°": 5611,
      "Ġà¦®à¦ķà¦¬": 5612,
      "Â©": 5613,
      "Ġà¦Ĩà¦®à¦¤à¦²": 5614,
      "Ġanal": 5615,
      "Ġà¦ķà¦¨à¦ľ": 5616,
      "à§¬à§§": 5617,
      "Ġà¦ħà¦°à¦«": 5618,
      "Ġep": 5619,
      "Ġà¦®à¦¶à¦²": 5620,
      "Ġfb": 5621,
      "flag": 5622,
      "Ġà¦®à¦¹à¦ķ": 5623,
      "bh": 5624,
      "Ġcategory": 5625,
      "Ġ???": 5626,
      "à¦ıà¦¶": 5627,
      "à¦Ĩà¦ĩà¦ı": 5628,
      "mer": 5629,
      "Ġce": 5630,
      "wh": 5631,
      "style": 5632,
      "à§İà¦«à¦°": 5633,
      "à¦łà¦®": 5634,
      "Ġsms": 5635,
      "Ġtuesday": 5636,
      "à¦¼à¦¾!": 5637,
      "Ġà¦ıà¦®à¦¸": 5638,
      "lar": 5639,
      "vir": 5640,
      "Ġbi": 5641,
      "Ġrequ": 5642,
      "à¦ıà¦®à¦ı": 5643,
      "Ġà¦ľà¦¨à¦¸à¦ļ": 5644,
      "Ġà¦¸à¦ªà¦°": 5645,
      "sbazarnews": 5646,
      "à¦·à¦°à¦£": 5647,
      "Ġprof": 5648,
      "à¦°à¦ķà¦Ł": 5649,
      "========": 5650,
      "Ġà§§à§¬à§¦": 5651,
      "à¦¤à¦¬à¦ķ": 5652,
      "à¦¶à¦¬à¦ª": 5653,
      "Ġà¦¤à¦¸à¦²": 5654,
      "Ġrem": 5655,
      "ley": 5656,
      "Ġaccount": 5657,
      "Ġ:)": 5658,
      "Ġprot": 5659,
      "ork": 5660,
      "à¦¨à¦¸à¦¨": 5661,
      "Ġexpress": 5662,
      "à¦Łà¦ķà¦²": 5663,
      "Ġmonday": 5664,
      "ami": 5665,
      "query": 5666,
      "à¦Ľà¦¯": 5667,
      "center": 5668,
      "~~": 5669,
      "Ġinternet": 5670,
      "oto": 5671,
      "à¦ļà¦¦": 5672,
      "src": 5673,
      "($": 5674,
      "Ġthursday": 5675,
      "Ġà¦Ĩà¦¯à¦¹": 5676,
      "à¦ªà¦Ń": 5677,
      "onet": 5678,
      "à¦ĩà¦¨à¦®": 5679,
      "Ġguy": 5680,
      "Ġtitle": 5681,
      "newsbd": 5682,
      "à¦Łà¦¨à¦®": 5683,
      "!âĢĻ": 5684,
      "Ġsearch": 5685,
      "Ġlarg": 5686,
      "à¦ķà¦Łà¦ª": 5687,
      "âĢ²âĢ²": 5688,
      "Ġ**": 5689,
      "ccess": 5690,
      "Ġwindows": 5691,
      "à¦¸à¦īà¦¦": 5692,
      "show": 5693,
      "à¦ıà¦ķà¦¦": 5694,
      "à¦ľà¦ĸà¦¬à¦°": 5695,
      "Ġà¦ķà§°à¦ķ": 5696,
      "ĠØ§ÙĦØ³": 5697,
      "ĠØ§ÙĦÙħ": 5698,
      "Ġà¦Ľà¦Ł": 5699,
      "à¦¹à¦īà¦¦": 5700,
      "ock": 5701,
      "ifier": 5702,
      "à§ĩâĢĿà¥¤": 5703,
      "à§°à¦²": 5704,
      "Ġsec": 5705,
      "share": 5706,
      "field": 5707,
      "Ġcheap": 5708,
      "Ġdig": 5709,
      "Ġarticleà¦¸": 5710,
      "Ġà¦ľà¦Ĺà¦¦": 5711,
      "ship": 5712,
      "Ġà¦ıà¦ķà¦Ĺ": 5713,
      "Ġcache": 5714,
      "à§Ńà§ª": 5715,
      "uter": 5716,
      "arent": 5717,
      "à¦ıà¦¸à¦ĩà¦°": 5718,
      "ki": 5719,
      "ĠØ§Ø¨": 5720,
      "à§ģ?": 5721,
      "à§¬à§©": 5722,
      "Ġà¦Ĩà¦ľà¦ĩ": 5723,
      "Ġdh": 5724,
      "Ġà¦Ĩà¦īà¦Łà¦ª": 5725,
      "Ġclo": 5726,
      "Ġelection": 5727,
      "adi": 5728,
      "Ġpa": 5729,
      "à¦ķà¦§": 5730,
      "Ġcome": 5731,
      "ĠÙĦØ§": 5732,
      "Ġà¦ĵà¦ªà§°à¦¤": 5733,
      "Ġ????????": 5734,
      "à¦¦à¦°à¦Ĺà¦ŀ": 5735,
      "à¦ķà¦°à¦¨": 5736,
      "ping": 5737,
      "Ġchina": 5738,
      "à¥Ī": 5739,
      "Ġà¦ıà¦ĩà¦¡": 5740,
      "à¦¤à¦°à¦¸": 5741,
      "Ġimport": 5742,
      "âĢ¢": 5743,
      "ids": 5744,
      "Ġhol": 5745,
      "Ġ36": 5746,
      "ĠØ°": 5747,
      "Ġsab": 5748,
      "Ġhasan": 5749,
      "à¦¤à¦°à¦Ļ": 5750,
      "ple": 5751,
      "joy": 5752,
      "Ġpoint": 5753,
      "Ġà¦ĺà¦¨à¦¤": 5754,
      "à§±à¦¤": 5755,
      "à¦¨à¦®à¦¤": 5756,
      "Ġà¦Ĺà§°": 5757,
      "Ġà¦ĩà¦¬à¦°": 5758,
      "à¦ľà¦īà¦ķ": 5759,
      "Ð´": 5760,
      "Ġic": 5761,
      "pri": 5762,
      "vb": 5763,
      "icks": 5764,
      "Ġlik": 5765,
      "*)": 5766,
      "empt": 5767,
      "Ġà¦ļà¦ķà¦²": 5768,
      "Ġà¦ķà¦¤à¦Ĺ": 5769,
      "Ġà¦Īà¦¸": 5770,
      "à¦ķà¦Łà¦¬à¦°": 5771,
      "Ġstate": 5772,
      "Ġprogram": 5773,
      "à¦°à¦®à¦¤": 5774,
      "Ġà¦Ĩà¦°à¦¶": 5775,
      "Ġbjp": 5776,
      "left": 5777,
      "Ġà¦¤à¦ª": 5778,
      "à¦Īà¦²": 5779,
      "à¦¿à§³": 5780,
      "Ġà¦°à¦īà¦«": 5781,
      "Ġcolle": 5782,
      "Ġà¦®à¦łà¦¬": 5783,
      "like": 5784,
      "Ġà¦¥à¦®": 5785,
      "ott": 5786,
      "ih": 5787,
      "Ġphone": 5788,
      "à¦°à¦®à¦£à¦ķ": 5789,
      "Ġfriday": 5790,
      "à¦¿âĢĵ": 5791,
      "Ġcircular": 5792,
      "Ġhoss": 5793,
      "à¦ľà¦ķà¦¤": 5794,
      "Ġà¦¸à¦®à¦·": 5795,
      "ones": 5796,
      "Ġà¦īà¦¸à¦ķ": 5797,
      "cs": 5798,
      "Ġà¦¸à¦¹à¦¬": 5799,
      "Ġadv": 5800,
      "à§°à¦¹à¦£": 5801,
      "%)": 5802,
      "Ġà¦²à¦¬": 5803,
      "word": 5804,
      "Ġà¦ĩà¦²à¦®": 5805,
      "Ġpublic": 5806,
      "Ġà¦ķà¦ķà¦Ł": 5807,
      "Ġà¦ħà§±à¦¸": 5808,
      "Ġglo": 5809,
      "Ġoffer": 5810,
      "à¦¦à¦¨à¦ªà¦¤": 5811,
      "Ġgets": 5812,
      "Ġà¦ħà¦ĸ": 5813,
      "Ġà§³": 5814,
      "à¦ĸà¦ķà¦¦": 5815,
      "à¦¬à¦¹à¦¤": 5816,
      "utc": 5817,
      "gp": 5818,
      "Ġdem": 5819,
      "Ġà¦ıà¦ĩà¦ĸ": 5820,
      "ÃŃ": 5821,
      "itra": 5822,
      "à¦®à¦°à¦ķ": 5823,
      "Ġste": 5824,
      "à¦¬à¦¤à¦²": 5825,
      "des": 5826,
      "not": 5827,
      "Ġpor": 5828,
      "à§ĩ?âĢĿ": 5829,
      "Ġown": 5830,
      "dh": 5831,
      "Ø¸": 5832,
      "Ġhar": 5833,
      "Ñı": 5834,
      "à¦Ńà¦ª": 5835,
      "\"]": 5836,
      "Ġfar": 5837,
      "Ġthose": 5838,
      "Ġdainik": 5839,
      "ream": 5840,
      "âģ": 5841,
      "Ġà¦Ĩà¦«à¦¤": 5842,
      "Ġ//$(": 5843,
      "Ġbeing": 5844,
      "à¦¨à¦¬à¦¦": 5845,
      "Ġ80": 5846,
      "à§Ģ/": 5847,
      "à¦īà¦ĸ": 5848,
      "ÙĪØ±": 5849,
      "à¦¬à¦²à¦Ľ": 5850,
      "Ġà¦ļà§°": 5851,
      "Ġ?????": 5852,
      "ÙĬØ¯": 5853,
      "ĠØ§ÙĦØ£": 5854,
      "Ġà¦«à¦¸": 5855,
      "Ġà¦ıà¦ķà¦²": 5856,
      "Ġlead": 5857,
      "Â¡": 5858,
      "à¦Ĩà¦§": 5859,
      "Ġà¦®à¦¹à§İ": 5860,
      "à¦²à¦Ŀ": 5861,
      "à¦Ĩà¦¸à¦²": 5862,
      "à¦Ĩà¦°à¦¡": 5863,
      "à¦ªà¦²à¦¸": 5864,
      "Ġexam": 5865,
      "Ġwhile": 5866,
      "à¦¬à¦ĸ": 5867,
      "Ġà¦¤à¦«": 5868,
      "à¦¬à¦°à¦®": 5869,
      "Ġsunday": 5870,
      "à¦ĩà¦Ľà¦¡": 5871,
      "à¦Ńà¦°à¦¤": 5872,
      "Ġbad": 5873,
      "Ġbooks": 5874,
      "à§¯à§¬": 5875,
      "à¦¯à¦Ĺà¦¤": 5876,
      "Ġtable": 5877,
      "Ġtype": 5878,
      "Ã¡": 5879,
      "à¦¹à¦¬à¦¨": 5880,
      "Ġcut": 5881,
      "family": 5882,
      "ures": 5883,
      "Ġà¦¬à¦¨à¦Ń": 5884,
      "Ġwar": 5885,
      "Ġbangladeshi": 5886,
      "à¦¦à¦ķà¦¬": 5887,
      "Ġshort": 5888,
      "Ġused": 5889,
      "Ġà¦ħà¦¸à§İ": 5890,
      "Ġ70": 5891,
      "Ġmain": 5892,
      "à¦°à¦ªà¦¨": 5893,
      "Ġà§§à§¨à§«": 5894,
      "hu": 5895,
      "Ġà¦ľà¦²à¦¸": 5896,
      "Ġà¦ľà¦ķ": 5897,
      "à©": 5898,
      "urday": 5899,
      "à¦¿âĢĻ,": 5900,
      "à¦ļà¦²à¦ķ": 5901,
      "Ġà¥": 5902,
      "cut": 5903,
      "à¦ķà¦Łà¦¤à¦®": 5904,
      "rac": 5905,
      "Ġsil": 5906,
      "Ã¿": 5907,
      "à¦Ĩà¦²à¦®": 5908,
      "Ġà¦ªà¦¦à¦ļ": 5909,
      "Ñĭ": 5910,
      "à®®": 5911,
      "à§ĭà¦ģà¥¤": 5912,
      "à¦²à¦ľà¦¯": 5913,
      "Ġà§©à§«à§¦": 5914,
      "Ġrating": 5915,
      "à¦ĩà¦²à¦ķ": 5916,
      "à¦ıà¦ľ": 5917,
      "ox": 5918,
      "à´Ĥ": 5919,
      "à§ĥà¦ĥ": 5920,
      "onav": 5921,
      "à§ĩ..": 5922,
      "Ġmust": 5923,
      "ĠØ§ÙĦØµ": 5924,
      "Ġsupport": 5925,
      "icate": 5926,
      "à¦¼à§ĩ!": 5927,
      "'));": 5928,
      "Ġoffice": 5929,
      "Ġmas": 5930,
      "Ġbrow": 5931,
      "à¦¦à¦Ń": 5932,
      "Ġshah": 5933,
      "obor": 5934,
      "à¦Ĩà¦ĩà¦¡à¦¬": 5935,
      "Ġfilm": 5936,
      "à¦Ńà¦§": 5937,
      "à§į,": 5938,
      "à¦¨à¦¥": 5939,
      "Ġà¦¾": 5940,
      "Ġ$(\"": 5941,
      "msg": 5942,
      "Ġà¦¬à¦²à¦¯": 5943,
      "'){": 5944,
      "à¦ķà¦²à¦®": 5945,
      "Ġà¦Ŀà¦ķ": 5946,
      "Ø¦": 5947,
      "Ġà¦ªà¦¦à¦¬": 5948,
      ">=": 5949,
      "Ġà¦īà¦ªà¦Ĺ": 5950,
      "Ġà¦ĵà¦ľ": 5951,
      "ini": 5952,
      "/]": 5953,
      "Ġà§§à§¯à§Ńà§©": 5954,
      "iving": 5955,
      "Ġlargest": 5956,
      "à¦¤à¦¸à¦¹": 5957,
      "Ġâī": 5958,
      "Ġ34": 5959,
      "à¦Ĥà¥¤": 5960,
      "à¦ĺà¦¬à¦¦": 5961,
      "Ġà¦¡à¦¯": 5962,
      "Ġversion": 5963,
      "Ġsame": 5964,
      "Ġà¦²à¦Ĺà¦ĩà¦¨": 5965,
      "Ġstat": 5966,
      "à¦§à¦°à¦£": 5967,
      "à¦¥à¦¹": 5968,
      "Ġà¦ıà¦¤à¦ĩ": 5969,
      "Ġdiffer": 5970,
      "rist": 5971,
      "Ġgroup": 5972,
      "Ġlaw": 5973,
      "à¦Ĺà¦°à¦®": 5974,
      "Ġnever": 5975,
      "Ġfalse": 5976,
      "ems": 5977,
      "Ġgoogleplus": 5978,
      "Ġwa": 5979,
      "ribut": 5980,
      "à¦°à¦«à¦¤": 5981,
      "à¦ĸà¦¡": 5982,
      "Ġà¦łà¦ķ": 5983,
      "à§ĩ\"": 5984,
      "Ġcong": 5985,
      "à¦ħà¦®": 5986,
      "à¦ĺà¦¬": 5987,
      "Ġà§§à§ªà§¨à§ª": 5988,
      "Ġ---": 5989,
      "Ġopt": 5990,
      "onavirus": 5991,
      "Ġà¦ħà¦ªà¦ļ": 5992,
      "zv": 5993,
      "Ġinstagram": 5994,
      "prevloc": 5995,
      "Ġmicro": 5996,
      "Ġsynd": 5997,
      "Ġà¦¬à¦ĩà¦Ĺ": 5998,
      "Ġcall": 5999,
      "Ġfi": 6000,
      "Ġpc": 6001,
      "Ġstories": 6002,
      "à¦°à¦īà¦¦": 6003,
      "Ġcommun": 6004,
      "à¦£à¦ĵ": 6005,
      "aving": 6006,
      "Ġiftar": 6007,
      "Ġà¦¹à¦¤à¦¬": 6008,
      "à¦¡à¦¯": 6009,
      "à¦¸à¦¬à¦¹": 6010,
      "Ġgoing": 6011,
      "Ġà¦¬à¦Ľà¦°à¦Ĺ": 6012,
      "à¦ĩà¦īà¦ıà¦¨à¦ĵ": 6013,
      "%,": 6014,
      "Ġbeaut": 6015,
      "Ġdevelopment": 6016,
      "Ġ978": 6017,
      "Ġ!!!": 6018,
      "à¦ķà¦¬à¦²": 6019,
      "Ġà¦ķà¦°à¦¦": 6020,
      "Ġà¦°à¦¦": 6021,
      "Ġà¦«à¦²à¦¤": 6022,
      "Ġann": 6023,
      "à¦§à¦ĵ": 6024,
      "Ġà¦Īà¦°": 6025,
      "md": 6026,
      "Ġ2008": 6027,
      "à¦§à§°": 6028,
      "Ġcity": 6029,
      "distance": 6030,
      "Ġpint": 6031,
      "à¦ĩà¦īà¦¤": 6032,
      "push": 6033,
      "à´¯": 6034,
      "Ġabd": 6035,
      "à¦Ļà§°": 6036,
      "type": 6037,
      "gettime": 6038,
      "Ġà§§à§¯à§¯à§«": 6039,
      "ato": 6040,
      "ama": 6041,
      "Ġ48": 6042,
      "à¦¡à¦Łà¦ķà¦®": 6043,
      "à¦ļà¦ĩ": 6044,
      "Ġami": 6045,
      "Ġsit": 6046,
      "tha": 6047,
      "sl": 6048,
      "à¦Ĩà¦Ĺà¦¸": 6049,
      "oun": 6050,
      "esms": 6051,
      "({": 6052,
      "Ġà¦Ĩà¦Ľà¦¡": 6053,
      "Ġstand": 6054,
      "gn": 6055,
      "Ġsaturday": 6056,
      "Ġà¦ıà¦²à¦¸": 6057,
      "Ġà¦Ĩà¦īà¦Łà¦¸": 6058,
      "Ġà¦ķà¦®à¦ĩ": 6059,
      "à¦®à¦§à¦¨": 6060,
      "Ġzonet": 6061,
      "Ġctg": 6062,
      "Ġzonetube": 6063,
      "Ú©": 6064,
      "Ġà§§à§¯à§¯à§ª": 6065,
      "ional": 6066,
      "Ġproduct": 6067,
      "Ġift": 6068,
      "Ġà¦Ļ": 6069,
      "ense": 6070,
      "Ġinfo": 6071,
      "Ġà¦ħà¦¯à¦¥": 6072,
      "Ġà¦ıà¦¹à¦¸": 6073,
      "à¦¦à¦°à¦Ń": 6074,
      "Ġob": 6075,
      "à¦ķà¦¬à¦°": 6076,
      "Ġà§©à§Ńà§¦": 6077,
      "à¥¤âĢĻâĢĻ": 6078,
      "à¦Ĩà¦ļ": 6079,
      "wiki": 6080,
      "à¦®à¦ļà¦¨": 6081,
      "Ġwon": 6082,
      "Ġà¦ħà¦®à¦²": 6083,
      "Ġben": 6084,
      "Ġ\"\"+": 6085,
      "âģĦ": 6086,
      "âĨ": 6087,
      "Ġà¦¨à¦°à¦ĵà¦¯": 6088,
      "à¦¹à¦Ĺ": 6089,
      "ĠÙģÙĬ": 6090,
      "Ġprob": 6091,
      "pub": 6092,
      "Ġà¦¶à¦¤à¦¬à¦°": 6093,
      "Ġ+\"": 6094,
      "tunes": 6095,
      "à¦Ĳà¦¤": 6096,
      "iftar": 6097,
      "Ġchat": 6098,
      "Ġpremier": 6099,
      "rd": 6100,
      "à¦ĵà¦ľ": 6101,
      "ux": 6102,
      "Ġà§§à§ªà§ªà§§": 6103,
      "Ġstar": 6104,
      "Ġà¦¬à¦ľà¦²": 6105,
      "Ġom": 6106,
      "Ġ\"+\"": 6107,
      "sehri": 6108,
      "Ġà¦ļà¦¨à¦¤": 6109,
      "currenttime": 6110,
      "à¦°Ã¦": 6111,
      "Ġkey": 6112,
      "à¦ıà¦¦": 6113,
      "Ġà§§à§¯à§®à§¦": 6114,
      "Ġà¦ĩà¦¸à¦¹": 6115,
      "less": 6116,
      "à¦Łà¦¯": 6117,
      "à¦ĩà¦¨à¦«": 6118,
      "Ġiftartime": 6119,
      "ify": 6120,
      "Ġiftarsehritime": 6121,
      "habor": 6122,
      "nextdate": 6123,
      "sehrit": 6124,
      "iftarts": 6125,
      "currenttimeflag": 6126,
      "sehrits": 6127,
      "Ġtry": 6128,
      "pect": 6129,
      "Ġ\"\"+\"\"": 6130,
      "Ġ+\"\"+": 6131,
      "à¦§à¦¨à¦ķ": 6132,
      "Ġcard": 6133,
      "Ġhouse": 6134,
      "ota": 6135,
      "Ġà¦§à¦®à¦ķ": 6136,
      "Ġà¦ıà¦ķà¦ľ": 6137,
      "mb": 6138,
      "à¦²à¦¬à¦¨": 6139,
      "Ġà¦ıà¦ĩà¦°à¦ķà¦®": 6140,
      "à¦°à¦®à¦ª": 6141,
      "Ġexc": 6142,
      "Ġà¦ĩà¦Ľ": 6143,
      "Ġà¦ıà¦ķà¦ĸ": 6144,
      "Ġeducation": 6145,
      "à¦²à¦¨à¦°à¦¤": 6146,
      "Ġà¦ªà¦¥à¦ļà¦²": 6147,
      "Ġà¦īà¦ªà¦®à¦¨": 6148,
      "Ġ??": 6149,
      "Ġà¦ħà¦ķà¦²": 6150,
      "Ġ<<": 6151,
      "à¦ªà¦¨à¦¦": 6152,
      "erjee": 6153,
      "Ġ37": 6154,
      "Ġà¦ĺà¦°à¦Ł": 6155,
      "à¦ļà¦²à¦¤": 6156,
      "first": 6157,
      "à¦¹à¦£": 6158,
      "Ġà¦ĸà¦¸": 6159,
      "display": 6160,
      "Ġkaler": 6161,
      "ume": 6162,
      "Ġproble": 6163,
      "................................": 6164,
      "à¦¤à¦¬à¦¸": 6165,
      "Ġgal": 6166,
      "Ġmoney": 6167,
      "Ġselect": 6168,
      "Ð³": 6169,
      "Ġà¦°à¦ľ": 6170,
      "Ġ38": 6171,
      "Ġà¦īà¦¦à¦ĺ": 6172,
      "Ġà¦¸à¦¹à¦ľà¦²à¦Ń": 6173,
      "ØªØ§Ø¨": 6174,
      "atic": 6175,
      "Ã§": 6176,
      "à§ĭ'": 6177,
      "à¦ªà¦®à¦¨": 6178,
      "Ð¹": 6179,
      "Ġalo": 6180,
      "Ġcy": 6181,
      "rame": 6182,
      "Ġmb": 6183,
      "Ġincl": 6184,
      "Ġplan": 6185,
      "Ġamader": 6186,
      "à®¤": 6187,
      "Ġà¦Ĩà¦¦à¦¨": 6188,
      "Ġreading": 6189,
      "Ġsr": 6190,
      "ãĢ": 6191,
      "à¦¨à¦¬à¦¸à¦®": 6192,
      ",,,,": 6193,
      "uv": 6194,
      "à¦Ŀà¦ķ": 6195,
      "Ġaz": 6196,
      "Ø¢": 6197,
      "author": 6198,
      "war": 6199,
      "Ġà¦ĸà¦¤à¦®": 6200,
      "Ġmg": 6201,
      "Ġà¦®à¦«à¦¸": 6202,
      "ified": 6203,
      "Ġ33": 6204,
      "à¦®à¦ĵà¦¯": 6205,
      "iful": 6206,
      "Ġà§§à§¯à§Ńà§ª": 6207,
      "ever": 6208,
      "otes": 6209,
      "jvu": 6210,
      "Ġà¦ħà¦¨à¦¬à¦¦": 6211,
      "à§°à¦ļ": 6212,
      "Ġà¦ıà¦ķà¦°à¦ķà¦®": 6213,
      "à¦¾à¦ģ-": 6214,
      "leg": 6215,
      "Ġsn": 6216,
      "Ġà¦ķà¦¤à¦ľà¦¨": 6217,
      "ban": 6218,
      "Ġline": 6219,
      "Ġshar": 6220,
      "Ġalways": 6221,
      "Ġclick": 6222,
      "à¦°à¦®à¦¬": 6223,
      "à¦§à¦¬à¦ª": 6224,
      "Ġà§§à§¯à§«à§¨": 6225,
      "agong": 6226,
      "à¦ħà¦Ĺ": 6227,
      "Ġcountry": 6228,
      "umar": 6229,
      "aug": 6230,
      "Ġà¦ħà¦°à¦¬": 6231,
      "Ġpopular": 6232,
      "à¤Ł": 6233,
      "à¦ľà¦ĺà¦°": 6234,
      "Ġà¦¡à¦Ĺ": 6235,
      ")[": 6236,
      "à¦£à§°": 6237,
      "Ġest": 6238,
      "Ġdesh": 6239,
      "za": 6240,
      "Ġà¦ªà¦°à¦Ĺà¦¨": 6241,
      "Ġ$(\"#": 6242,
      "Ġà¦¸à¦¬à¦ķà¦Ł": 6243,
      "Ġdelhi": 6244,
      "Ġà¦ıà¦¸à¦ķ": 6245,
      "Ġà¦¬à¦ĩà¦Ľ": 6246,
      "Ġtechnology": 6247,
      "ittagong": 6248,
      "Ġsom": 6249,
      "Ġeuro": 6250,
      "ersh": 6251,
      "upload": 6252,
      "Ġinf": 6253,
      "à¦ıà¦ĩà¦ļà¦ª": 6254,
      "widgets": 6255,
      "Ġà¦Ĩà¦°à¦Ł": 6256,
      "Ġà¤¶": 6257,
      "Ġà§§à§¯à§®à§¬": 6258,
      "à§®à§«": 6259,
      "Ġfeel": 6260,
      "à¦®à¦¶à¦¤à¦¬": 6261,
      "media": 6262,
      "à¦§à¦ľ": 6263,
      "à¦£à¦§": 6264,
      "Ġcry": 6265,
      "Ġamaz": 6266,
      "à¦¾à¦ģà¥¤": 6267,
      "Ġà§§à§¦à§§": 6268,
      "à¦¨à¦Ĺà¦£": 6269,
      "eter": 6270,
      "Ġâľ": 6271,
      "Ġboy": 6272,
      "Ġmun": 6273,
      "à¦®à¦Ĺà¦¤": 6274,
      "Ġpic": 6275,
      "ired": 6276,
      "Ġà¦²à¦²": 6277,
      "ena": 6278,
      "Ġjobs": 6279,
      "Ġà§§à§¦à§«": 6280,
      "à¦¾à¦Ĥ-": 6281,
      "à¦¾à§į": 6282,
      "ÑĮ": 6283,
      "à¦¶à¦ªà¦¥": 6284,
      "à§¨à§¦à§¦à§Ń": 6285,
      "à¦ıà¦®à¦ıà¦²": 6286,
      "urance": 6287,
      "Ġà¦«à¦²à¦ª": 6288,
      "Ġà¦Ĩà¦Ĺà¦²": 6289,
      "à®ķ": 6290,
      "atha": 6291,
      "à¤£": 6292,
      "âĻ¥": 6293,
      "ura": 6294,
      "stand": 6295,
      "other": 6296,
      "Ġreturn": 6297,
      "à¦¤à¦°à¦«": 6298,
      "à¦·à§°": 6299,
      "à§¯à§ª": 6300,
      "%à¥¤": 6301,
      "à¦ĩà¦Łà¦®": 6302,
      "box": 6303,
      "à¦¬à¦¸à¦¤": 6304,
      "Ġ39": 6305,
      "Ġà¦«à¦°à¦¯": 6306,
      "à¦Ĺà¦¤à¦ķ": 6307,
      "à§ĭ;": 6308,
      "Ġà¦¬à¦¨à¦¬": 6309,
      "Ġkantho": 6310,
      "asa": 6311,
      "amarbangladeshonline": 6312,
      "Ġmer": 6313,
      "à¦Ĩà¦ĩà¦Ń": 6314,
      "Ġleg": 6315,
      "djvu": 6316,
      "Ġwidth": 6317,
      "filed": 6318,
      "Ġide": 6319,
      "Ġlanguage": 6320,
      "phet": 6321,
      "spot": 6322,
      "margin": 6323,
      "Ġagainst": 6324,
      "Ġauto": 6325,
      "à§¯à§Ń": 6326,
      "à¦²à¦¦à¦¹": 6327,
      "Ø§Ø¹": 6328,
      "à¦¿à¦ĤâĢĻ": 6329,
      "aila": 6330,
      "Ġpen": 6331,
      "Ġstill": 6332,
      "Ã¼": 6333,
      "Ġà§§à§§à§«": 6334,
      "à¦ĵà¦ıà¦¸": 6335,
      "Ġà¦¬à¦Ľà§°": 6336,
      "à¦ªà¦¦à¦¸": 6337,
      "daily": 6338,
      "Ġhossain": 6339,
      "Ġprotected": 6340,
      "Ġgive": 6341,
      "async": 6342,
      "âĢº": 6343,
      "à¦§à¦²": 6344,
      "Ġcitiz": 6345,
      "Ġà¦Ĩà¦ľà¦¬": 6346,
      "à¦¾-à§ĩ": 6347,
      "-\"": 6348,
      "Ġà°": 6349,
      "Ġà¦Ńà¦¨": 6350,
      "Ġà¦ĩà¦¨à¦ª": 6351,
      "à¦¶à¦®à¦¨": 6352,
      "Ġà¦ľà¦¨à¦®": 6353,
      "Ġphotos": 6354,
      "à¦¨à¦¬à¦ª": 6355,
      "Ġà¦Ĺà¦łà¦¨à¦¤à¦¨": 6356,
      "Ġà¦ıà¦§à¦°à¦¨": 6357,
      "count": 6358,
      "Ġà¦¶à¦°à§İ": 6359,
      "à¦¸à¦ıà¦ķ": 6360,
      "Ġii": 6361,
      "Ġà¦®à¦°à¦¤": 6362,
      "à¦°à¦¨à¦¦": 6363,
      "Ġlearn": 6364,
      "hara": 6365,
      "Ġproject": 6366,
      "ajpur": 6367,
      "ization": 6368,
      "ground": 6369,
      "Ġà§¯à§¦à§¦": 6370,
      "ross": 6371,
      "soft": 6372,
      "ÑģÐºÐ¸": 6373,
      "Ġà¦ħà¦§à¦°": 6374,
      "container": 6375,
      "Ġà¦ķà¦²à¦¹": 6376,
      "Ġà¦Ĩà¦Łà¦²": 6377,
      "à¦ªà¦ªà¦¤": 6378,
      "Ġwritten": 6379,
      "à¦¯à¦¹à¦¤": 6380,
      "thers": 6381,
      "Ġà¦¹à¦¦": 6382,
      "Ġkam": 6383,
      "Ġà¦¬à¦ķà¦¶": 6384,
      "Ġbikroy": 6385,
      "à¦Ĺà¦®à¦ķ": 6386,
      "Ġà¦®à¦Ł": 6387,
      "ĠâĻ¦": 6388,
      "Ġà§§à§¯à§¯à§©": 6389,
      "Ġbetter": 6390,
      "Ġà¦¦à¦ĸ": 6391,
      "Ġ(*)": 6392,
      "da": 6393,
      "Ġà¦īà¦²à¦Ł": 6394,
      "à¦ªà¦ķà¦°": 6395,
      "à¦¦à¦¨à¦Ĺà¦°": 6396,
      "à¦¼âĢĶ": 6397,
      "Ġà¦¹à¦²à¦¦": 6398,
      "tech": 6399,
      "Ġà¦ªà¦¦à¦ª": 6400,
      "Ġcategories": 6401,
      "Ġà¦Ĺà¦£à¦ľ": 6402,
      "Ġinc": 6403,
      "à¦°à¦¥à¦®à¦Ł": 6404,
      "à¯ģ": 6405,
      "rop": 6406,
      "Ġmys": 6407,
      "ium": 6408,
      "videos": 6409,
      "Ġà¦²à¦¬à¦¨": 6410,
      "Ġà¦«à¦²à¦¸": 6411,
      "Ġflat": 6412,
      "previous": 6413,
      "500": 6414,
      "oooo": 6415,
      "Ġsyndicate": 6416,
      "oj": 6417,
      "à¦¦à¦®à¦¯": 6418,
      "Ġelect": 6419,
      "mf": 6420,
      "Ġchand": 6421,
      "à¦£à¦Ł": 6422,
      "Ġkhabor": 6423,
      "times": 6424,
      "Ġ\\(": 6425,
      "Ġà¦¨à¦ĵà¦¶": 6426,
      "à¦ıà¦Ľ": 6427,
      "kv": 6428,
      "à¦°à¦Ŀ": 6429,
      "Ġprophet": 6430,
      "Ġà¦ıà¦ĺà¦Łà¦¨": 6431,
      "Ġsouth": 6432,
      "area": 6433,
      "pns": 6434,
      "ween": 6435,
      "Ġà¦°à¦ĵà¦¯": 6436,
      "Ġà¦Ĩà¦ĩà¦ĩà¦¡": 6437,
      "Ġà¦Ĺà¦«": 6438,
      "à¦¹à¦ľà¦¨à¦ķ": 6439,
      "à¦·à¦ľà¦¨à¦ķ": 6440,
      "Ġà¦ĩà¦¶à¦°": 6441,
      "isha": 6442,
      "Ġà¦®à¦¨à¦®": 6443,
      "Ġà¦ıà¦®à¦¨à¦ĵ": 6444,
      "Ġà¦ĵà¦Ĺ": 6445,
      "Ġà§§à§¨à§®": 6446,
      "Ġapplic": 6447,
      "à¦ķà¦Łà¦²": 6448,
      "à¦®à¦®à¦Ń": 6449,
      "Ġkind": 6450,
      "Ġbarta": 6451,
      "à¦ıà¦Ń": 6452,
      "Ġà¦¦à¦°à¦¦": 6453,
      "Ġrup": 6454,
      "Ġabu": 6455,
      "Ø¨ÙĬ": 6456,
      "Â«": 6457,
      "Ġtechtunes": 6458,
      "Ġà¦¸à¦¹à¦¨à¦¶": 6459,
      "Ġ300": 6460,
      "sylhet": 6461,
      "Ġtext": 6462,
      "Ġà¦Ĩà¦Łà¦ľà¦¨": 6463,
      "à¦ĸà¦¦": 6464,
      "Ġà¦ªà¦¢": 6465,
      "Ġfac": 6466,
      "Ġà¦ħà¦²à¦¸": 6467,
      "Ġlight": 6468,
      "à¦ĩà¦¸à¦Ł": 6469,
      "ling": 6470,
      "color": 6471,
      "Ġbis": 6472,
      "Ġà¦Ĩà¦ĩà¦¸à¦ķ": 6473,
      "600": 6474,
      "!âĢĿ": 6475,
      "Ġpat": 6476,
      "move": 6477,
      "Ġà¦Ĩà¦²à¦¸": 6478,
      "fillelementwithad": 6479,
      "à¦Ńà¦¦": 6480,
      "Ġà¦¤à¦ķ": 6481,
      "ped": 6482,
      "rel": 6483,
      "Ġà¦ħà¦ªà¦Ľà¦¨": 6484,
      "à§¯à§¨": 6485,
      "Ġok": 6486,
      "Ġengine": 6487,
      "bang": 6488,
      "à¦¼à§ĩâĢĻ": 6489,
      "Ġchod": 6490,
      "Ġhappy": 6491,
      "à¦ĩà¦īà¦ª": 6492,
      "Ġduring": 6493,
      "Ġà¦®à¦ĵà¦ķ": 6494,
      "Ġà§§à§¯à§®à§ª": 6495,
      "à¦Łà¦°à¦¦": 6496,
      "à¦ĸà¦¨à§°": 6497,
      "Ġplace": 6498,
      "Ġsho": 6499,
      "Ġfood": 6500,
      "ene": 6501,
      "Ġcheck": 6502,
      "à¦¸à¦ĸ": 6503,
      "Ġdu": 6504,
      "à¦īà¦Ľ": 6505,
      "fish": 6506,
      "lash": 6507,
      "Ġà¦ļà¦ķà¦ļà¦ķ": 6508,
      "ding": 6509,
      "à§±à¦²": 6510,
      "à¦ĩà¦ķà¦Ĺ": 6511,
      "à¦²à¦Ľà¦¡": 6512,
      "Ġsize": 6513,
      "her": 6514,
      "Ġscreen": 6515,
      "Ġfast": 6516,
      "Ġà¦§à¦²": 6517,
      "Ġart": 6518,
      "Ġà§§à§¦à§®": 6519,
      "agar": 6520,
      "Ġà¦¸à¦¬à¦®": 6521,
      "Ġvir": 6522,
      "Ġpray": 6523,
      "Ġaff": 6524,
      "Ġà¦Ĩà¦²à¦Ĺ": 6525,
      "timer": 6526,
      "à§ĩâĢĻ,": 6527,
      "Ġyoutube": 6528,
      "à´µà´": 6529,
      "uran": 6530,
      "Ġà¤ľ": 6531,
      "à¦¬à¦ªà¦°": 6532,
      "à§¯à§©": 6533,
      "jquery": 6534,
      "Ġà¦¸à¦ĵà¦¦": 6535,
      "à¤ļ": 6536,
      "à¦¼à§ĩ?": 6537,
      "di": 6538,
      "clone": 6539,
      "à¦¸à¦ıà¦¨à¦ıà¦®à¦ıà¦ķ": 6540,
      "Ġà¦Ĩà¦ĩà¦¬": 6541,
      "Ġà¦«à¦²à¦ķ": 6542,
      ".âĢĿ": 6543,
      "kr": 6544,
      "Ġmot": 6545,
      "'+": 6546,
      "à¦ĵà¦¸à¦¹": 6547,
      "Ġà§§à§¯à§ªà§®": 6548,
      "Ġba": 6549,
      "ĠÙĪØ§ÙĦ": 6550,
      "ione": 6551,
      "Ġstop": 6552,
      "à¦ªà¦¨à¦ķ": 6553,
      "à´°": 6554,
      "Ġbelie": 6555,
      "Ġà¦īà¦ªà¦¡": 6556,
      "print": 6557,
      "iction": 6558,
      "Ġresearch": 6559,
      "à¦¾.)-": 6560,
      "Ġà¦ħà¦ľà¦¸": 6561,
      "you": 6562,
      "à¦°à¦¬à¦§": 6563,
      "Ġgod": 6564,
      "Ġà¦Ĩà¦¬à¦°à¦£": 6565,
      "Ġcomputer": 6566,
      "mt": 6567,
      "Ġameric": 6568,
      "mc": 6569,
      "à¦¥à¦ĩ": 6570,
      "Ġà¦Ĺà¦¹à¦¨": 6571,
      "Ġà¦Ĩà¦°à¦¸": 6572,
      "Ġislamic": 6573,
      "more": 6574,
      "ĠâĪ": 6575,
      "ret": 6576,
      "ball": 6577,
      "endto": 6578,
      "à¦£à¦¬à¦¨": 6579,
      "Ġroad": 6580,
      "Ġà¦«à¦£": 6581,
      "Ġà¦¨à¦ķà§°": 6582,
      "à®¾": 6583,
      "Ġash": 6584,
      "Ġà§§à§¬à§ª": 6585,
      "Ġroy": 6586,
      "Ġspecial": 6587,
      "hn": 6588,
      "lete": 6589,
      "Ġbetween": 6590,
      "/?": 6591,
      "Ġà¤ħ": 6592,
      "à¦ľà¦Ĺà¦¤": 6593,
      "ising": 6594,
      "logies": 6595,
      "à¦¼/": 6596,
      "Ġhref": 6597,
      "Ġdar": 6598,
      "Ġscience": 6599,
      "ila": 6600,
      "way": 6601,
      "Ġpakistan": 6602,
      "à§¯à§§": 6603,
      "Ġà¦ıà¦ĩà¦¡à¦¸": 6604,
      "Ġà¦ħà¦¥à¦°": 6605,
      "à¦¬à¦¸à¦¨": 6606,
      "à¦·à¦¬à¦°à¦£": 6607,
      "Ġà¦ħà¦²à¦Ĩà¦īà¦Ł": 6608,
      "Ġà¦ľà¦¨à¦®à¦¨": 6609,
      "à¦ļà¦¤à¦²": 6610,
      "Ġà¦Ĺà¦¤à¦¬à¦Ľà¦°": 6611,
      "Ġunited": 6612,
      "Ġà¦¸à¦®à¦ªà¦°": 6613,
      "Ġsocial": 6614,
      "à´±": 6615,
      "Ġ42": 6616,
      "à¦¨à¦¦à¦£": 6617,
      "Ġtalk": 6618,
      "Ġprov": 6619,
      "Ġà¦Ŀà¦²": 6620,
      "à¦°à¦¨à¦¤": 6621,
      "Ġgirls": 6622,
      "oggle": 6623,
      "ÙıØĮ": 6624,
      "eries": 6625,
      "Ġà¦Ĩà¦°à¦ķ": 6626,
      "à¦¦à¦°à¦ķ": 6627,
      "Ġfamily": 6628,
      "à§Ģ.": 6629,
      "Ġcore": 6630,
      "Ġ110": 6631,
      "ustom": 6632,
      "timeout": 6633,
      "Ġcollege": 6634,
      "Ġdefin": 6635,
      "\\)": 6636,
      "Ġchak": 6637,
      "ðŁĺ": 6638,
      "frac": 6639,
      "Ġnar": 6640,
      "atimes": 6641,
      "head": 6642,
      "Ġà¦Ĺà¦£à¦¬": 6643,
      "sch": 6644,
      "Ġà¦¡à¦°": 6645,
      "ird": 6646,
      "à§į-": 6647,
      "à§ģâĢĺ": 6648,
      "à¦ıà¦²à¦¸": 6649,
      "Ġthings": 6650,
      "Ġsexy": 6651,
      "à¦²à¦¤à¦¦": 6652,
      "Ġcontinue": 6653,
      "Ġdisqu": 6654,
      "Ġprom": 6655,
      "Ġpharm": 6656,
      "...-": 6657,
      "à¦¹à¦¨à¦¬": 6658,
      "ots": 6659,
      "Ġà¦¬à¦¦à¦¨": 6660,
      "à¦Ĩà¦¡": 6661,
      "><": 6662,
      "Ġà¦°à¦®à¦¯": 6663,
      "Ġ(@": 6664,
      "Ġà¦¯à¦¬": 6665,
      "à¦¿à¦Ĥà¦ĥ": 6666,
      "abe": 6667,
      "Ġhtml": 6668,
      "xxxxxxxx": 6669,
      "bit": 6670,
      "à¦®à¦Ĺà¦¡": 6671,
      "Ġarticles": 6672,
      "à¦°à¦£à¦Ĺ": 6673,
      "scrolltop": 6674,
      "Ġarticleà¦ª": 6675,
      "ittle": 6676,
      "Ġà¦Ĩà¦¸à¦¨à¦Ł": 6677,
      "Ġpal": 6678,
      "kha": 6679,
      "Ġà¦ħà¦¸à¦ļ": 6680,
      "offset": 6681,
      "Ġà¦ĩà¦¨à¦Ł": 6682,
      "Ġà§§à§§à§¬": 6683,
      "Ġ150": 6684,
      "sub": 6685,
      "ikh": 6686,
      "ining": 6687,
      "Ġà§§à§¦à§¨": 6688,
      "Ġje": 6689,
      "Ġprevloc": 6690,
      "Ġali": 6691,
      "Ġfa": 6692,
      "à¦¦à¦ľ": 6693,
      "Ġyes": 6694,
      "Ġâĺħ": 6695,
      "Ġassam": 6696,
      "Ġbody": 6697,
      "Ġboobs": 6698,
      "à¦Łà¦Ĺà¦²": 6699,
      "à¦£à¦ªà¦¦à¦ķ": 6700,
      "orized": 6701,
      "à¦ħà¦ľ": 6702,
      "Ġmuslim": 6703,
      "à¦¯à¦ŀ": 6704,
      "Ġquality": 6705,
      "Ġlow": 6706,
      "à§°à¦Ń": 6707,
      "each": 6708,
      "stoggle": 6709,
      "à¦¬à¦¨à¦§": 6710,
      "Ġdisqustoggle": 6711,
      "Ġà§§à§§à§Ń": 6712,
      "à¦²à¦ķà¦ª": 6713,
      "Ø¤": 6714,
      "Ġà¦Ĩà¦¯à¦®": 6715,
      "640": 6716,
      "phone": 6717,
      "480": 6718,
      "Ġka": 6719,
      "Ġà§§à§¯à§¬à§¯": 6720,
      "à§ĩ(": 6721,
      "Ġà§§à§¯à§®à§®": 6722,
      "à¦ıà¦¸à¦ıà¦²": 6723,
      "Ġprin": 6724,
      "Ġcitizen": 6725,
      "Ġpos": 6726,
      "empty": 6727,
      "à¦¸à¦®à¦¸": 6728,
      "Ġinterest": 6729,
      "à§Ģ;": 6730,
      "à¦ıà¦«à¦¸": 6731,
      "Ġnice": 6732,
      "Ġ55": 6733,
      "Ġà¦ıà¦ķà¦¤à¦°à¦«": 6734,
      "ttr": 6735,
      "à¦ĩà¦ľà¦ķ": 6736,
      "à¦ĩà¦²à¦Ĺ": 6737,
      "Ġland": 6738,
      "Ġpict": 6739,
      "image": 6740,
      "à§ĩ),": 6741,
      "à§®à§©": 6742,
      "ÙĬÙĦ": 6743,
      "Ġkeep": 6744,
      "button": 6745,
      "Ġfire": 6746,
      "Ġgeneral": 6747,
      "Ġà¦ıà¦«à¦¸": 6748,
      "}{": 6749,
      "à¦°à¦ķà¦¨": 6750,
      "Ð±": 6751,
      "hh": 6752,
      "à¦ªà¦°à¦ķ": 6753,
      "ÑĢÐ°": 6754,
      "Ġà§§à§¯à§®à§¨": 6755,
      "à¦Ĺà¦¨à¦¸": 6756,
      "Ġà¦ħà¦¸à¦¤": 6757,
      "Ġsrc": 6758,
      "à¦Łà¦ķà¦®à¦ķ": 6759,
      "à¦·à¦°à¦¤": 6760,
      "Ġà¦¸à¦°à¦ĵà¦¯": 6761,
      "ants": 6762,
      "Ġà¦Ĩà¦¸à¦¸": 6763,
      "Ġà¤Ń": 6764,
      "Ġteam": 6765,
      "Ġpolice": 6766,
      "pan": 6767,
      "à§°à¦§": 6768,
      "Ġcode": 6769,
      "à§į...": 6770,
      "yn": 6771,
      "à¦°à¦ªà¦°à¦ĩ": 6772,
      "Ġimages": 6773,
      "Ġhuman": 6774,
      "Ġà¦ıà¦²à¦ĩà¦¡": 6775,
      "enn": 6776,
      "cing": 6777,
      "ards": 6778,
      "à¦¯à¦²": 6779,
      "apan": 6780,
      "hamster": 6781,
      "Ġmusic": 6782,
      "Ġnon": 6783,
      "Ġà¦¸à¦°à¦·": 6784,
      "aman": 6785,
      "Ġà¦ļà¦ĵà¦¡": 6786,
      "Ġà¦ıà¦ķà¦ĩà¦¸": 6787,
      "Ġà¦¤à¦°à¦ķ": 6788,
      "à§Ģ(": 6789,
      "Ġà¦ķà¦¦à¦®": 6790,
      "à¦ĩà¦ªà¦°": 6791,
      "Ġà¦ľà¦¨à¦ĩ": 6792,
      "Ġà¦¤à¦ķà¦®": 6793,
      "Ġà¦¨à¦²à¦ķ": 6794,
      "Ġquestion": 6795,
      "à§ĭà¥¤âĢĿ": 6796,
      "à¦¬à¦²à¦ĩ": 6797,
      "à¦¨à¦Łà¦¨": 6798,
      "leave": 6799,
      "hind": 6800,
      "Ġcase": 6801,
      "à¦¸à¦ĺ": 6802,
      "Ġ43": 6803,
      "Ġà¦Ŀà¦²à¦®à¦²": 6804,
      "ÙĥØªØ§Ø¨": 6805,
      "Ġà¦Ĩà¦²à¦®à¦ķ": 6806,
      "Ġà§§à§¦à§¬": 6807,
      "Ġuk": 6808,
      "Ġà¦°à¦ľà¦¬": 6809,
      "redit": 6810,
      "à¦Ĩà¦°à¦ıà¦®": 6811,
      "twit": 6812,
      "à¦¹à¦ªà¦°": 6813,
      "Ġà§§à§¯à§®à§¯": 6814,
      "Ġorgan": 6815,
      "Ġà§§à§¯à§®à§§": 6816,
      "Ġarticleà¦®": 6817,
      "730": 6818,
      "ja": 6819,
      "lit": 6820,
      "Ġeffect": 6821,
      "à§ĥ-": 6822,
      "Ġà¦Ĩà¦²à¦ľ": 6823,
      "à§ĩà¥¤à¥¤": 6824,
      "à¦Ĺà¦¯": 6825,
      "Ġtweet": 6826,
      "Ġcup": 6827,
      "Ġà¦¬à¦¸à¦¤à¦¬": 6828,
      "buy": 6829,
      "à§®à§¬": 6830,
      "à¦¸à¦ķà¦°": 6831,
      "à¦Ĺà¦¤à¦¦": 6832,
      "Ġbuild": 6833,
      "Ġ??????": 6834,
      "\"]').": 6835,
      "ments": 6836,
      "^=\"": 6837,
      "Ġtechnologies": 6838,
      "Ġ2007": 6839,
      "à¦ªà¦§": 6840,
      "conomics": 6841,
      "cle": 6842,
      "à¦ıà¦¸à¦ı": 6843,
      "Ġà¦ĩà¦ķà¦°": 6844,
      "Ġput": 6845,
      "':": 6846,
      "Ġà¦ıà¦ĸà¦¤": 6847,
      "Ġà§§à§§à§ª": 6848,
      "Ġfucked": 6849,
      "Ġclub": 6850,
      "à¦·à¦£à¦¶": 6851,
      "ides": 6852,
      "ĠÑģ": 6853,
      "à§©à§¦à§¦": 6854,
      "Ġà§ªà§«à§¦": 6855,
      "Ġà¦ıà¦¸à¦ı": 6856,
      "oman": 6857,
      "Ġfont": 6858,
      "à§İà¦ĩ": 6859,
      "Ġconst": 6860,
      "dfpadrhs": 6861,
      "Ġà¦¹à¦īà¦ķ": 6862,
      "à§ªà§¦à§¦": 6863,
      "Ġja": 6864,
      "Ġà¦®à¦¦à¦¦": 6865,
      "Ġhack": 6866,
      "à¦ļà¦²à¦Ł": 6867,
      "Ġà¤¦": 6868,
      "can": 6869,
      "à¦ĩà¦Łà¦ĵà¦¯": 6870,
      "ko": 6871,
      "Ð·": 6872,
      "vert": 6873,
      "quo": 6874,
      "à¦ľà¦®à¦¹à¦²": 6875,
      "mission": 6876,
      "Ġdinajpur": 6877,
      "Ð¿": 6878,
      "Ġà¦ħà¦ªà¦¹à¦°à¦£à¦ķ": 6879,
      "à¦¨à¦®à¦£": 6880,
      "Ġà§§à§¯à§®à§©": 6881,
      "à¦Ĩà¦¨à¦¨": 6882,
      "&#": 6883,
      "Ġà¦¨à¦«à¦²": 6884,
      "à¦¯à¦¸à¦Ń": 6885,
      "xxx": 6886,
      "Ġà§§à§¦à§ª": 6887,
      "men": 6888,
      "à¦ĩà¦¡à¦²": 6889,
      "Ġsoftware": 6890,
      "à§ĩ....": 6891,
      "Ġsale": 6892,
      ",...": 6893,
      "eds": 6894,
      "urren": 6895,
      "à¦ļà¦ķà¦¦": 6896,
      "Ġà¦ıà¦ĩà¦ļà¦Ł": 6897,
      "ists": 6898,
      "youtube": 6899,
      "Ġà¦ıà¦¸à¦ĩà¦ĵ": 6900,
      "Ġà§ªà§¦à§¦à§¦": 6901,
      "à¦¬à¦¶à¦ķ": 6902,
      "à¦¡à¦¹": 6903,
      "à¦Ĥà¦ĥ": 6904,
      "Ġlock": 6905,
      "Ġà¦ķà¦¸à¦¬": 6906,
      "ĠØº": 6907,
      "Ġdeath": 6908,
      "Ġteach": 6909,
      "Ø§Ùģ": 6910,
      "Ġà¦«à¦²à¦¶": 6911,
      "Ġà¦¸à¦¦à¦°à¦ĺ": 6912,
      "Ġà¦Ĩà¦ĩà¦¨à¦¸": 6913,
      "Ġà¦²à¦ĺ": 6914,
      "Ġà§§à§ªà§ªà§¦": 6915,
      "à¦¡à¦¸à¦¹": 6916,
      "ica": 6917,
      "à¦²à¦¹à¦ľ": 6918,
      "à¦¹à¦ĩ": 6919,
      "à¦ĩà¦ŀ": 6920,
      "à¦¬à¦ļà¦°": 6921,
      "ito": 6922,
      "à¦¡à¦īà¦ĩ": 6923,
      "iya": 6924,
      "à¦ķà¦¸à¦¬à¦ľ": 6925,
      "Ġmac": 6926,
      "Ġà§¨à§¦à§©à§¦": 6927,
      "Ġlittle": 6928,
      "à§ĢâĢĿ": 6929,
      "Ġdist": 6930,
      "Ġgb": 6931,
      "Ġà¦ľà¦²à¦¦à¦¸": 6932,
      "Ġà¦Ĺà¦Ĺ": 6933,
      "à¦łà¦Ĺà¦¡": 6934,
      "Ġwel": 6935,
      "Ġrest": 6936,
      "à§®à§¯": 6937,
      "à¦¤à¦ķà¦¤": 6938,
      "Ġà¦ıà¦ķà¦ķà¦Ń": 6939,
      "Ġquick": 6940,
      "Ġà§°à¦ķ": 6941,
      "à§®à§¨": 6942,
      "cel": 6943,
      "Ġà§§à§¦à§©": 6944,
      "Ġà¦°à¦Ł": 6945,
      "Ġtre": 6946,
      "à¦¤à¦Ńà¦°": 6947,
      "Ġmr": 6948,
      "Ġcampus": 6949,
      "Ġrespons": 6950,
      "Ġà§§à§¯à§Ńà§¯": 6951,
      "abad": 6952,
      "à¦ľà¦¨à¦Ĺà¦°": 6953,
      "Ġà¦Ĩà¦Ĺà¦°à¦¤à¦²": 6954,
      "Ġ49": 6955,
      "Ġà¦ıà¦ķà¦§à¦°à¦¨": 6956,
      "Ġà¦ķà¦®à¦¨à¦ĵà¦¯": 6957,
      "à¦°à¦®à¦ķ": 6958,
      "ography": 6959,
      "Ġnorth": 6960,
      "iye": 6961,
      "à¦·à¦£à¦Ĺ": 6962,
      "âĻ¦": 6963,
      "Ġprofess": 6964,
      "Ġapps": 6965,
      "ĠØ¢": 6966,
      "Ġconsole": 6967,
      "ets": 6968,
      "Ġtk": 6969,
      "à´¤": 6970,
      "Ġà¦īà¦ªà¦®": 6971,
      "cb": 6972,
      "itch": 6973,
      "ency": 6974,
      "Ġsomething": 6975,
      "fig": 6976,
      "Ġnight": 6977,
      "Ġà§§à§§à§©": 6978,
      "je": 6979,
      "Ġfoot": 6980,
      "à¦²à¦Ĺà¦°": 6981,
      "à§įà¥¤": 6982,
      "à¦§à¦¡": 6983,
      "Ġà¦Ĩà¦īà¦Łà¦²": 6984,
      "à¦ħà¦¸à¦®": 6985,
      "à¦ªà¦¨à¦¬": 6986,
      "Ġà¦®à¦¹à¦¤": 6987,
      "Ġ'';": 6988,
      "rap": 6989,
      "Ġmean": 6990,
      "ering": 6991,
      "band": 6992,
      "true": 6993,
      "ole": 6994,
      "ailable": 6995,
      "à§®à§Ń": 6996,
      "categorized": 6997,
      "Ġflo": 6998,
      "Ġmak": 6999,
      "à¦§à¦ªà¦°": 7000,
      "à¦¬à¦¹à¦°": 7001,
      "à¦°à¦¤à¦¤": 7002,
      "ipe": 7003,
      "à¦¶à¦ļ": 7004,
      "Ġà¦¥à¦²": 7005,
      "Ġmaj": 7006,
      "Ġ44": 7007,
      "à¦®à¦ķà¦Ń": 7008,
      "Ġà§§à§Ńà§¦": 7009,
      "Ġà¦Ĩà¦ļà¦°à¦£à¦¬": 7010,
      "Ġà¦ıà¦²à¦¬": 7011,
      "à¦°à¦¤à¦¨": 7012,
      "Ġchittagong": 7013,
      "Ġvoice": 7014,
      "ills": 7015,
      "à¦¹à¦¨à¦ª": 7016,
      "Ġà¦®à§°": 7017,
      "Ġmodi": 7018,
      "Ġjon": 7019,
      "Ġbal": 7020,
      "à¦¦à¦ķà¦¸à¦¹": 7021,
      "video": 7022,
      "son": 7023,
      "à¦²à¦¤à¦ķ": 7024,
      "Ġ......": 7025,
      "Ġà¦®à¦ľà¦¨": 7026,
      "à¦¡à¦¡": 7027,
      "dra": 7028,
      "à¦ĩà¦ľà¦¨à¦ķ": 7029,
      "Ġà¦ħà¦Łà¦²": 7030,
      "Ġà¦Ŀà¦°à¦¨": 7031,
      "cription": 7032,
      "Ġà¦®à¦¨à¦¨": 7033,
      "rad": 7034,
      "Ġang": 7035,
      "Ġminister": 7036,
      "à¦¾âĢĿà¥¤": 7037,
      "Ġgame": 7038,
      "Ġà¤µ": 7039,
      "Ġà¦Ĩà¦¦à¦¤": 7040,
      "Ġsomoynews": 7041,
      "à¦¾à¦ĥ)-": 7042,
      "Ġ47": 7043,
      "ussy": 7044,
      "leas": 7045,
      "à¦¸à¦ķà¦²à§°": 7046,
      "Ġà¦ħà¦¦à¦®": 7047,
      "à¤Ń": 7048,
      "à§®à§ª": 7049,
      "Ġà§§à§§à§®": 7050,
      "Ġà¦¦à¦®à¦ķà¦²": 7051,
      "Ġpriv": 7052,
      "-'": 7053,
      "ullah": 7054,
      "Ġà¦®à¦Ĺà¦ľ": 7055,
      "Ġà¦ªà¦¥à¦¸à¦Ń": 7056,
      "àµģ": 7057,
      "Ġms": 7058,
      "tf": 7059,
      "à¦§à¦¯": 7060,
      "à¦¦à¦¬à¦ª": 7061,
      "Ġinstit": 7062,
      "Ġcame": 7063,
      "Ġà§§à§¯à§®à§Ń": 7064,
      "Ġà¦Ĺà¦£à¦Ń": 7065,
      "Ġsangbad": 7066,
      "{{": 7067,
      "Ġà¦ľà¦®à¦ķ": 7068,
      "Ġà¦¬à¦²à¦Ł": 7069,
      "Ġà¦¦à¦°à¦ªà¦¤à¦¨": 7070,
      "Â¬": 7071,
      "à¦°à¦¹à¦¸": 7072,
      "open": 7073,
      "Ġà§§à§¯à§«à§¦": 7074,
      "Ġà¦ıà¦ķà¦¦à¦®à¦ĩ": 7075,
      "Ûģ": 7076,
      "à¦īà¦¦à¦ķ": 7077,
      "ouch": 7078,
      "à¦ªà¦¨à¦Ĺà¦°": 7079,
      "à¦Ĩà¦°à¦Ĩà¦ĩ": 7080,
      "Ġmur": 7081,
      "blogspot": 7082,
      "Ġteen": 7083,
      "à¦§à¦ĩ": 7084,
      "à¦§à¦¸à¦¹": 7085,
      "Ġpan": 7086,
      "Ġess": 7087,
      "Ġà¦¤à¦ĵà¦¬": 7088,
      "à¦ıà¦¸à¦ķ": 7089,
      "à¦ıà¦Ĺ": 7090,
      "Ø¡": 7091,
      "à§ĩà¥¤...": 7092,
      "Ġeach": 7093,
      "à¦ĸà¦ķà¦°": 7094,
      "à§ĩà§ĩ": 7095,
      "Ġà¦ľà¦¨à¦ªà¦¥": 7096,
      "à¦¨à¦¸à¦ķà¦²": 7097,
      "false": 7098,
      "à¦ķà¦¸à¦®": 7099,
      "las": 7100,
      "##": 7101,
      "Ġtele": 7102,
      "scri": 7103,
      "101": 7104,
      "à¦¤à¦£": 7105,
      "à¦°à¦®à¦¹": 7106,
      "?\"": 7107,
      "Ġà§§à§¯à§®à§«": 7108,
      "Ġdifferent": 7109,
      "à¦§à¦ķà¦°à¦£": 7110,
      "à±ģ": 7111,
      "ufact": 7112,
      "Ġà¦¬à¦īà¦¯": 7113,
      "Ġmax": 7114,
      "ily": 7115,
      "Ġà¦ľà¦¨à¦¬": 7116,
      "Ġcompany": 7117,
      "ek": 7118,
      "pert": 7119,
      "ification": 7120,
      "à§®à§§": 7121,
      "vw": 7122,
      "à¦¨à¦īà¦¦": 7123,
      "Ġà§§à§¦à§Ń": 7124,
      "à¦¥à¦°à¦ĺ": 7125,
      "à¦Ĩà¦ĩà¦ıà¦®": 7126,
      "Ġbanerjee": 7127,
      "Ġgetting": 7128,
      "Ġà¦ĩà¦Ńà¦Ł": 7129,
      "urity": 7130,
      "Ġà¦Ĩà¦Ĺà¦¬": 7131,
      "Ġà¦ĵà¦¸à¦¬": 7132,
      "Ġtim": 7133,
      "pol": 7134,
      "Ġà¦Ńà§°": 7135,
      "Ġmem": 7136,
      "ora": 7137,
      "Ġà¦ıà¦®à¦°": 7138,
      "Ġà¦ĩà¦®à¦¦": 7139,
      "âĺħ": 7140,
      "à¦°à¦£à¦ĵ": 7141,
      "à¦¼à§Ģ-": 7142,
      "Ġporno": 7143,
      "Ġ46": 7144,
      "Ñĩ": 7145,
      "aya": 7146,
      "Ġarticleà¦ķ": 7147,
      "Ġkr": 7148,
      "ahar": 7149,
      "brain": 7150,
      "Ġà§§à§¯à§¬à§¦": 7151,
      "afil": 7152,
      "Ġà¦¨à¦°à¦ķ": 7153,
      "Ġglobal": 7154,
      "edu": 7155,
      "ĠØĮ": 7156,
      "></": 7157,
      "Ġà¦Ĩà¦ªà¦¸": 7158,
      "à¦¼âĢĻà¥¤": 7159,
      "à¦¤à¦¨à¦Ĺ": 7160,
      "Ġenjoy": 7161,
      ")(": 7162,
      "Ġà§¨à§¨à§¦": 7163,
      "Ġcharact": 7164,
      "à¦§à¦Ĺà¦®": 7165,
      "Ġcoronavirus": 7166,
      "Ġjam": 7167,
      "Ġà¦Ĩà¦¬à¦Ľ": 7168,
      "Ġjournalism": 7169,
      "Ġve": 7170,
      "Ġprocess": 7171,
      "à³": 7172,
      "];": 7173,
      "à¦·à¦¹": 7174,
      "href": 7175,
      "ÃĹ": 7176,
      "à¦¼'": 7177,
      "Ġtoolbar": 7178,
      "xy": 7179,
      "Ġà§§à§¯à§Ńà§®": 7180,
      "Ġà§§à§ªà§¨à§©": 7181,
      "Ġà§§à§¯à§Ńà§¬": 7182,
      "eta": 7183,
      "cox": 7184,
      "Ġthu": 7185,
      "location": 7186,
      "Ġstudy": 7187,
      "à¦¬à¦ķà¦²": 7188,
      "va": 7189,
      "key": 7190,
      "Ġà¦ļà¦¨à§°": 7191,
      "à¦ħà¦¶": 7192,
      "à¦¼âĢĿ": 7193,
      "Ġaust": 7194,
      "Ġà§§à§§à§¯": 7195,
      "cor": 7196,
      "à¦°à¦¸à¦«": 7197,
      "bu": 7198,
      "Ġmedical": 7199,
      "Ġtour": 7200,
      "scription": 7201,
      "à¦ĩà¦®à¦¨": 7202,
      "ries": 7203,
      "à¦¼à¦¾...": 7204,
      "Ġà¦īà§İà¦¸à¦¬à¦®": 7205,
      "±ÙĦ": 7206,
      "Ġcustom": 7207,
      "--------------------------------": 7208,
      "unt": 7209,
      "Ġcongress": 7210,
      "Ġà¦°à¦ĺ": 7211,
      "Ġblock": 7212,
      "comm": 7213,
      "Ġà¦¹à¦ķà¦ķ": 7214,
      "Ġsad": 7215,
      "à¦ħà¦¬à¦¸": 7216,
      "ision": 7217,
      "à¦¼à§ĩ)": 7218,
      "Ġhr": 7219,
      "à¦®à¦¸à¦ľ": 7220,
      "à¦łà¦ķà¦ķ": 7221,
      "à¦ªà¦¸à¦¹": 7222,
      "los": 7223,
      "iter": 7224,
      "à¦Ĩà¦Ł": 7225,
      "Ġà¦ļà¦°à¦®à¦ªà¦¨": 7226,
      "Ġoper": 7227,
      "ief": 7228,
      "Ġusing": 7229,
      "à¦ĵà¦²à¦ľ": 7230,
      "Ġrights": 7231,
      "Ġpione": 7232,
      "Ġà¦¸à¦¨à¦¦à¦ªà¦¤": 7233,
      "Ġà¦ĩà¦īà¦ıà¦¸à¦¬": 7234,
      "à¦Ļà¦°": 7235,
      "today": 7236,
      "Ġhair": 7237,
      "à¦ıà¦«à¦ª": 7238,
      "Ġà§§à§¯à§¬à§¨": 7239,
      "Ġà§§à§¦à§¯": 7240,
      "Ġbox": 7241,
      "Ġmt": 7242,
      "Ġà¦¸à¦¬à¦ĸ": 7243,
      "vr": 7244,
      "Ġà¦¸à¦°à¦«à¦°": 7245,
      "Ġà¦®à¦¥": 7246,
      "ovid": 7247,
      "à¥¤)": 7248,
      "Ġmult": 7249,
      "à¦£à¦¬à¦Ļ": 7250,
      "shahi": 7251,
      "Ġbrand": 7252,
      "Ġ120": 7253,
      "à§İà¦¬": 7254,
      "Ġsure": 7255,
      "à¦¬à¦¤à¦ĩ": 7256,
      "Ġface": 7257,
      "à¦²à¦¨à¦®": 7258,
      "Ġgold": 7259,
      "ference": 7260,
      "Ġshop": 7261,
      "Ġà¦¦à¦²à¦¨": 7262,
      "à¦¶à¦¸à¦®": 7263,
      "à¦Ĩà¦ĩà¦ķ": 7264,
      "Ġà¦¦à¦®à¦ķ": 7265,
      "Ġavailable": 7266,
      "à¦Ĺà¦Ńà¦¬à¦¨": 7267,
      "Ġthree": 7268,
      "à¦¤à¦¸à¦®": 7269,
      "Ġà¦®à¦ł": 7270,
      "Ġbazar": 7271,
      "Ġtom": 7272,
      "ulation": 7273,
      "Ġcourt": 7274,
      "Ã³": 7275,
      "Ġemp": 7276,
      "à¦°à¦²à¦¸": 7277,
      "adem": 7278,
      "à¦ĺà¦¶": 7279,
      "pop": 7280,
      "Ġà¦Ĩà¦²à¦Ł": 7281,
      ",'": 7282,
      "à¦ķà¦¶à¦ª": 7283,
      "Ġà¦ªà¦¦à¦¸": 7284,
      "istic": 7285,
      "$('.": 7286,
      "Ġexper": 7287,
      "à¦ıà¦®à¦ıà¦ĩà¦ļ": 7288,
      "Ġkon": 7289,
      "ply": 7290,
      "Ġà¦¶à¦°à¦¬à¦¤": 7291,
      "Ġà¦ļà¦¸": 7292,
      "Ġ.....": 7293,
      "Ġà§§à§¨à§©": 7294,
      "ump": 7295,
      "à¦¾*": 7296,
      "Ġanother": 7297,
      "à¦¾?âĢĻ": 7298,
      "uploads": 7299,
      "world": 7300,
      "Ġcorre": 7301,
      "Ġhope": 7302,
      "cm": 7303,
      "Ġsongbad": 7304,
      "Ġearth": 7305,
      "à¦§à¦¨à¦¶": 7306,
      "Ġmiss": 7307,
      "gl": 7308,
      "instagram": 7309,
      "Ġà¦ľà¦¨à¦ķà¦£": 7310,
      "Ã«": 7311,
      "Ġà¦¯à¦ľ": 7312,
      "Ġru": 7313,
      "Ġdom": 7314,
      "Ġpioneer": 7315,
      "vers": 7316,
      "Ġà¦®à¦Łà¦°": 7317,
      "dy": 7318,
      "à¦ĩà¦ªà¦²": 7319,
      "ging": 7320,
      "Ġmodel": 7321,
      "Ġà¦ħà¦²à¦Ļ": 7322,
      "Ġband": 7323,
      "Ġà¦ªà¦¥à¦Ł": 7324,
      "Ġà¦¡à¦Łà¦ķà¦®à¦ķ": 7325,
      "Ġmanag": 7326,
      "Ġà¦¸à¦¹à¦¨": 7327,
      "à§°à§±": 7328,
      "Ġà§§à§«à§¦à§¦": 7329,
      "Ġposs": 7330,
      "Ġbbc": 7331,
      "Ġà¦ıà¦ıà¦¸à¦ª": 7332,
      "\\\"\\": 7333,
      "Ġ99": 7334,
      "Ġà¦¶à¦¤à¦°": 7335,
      "à¦¾..": 7336,
      "Ġyoung": 7337,
      "Ġofficial": 7338,
      "à¦Īà¦¶": 7339,
      "Ġà¦¸à¦¹à¦§à¦°": 7340,
      "à¦¾à¦ĥ-": 7341,
      "Ġfem": 7342,
      "urrency": 7343,
      "xxxxxxxxà¦«": 7344,
      "hum": 7345,
      "value": 7346,
      "à¦°à¦«à¦ķ": 7347,
      "à¦łà¦Ń": 7348,
      "Ġhoy": 7349,
      "Ġà¦ħà¦¸à¦Ļ": 7350,
      "dom": 7351,
      "ä¸": 7352,
      "à¤Ľ": 7353,
      "Ġ\".": 7354,
      "Ġà¦ĵà¦Ĩà¦ĩà¦¸": 7355,
      "ior": 7356,
      "2010": 7357,
      "sf": 7358,
      "itted": 7359,
      "copyright": 7360,
      "à¦¨à¦¬à¦°": 7361,
      "Ġmind": 7362,
      "dition": 7363,
      "sun": 7364,
      "Ġ........": 7365,
      "Ġà¦¸à¦²à¦®à¦¨": 7366,
      "Ġmanufact": 7367,
      "Ġwhite": 7368,
      "à¦¨à¦Ĩà¦ªà¦¨": 7369,
      "ving": 7370,
      "watch": 7371,
      "à¦¨à¦ĵà¦Ĺ": 7372,
      "à¦§à¦¤à¦¨": 7373,
      "Ġpack": 7374,
      "Ġà¦ªà¦¦à¦Ł": 7375,
      "Ġactiv": 7376,
      "à¦«à¦«à¦°": 7377,
      "togram": 7378,
      "ÙĩÙħ": 7379,
      "à¦ĩà¦²à¦°": 7380,
      "Ġà¦®à¦¨à¦¤": 7381,
      "hd": 7382,
      "Ġir": 7383,
      "Ġà¦ĩà¦¬à¦¤": 7384,
      "obe": 7385,
      "à¦Ńà§±": 7386,
      "Ġrelig": 7387,
      "Ġà¦¬à¦¤": 7388,
      "autop": 7389,
      "Ġcult": 7390,
      "Ġ41": 7391,
      "Ġchud": 7392,
      "Ġ52": 7393,
      "Ġblo": 7394,
      "à¦ıà¦¯": 7395,
      "Ġà¦ıà¦¤à¦Ĺ": 7396,
      "à¦ªà¦¨à¦Ł": 7397,
      "à¦¾à§³": 7398,
      "ounc": 7399,
      "Ġload": 7400,
      "Ġchange": 7401,
      "à§ĭâĢĶ": 7402,
      "ĠÐ¿": 7403,
      "à¦¨à¦ħà¦Ń": 7404,
      "<=": 7405,
      "Ġ75": 7406,
      "à¦Ĩà¦°à¦ıà¦¸": 7407,
      "ÙĩØ§": 7408,
      "à¦¯à¦®à¦ķà¦°": 7409,
      "kar": 7410,
      "Ġà¦¬à¦ĸà¦¤": 7411,
      "sol": 7412,
      "Ġà¦ıà¦®à¦ıà¦¸": 7413,
      "à¦Ĺà¦¹": 7414,
      "à¦°à¦²à¦¯": 7415,
      "à¦·à¦ªà¦°": 7416,
      ":-": 7417,
      "ĠðŁĺĢ": 7418,
      "state": 7419,
      "Ġcock": 7420,
      "ji": 7421,
      "Ġà¦¸à¦¶": 7422,
      "icy": 7423,
      "economics": 7424,
      "Ġfeed": 7425,
      "à´¨": 7426,
      "Ġbur": 7427,
      "Ġà¦ıà¦ĩà¦ļà¦Ĩà¦ĩà¦Ń": 7428,
      "à¦ıà¦«à¦¡": 7429,
      "Ġà§§à§§à§¨": 7430,
      "Ġà¦ħà¦¨à¦¸": 7431,
      "Ġanswer": 7432,
      "wa": 7433,
      "vo": 7434,
      "Ġà¦Ŀà¦Ł": 7435,
      "à¦Ĩà¦¬à¦¦": 7436,
      ".-": 7437,
      "à¥Į": 7438,
      "Ġproblem": 7439,
      "\")": 7440,
      "à¦°à¦¹à¦¸à¦¨": 7441,
      "à¦Łà¦®à¦¹à¦²": 7442,
      "Ġhal": 7443,
      "Ġbirth": 7444,
      "à¦īà¦¨à¦ķ": 7445,
      "Ġ600": 7446,
      "Ġxhamster": 7447,
      "Ġà¦ħà¦¤à¦°": 7448,
      "Ġles": 7449,
      "à¦Ńà¦¶": 7450,
      "Ġï´": 7451,
      "Ġà¦ķà¦²à¦¸": 7452,
      "à¦¤à¦²à¦ķ": 7453,
      "iven": 7454,
      "comà¦¸à¦ķà¦²": 7455,
      "à¦Ĩà¦¬à¦°": 7456,
      "Ġà¦ĩà¦¨à¦Ĩà¦ªà¦¨": 7457,
      "englishà¦Ĩà¦®": 7458,
      "dn": 7459,
      "Ġbon": 7460,
      "admin": 7461,
      "Ġtell": 7462,
      "Ġnarr": 7463,
      "à¦£à¦®à¦¨": 7464,
      "Ġinclud": 7465,
      "365": 7466,
      "akh": 7467,
      "free": 7468,
      "Ġà¦īà§İà¦ĸ": 7469,
      "trading": 7470,
      "Ġhaving": 7471,
      "sup": 7472,
      "amay": 7473,
      "Ġos": 7474,
      "à¦ªà¦¨à¦¹": 7475,
      "Ġà¦īà§İà¦ķà¦£": 7476,
      "à¦ıà¦°à¦ªà¦°": 7477,
      "Ġapk": 7478,
      "Ġà¦®à¦°à¦ķ": 7479,
      "rat": 7480,
      "à¦Ĺà¦¸à¦®": 7481,
      "Ġspace": 7482,
      "Ġ.........": 7483,
      "Ġà§§à§©à§«": 7484,
      "Ġà¦ļà¦°à¦«": 7485,
      "Ġvai": 7486,
      "Ġuncategorized": 7487,
      "tl": 7488,
      "Ġspec": 7489,
      "Ġà§§à§¯à§¬à§¬": 7490,
      "à¦¾à¥¤\"": 7491,
      "à¦«à¦°à¦Ĺ": 7492,
      "Ġye": 7493,
      "Ġhon": 7494,
      "Ġpresent": 7495,
      "((": 7496,
      "Ġ^": 7497,
      "Ġà¦ħà¦²à¦ķ": 7498,
      "Ġmeet": 7499,
      "à¦¤à¦¨à¦Ń": 7500,
      "à§ĩà¥¤âĢĻâĢĻ": 7501,
      "à¦Ĺà¦£à¦ķ": 7502,
      "orial": 7503,
      "âĢĶâĢĶâĢĶâĢĶ": 7504,
      "Ġà¦Ĩà¦īà¦²": 7505,
      "à¦¤à¦ļà¦°": 7506,
      "à¦Ĺà¦°à¦ª": 7507,
      "mir": 7508,
      "Ġà¦ľà¦²à¦°": 7509,
      "à¦¨à¦ªà¦¨": 7510,
      "à¦ªà¦¨à¦²à¦Ĺ": 7511,
      "à¦£à¦ļ": 7512,
      "combikroy": 7513,
      "à¦Łenglishà¦Ĩà¦®": 7514,
      "ney": 7515,
      "à¦ħà¦Ł": 7516,
      "Ġseries": 7517,
      "Ġà¦īà§İà¦ķà¦°": 7518,
      "à¦ķà¦¦à¦®": 7519,
      "à¦¦à¦¬à¦¦à¦²": 7520,
      "Ġcolor": 7521,
      "Ġentry": 7522,
      "Ġparty": 7523,
      "à¦¾_": 7524,
      "Ġplus": 7525,
      "à¦°à¦¹à¦ķ": 7526,
      "yes": 7527,
      "à¦¸à¦¬à¦ľ": 7528,
      "orer": 7529,
      "Ġcum": 7530,
      "à®Ł": 7531,
      "à¦®à¦Ĩà¦ªà¦¨": 7532,
      "Ġà¦ĸà¦¯": 7533,
      "Ġsalts": 7534,
      "Ġà¦ľà§°": 7535,
      "\";": 7536,
      "à¦²à¦Ĺà¦«": 7537,
      "à¦Łà¦¶": 7538,
      "Ġà§§à§§à§§": 7539,
      "Ġsah": 7540,
      "Ġcla": 7541,
      "à®©": 7542,
      "Ġà¦ļà¦®à¦ķà¦ª": 7543,
      "à¦²à¦¨à¦Ĺà¦°": 7544,
      "à¦°à¦ĩà¦īà¦Ł": 7545,
      "à¦¯à¦Łà¦ķà¦°": 7546,
      "Ġà¦¹à¦°à¦£": 7547,
      "yl": 7548,
      "Ġajker": 7549,
      "chi": 7550,
      "à¦ĩà¦¨à¦ĺ": 7551,
      "car": 7552,
      "à¦°à¦¤à¦¬": 7553,
      "Ġaccess": 7554,
      "Ġà¦ļà¦ª": 7555,
      "Ġà´ķ": 7556,
      "à¦ľà¦ķà¦¦": 7557,
      "rest": 7558,
      "Ġapplication": 7559,
      "à¦¹à¦ķà¦ķ": 7560,
      "Ġhits": 7561,
      "à¦¦à¦ķà¦¸": 7562,
      "à¦£à¦ķà¦°": 7563,
      "Ġsaltside": 7564,
      "fri": 7565,
      "à¦¨bikroy": 7566,
      "Ġwriting": 7567,
      "à¦¨à¦°à¦ķà¦®": 7568,
      "à¦ªcopyright": 7569,
      "Ġà¦¹à¦²à¦°": 7570,
      "à¦¤à¦°bikroy": 7571,
      "à¦īà¦¬google": 7572,
      "Ġnowà¦®": 7573,
      "Ġeconom": 7574,
      "Ġmovies": 7575,
      "Ġroom": 7576,
      "tra": 7577,
      "à¤Ļ": 7578,
      "Ġà¦°à¦®à¦£": 7579,
      "Ġstock": 7580,
      "Ġà¦¤à¦¦à¦¬": 7581,
      "à¦ıà¦ĩà¦ļà¦ĵ": 7582,
      "Ġà¦Ĩà¦ĸà¦¡": 7583,
      "Ġequ": 7584,
      "à§¦à§§à§Ń": 7585,
      "oci": 7586,
      "Ġà¦¶à¦¹à¦°à¦¤à¦²": 7587,
      "à¦²à¦¸à¦®": 7588,
      "Ġasian": 7589,
      "sex": 7590,
      "à¦¨à¦¬à¦¸": 7591,
      "Ġà¦°à¦¦à¦¬à¦¦à¦²": 7592,
      "ede": 7593,
      "ledge": 7594,
      "Ġly": 7595,
      "Ġmach": 7596,
      "cast": 7597,
      "np": 7598,
      "à¤ł": 7599,
      "shan": 7600,
      "à¦¡à¦ľ": 7601,
      "Ġà¦¬à¦Łà¦¤à¦²": 7602,
      "Ġmuk": 7603,
      "Ġà¦ľà¦¨à¦ķà¦²": 7604,
      "Ġbitco": 7605,
      "path": 7606,
      "vision": 7607,
      "archive": 7608,
      "Â§Â": 7609,
      "tradingeconomics": 7610,
      "Ġboth": 7611,
      "Ġà¦ıà¦²à¦¡": 7612,
      "Ġnav": 7613,
      "latest": 7614,
      "Ġmember": 7615,
      "unch": 7616,
      "Ġmanufactur": 7617,
      "à§įà§į": 7618,
      "Ġà¦Ŀà¦ķà¦Ŀà¦ķ": 7619,
      "usd": 7620,
      "à¦Ĺà¦¶": 7621,
      "Ġà¦ĺà§°": 7622,
      "à¦ªà¦Ļ": 7623,
      "comp": 7624,
      "à¦ķà¦°à¦Ĺ": 7625,
      "à¦īà¦«à¦²": 7626,
      "à¦īà¦Łà¦¨": 7627,
      "à¦¥à¦ķà¦Ń": 7628,
      "à«": 7629,
      "Ġ×": 7630,
      "à¦¡à§°": 7631,
      "Ġdas": 7632,
      "Ġedit": 7633,
      "Ġappe": 7634,
      "Ġactually": 7635,
      "Ġà¦ıà¦ķà¦¨à¦ľà¦°": 7636,
      "à¦ĩà¦¸à¦°": 7637,
      "Ġpussy": 7638,
      "Ġanswers": 7639,
      "Ġà¦Ĩà¦¹à¦¤à¦°": 7640,
      "Ġturn": 7641,
      "ern": 7642,
      "dar": 7643,
      "400": 7644,
      "Ġà¦ħà¦¦à¦ķ": 7645,
      "à¦¨à¦ľà¦°": 7646,
      "Ġà¦Ńà¦°à¦¤": 7647,
      "gest": 7648,
      "à¦ĩà¦Łà¦ķ": 7649,
      "Ġcreat": 7650,
      "anda": 7651,
      "Ġpla": 7652,
      "Ġà¤Ĺ": 7653,
      "Ġappro": 7654,
      "Ġ65": 7655,
      "appendto": 7656,
      "Ġsince": 7657,
      "Ġà¦ĸà¦ª": 7658,
      "Ġà¦¬à¦¸à¦¤à¦ĺà¦°": 7659,
      "Ġà¦°à¦®à¦°à¦®": 7660,
      "Ġ56": 7661,
      "Ġattack": 7662,
      "Ġà¦Ĩà¦²à¦ķ": 7663,
      "Ġmill": 7664,
      "Ġthing": 7665,
      "à¦®à¦¦à¦ķ": 7666,
      "ination": 7667,
      "Ġtue": 7668,
      "Ġà¦ħà¦¨à¦Ń": 7669,
      "à¦¬à¦°à¦Ł": 7670,
      "jo": 7671,
      "Ġvid": 7672,
      "à¦Ĺà¦łà¦¨à¦ķ": 7673,
      "à¦²à¦ķà¦¨": 7674,
      "à¦¼à¦¾?": 7675,
      "Ġnetwork": 7676,
      "uff": 7677,
      "Ġgl": 7678,
      "à¦ķà¦®à¦²": 7679,
      "Ã£": 7680,
      "à¦«à¦ľ": 7681,
      "âĢĿ-": 7682,
      "Ġ53": 7683,
      "Ġâī£": 7684,
      "Ġgames": 7685,
      "Ġà¦¹à¦Łà¦²": 7686,
      "Ġà¦Ĩà¦¶à¦«": 7687,
      "Ġasked": 7688,
      "ised": 7689,
      "nar": 7690,
      "ĠØ²": 7691,
      "zt": 7692,
      "Ġgang": 7693,
      "ison": 7694,
      "Ġà¦ıà¦ŀ": 7695,
      "Ġà¦ªà¦¦à¦®à¦°": 7696,
      "à¦Ĩà¦°à¦ĩ": 7697,
      "à¦ľà¦ªà¦°": 7698,
      "Ġrub": 7699,
      "à´ķ": 7700,
      "Ġusa": 7701,
      "Ġothers": 7702,
      "Ġlin": 7703,
      "Ġà¦¡à¦¬à¦²": 7704,
      "à¦¦à¦ĸà¦²": 7705,
      "Ġbrit": 7706,
      "Ġà¦ıà¦²à¦ª": 7707,
      "clus": 7708,
      "Ġà¦«à¦²à¦®": 7709,
      "verval": 7710,
      "board": 7711,
      "Ø§Ùĥ": 7712,
      "Ġà¦¸à¦ļà¦°": 7713,
      "disqus": 7714,
      "à¦Ĩà¦ĩà¦Ĩà¦°": 7715,
      "Ġhos": 7716,
      "Ġger": 7717,
      "Ġà§§à§¯à§Ńà§Ń": 7718,
      "à¦·à¦ªà¦¥": 7719,
      "Ġà¦ĵà¦ªà¦°à¦ĩ": 7720,
      "mu": 7721,
      "à¦ıà¦ĩà¦ļà¦¸": 7722,
      "Ġà¦Ńà¦£": 7723,
      "Ġhor": 7724,
      "=âĢĿ": 7725,
      "istrict": 7726,
      "Ġà¦¤à¦²à¦¦": 7727,
      "Ġà§§à§¯à§¬à§Ń": 7728,
      "ondon": 7729,
      "Ġcommon": 7730,
      "à¦¥à¦¡": 7731,
      "Ġ54": 7732,
      "oud": 7733,
      "110": 7734,
      "Ġiii": 7735,
      "à¦Ľà¦®": 7736,
      "Ġà¦Ĩà¦ªà¦Ĺ": 7737,
      "Ġnatok": 7738,
      "à¦ĵà¦¬à¦¨": 7739,
      "âĻ¥âĻ¥": 7740,
      "Ġgre": 7741,
      "Ġassoci": 7742,
      "Ġcontrol": 7743,
      "Ġage": 7744,
      "Ġà§§à§¨à§¦à§¦": 7745,
      "Ø§ØŃ": 7746,
      "Ġà¦ķà¦¤à¦¬": 7747,
      "Ġà§§à§¯à§¦": 7748,
      "à§İà¦ľ": 7749,
      "ready": 7750,
      "ggle": 7751,
      "Ŀ¤": 7752,
      "Ġwish": 7753,
      "zy": 7754,
      "Ġga": 7755,
      "Ġà¦Ĺà¦ŀ": 7756,
      "Ġà¦²à¦£": 7757,
      "Ġà¦ıà¦ĩà¦°": 7758,
      "Ġaround": 7759,
      "idden": 7760,
      "Ġunderstand": 7761,
      "à¦Łà¦°à¦Ĺ": 7762,
      "Ġà¦¨à¦¬à¦¬à¦§": 7763,
      "Ġsecurity": 7764,
      "Ġà¦¯à¦®à¦ľ": 7765,
      "nn": 7766,
      "Ġsecre": 7767,
      "store": 7768,
      "Ġà¦ıà¦¸à¦ķà¦²": 7769,
      "à¦Łà¦¡": 7770,
      "ctions": 7771,
      "Ġarea": 7772,
      "Ġguys": 7773,
      "Ġref": 7774,
      "Ġtransl": 7775,
      "à¦¦à¦¯à¦¨": 7776,
      "à¤¥": 7777,
      "islam": 7778,
      "Ġrajshahi": 7779,
      "prot": 7780,
      "Ġà¦®à¦Ĺà¦¬": 7781,
      "Ġà¦¹à¦ĩà¦ļ": 7782,
      "Ġmamata": 7783,
      "ĠØ¨Ø§Ø¨": 7784,
      "autopager": 7785,
      "Ġà¦ªà¦®": 7786,
      "mr": 7787,
      "Ġca": 7788,
      "Ġmir": 7789,
      "Ġà¦ħà¦¨à¦¡": 7790,
      "mod": 7791,
      "Ġà¦¬à¦ªà¦¨": 7792,
      "à§°à¦®à¦£": 7793,
      "Ġsave": 7794,
      "'ll": 7795,
      "identifier": 7796,
      "Ġcrypt": 7797,
      "Ġfav": 7798,
      "Ġà¦ľà¦¨à¦¦": 7799,
      "Ġbed": 7800,
      "ĠØ¨ÙĨ": 7801,
      "Ġà¦ħà¦¬à¦¯": 7802,
      "Ġfut": 7803,
      "Ġking": 7804,
      "Ġà¦Ŀà¦²à¦¸": 7805,
      "Ġdigital": 7806,
      "Ġà¦Ĺà¦łà¦¨à¦®": 7807,
      "($(": 7808,
      "à¦ļà¦ªà¦¦à¦¸": 7809,
      "à¦ľà¦ķà¦¤à¦¤": 7810,
      "Ġfew": 7811,
      "à¦¨à¦¬à¦ľà¦®": 7812,
      "ua": 7813,
      "Ġboard": 7814,
      "!)": 7815,
      "Ġleft": 7816,
      "Ġconf": 7817,
      "...à¥¤": 7818,
      "Ġ57": 7819,
      "Ġhour": 7820,
      "à§°à¦¤à§°": 7821,
      "Ġ400": 7822,
      "Ġsmall": 7823,
      "umbai": 7824,
      "remove": 7825,
      "Ġà¦¥à¦°": 7826,
      "girl": 7827,
      "Ġ58": 7828,
      "Ġà¦Ĩà¦®à¦²à¦ķ": 7829,
      "Ġà¦®à¦¤à¦ª": 7830,
      "Ð°ÑĢ": 7831,
      "Ġlif": 7832,
      "à¦ªà¦¸à¦®": 7833,
      "core": 7834,
      "à¦¿à§į": 7835,
      "à¦ªà¦¤à¦¨": 7836,
      "Ġà¦¯à¦¤à¦¬": 7837,
      "event": 7838,
      "Ġà¦®à¦°à¦Ĺ": 7839,
      "Ġà¦ıà¦ıà¦ĩà¦ļ": 7840,
      "sty": 7841,
      "à¦¨à¦ļà¦°": 7842,
      "Ġà¦ľà¦¬à¦°": 7843,
      "ien": 7844,
      "à¤¼": 7845,
      "kash": 7846,
      "Ġetc": 7847,
      "à¦ķà¦ĸà¦¨": 7848,
      "isamay": 7849,
      "Ġnob": 7850,
      "esome": 7851,
      "à¦¿?âĢĻ": 7852,
      "Ġà¦ħà¦ĺ": 7853,
      "Ġhab": 7854,
      "null": 7855,
      "Ġ2000": 7856,
      "Ġrecent": 7857,
      "Ġsuccess": 7858,
      "Ġrad": 7859,
      "Ġbdfish": 7860,
      "Ġcele": 7861,
      "Ġsem": 7862,
      "anty": 7863,
      "à¦¨Ã±": 7864,
      "Ġcasino": 7865,
      "Ġà¦¦à¦°à¦ĸ": 7866,
      "à§®à§¦à§¦": 7867,
      "Ġoil": 7868,
      "Ġsubject": 7869,
      "twttr": 7870,
      "Ġà¦ħà¦ªà¦¶à¦ķ": 7871,
      "Ġfair": 7872,
      "019": 7873,
      "Ġil": 7874,
      "Ġvolume": 7875,
      "Ġyork": 7876,
      "Ġà¦Ĩà¦°à¦ıà¦¸à¦ıà¦¸": 7877,
      ")âĢĻ": 7878,
      "Ġà¦ıà¦¨à¦Ń": 7879,
      "à¦Ĺà¦ķà¦°": 7880,
      "ÙĬØ«": 7881,
      "Ġamazing": 7882,
      "may": 7883,
      "user": 7884,
      "insert": 7885,
      "Ġà¦īà¦ªà¦ķà¦®": 7886,
      "Ġimg": 7887,
      "à¦²à¦ªà¦¤": 7888,
      "à¦¿Â¤": 7889,
      "Ġâĸł": 7890,
      "Ø§ÙĤ": 7891,
      "Ġcenter": 7892,
      "Ġtal": 7893,
      "à¦¨à¦¤à¦¤": 7894,
      "à¦¶à¦§": 7895,
      "à¦¯à¦¯à¦¨": 7896,
      "Ġà¦Ĩà¦ĩà¦ıà¦®": 7897,
      "ming": 7898,
      "Ġquran": 7899,
      "Ġwordpress": 7900,
      "feature": 7901,
      "à¦¾[": 7902,
      "à¦īà¦ľà¦¡": 7903,
      "Ġà¦ķà¦Łà¦¨": 7904,
      "parent": 7905,
      "à¦Ĩà¦Ĩ": 7906,
      "trans": 7907,
      "Ġà¦¨à¦®à¦¸": 7908,
      "Ġà¦¬à¦Ľà¦°à¦ĵ": 7909,
      "Ġiq": 7910,
      "à¦¬à¦¶à¦¤": 7911,
      "Ġà¦ıà¦Ĩà¦ĩ": 7912,
      "Ġenter": 7913,
      "à¦£à¦¬à¦¯": 7914,
      "Ġcra": 7915,
      "à¦²à¦ķà¦¸à¦¹": 7916,
      "Ġà¦Īà¦¦à¦ķ": 7917,
      "à§Īà¥¤": 7918,
      "uz": 7919,
      "à¦¬à¦²à¦Ĺ": 7920,
      "ĠÙĤØ§ÙĦ": 7921,
      "uly": 7922,
      "bune": 7923,
      "Ġwal": 7924,
      "Ġà¦ıà§°": 7925,
      "Ġsoci": 7926,
      "Ġtut": 7927,
      "ĠØ§ÙĦØ´": 7928,
      "quote": 7929,
      "Ġà§Ńà§«à§¦": 7930,
      "Ġà¦ħà¦²à¦ª": 7931,
      "Ġcost": 7932,
      "âĢ¡`": 7933,
      "ØŃÙħ": 7934,
      "Ġsmart": 7935,
      "Ġà¦Ĩà¦²à¦Ń": 7936,
      "à¸²": 7937,
      "Ġzo": 7938,
      "à§ĩ_": 7939,
      "à¦®à¦°à¦¨": 7940,
      "à¦ľà¦°à¦¤": 7941,
      "à¦²à¦ķà¦¡": 7942,
      "Ġà§¯à§¯à§¯": 7943,
      "Ġà¦Ĩà¦¨à¦ķ": 7944,
      "à¦¾à¥¤'": 7945,
      "uge": 7946,
      "Ġsettimeout": 7947,
      "Ġà¤²": 7948,
      ";\\": 7949,
      "à¦¨à¦¶à¦Ł": 7950,
      "Ġ51": 7951,
      "Ġbb": 7952,
      "Ġmight": 7953,
      "mit": 7954,
      "Ġsend": 7955,
      "âĢĻ!": 7956,
      "kb": 7957,
      "Ġworks": 7958,
      "Ġpreviousscroll": 7959,
      "kg": 7960,
      "à¦®à¦²à¦®à¦¤": 7961,
      "kw": 7962,
      "Ġà¦ļà¦®à¦¤": 7963,
      "rom": 7964,
      "friend": 7965,
      "Ġà¦ıà¦¥": 7966,
      "Ġà¦ħà¦¸à¦¹à¦¯": 7967,
      "fire": 7968,
      "Ġà¦ħà¦ªà¦°à¦Ł": 7969,
      "Ġà¦¸à§İà¦ķ": 7970,
      "à¦ĸà§°": 7971,
      "download": 7972,
      "Ġfresh": 7973,
      "ĠÂ£": 7974,
      "Ġà¦ħà¦¸à¦®à¦¤": 7975,
      "ined": 7976,
      "Ġcat": 7977,
      "à¦°à¦Ľà¦¡": 7978,
      "light": 7979,
      "Ġâŀ": 7980,
      "Ġhi": 7981,
      "idge": 7982,
      "Ġsecond": 7983,
      "Ġ$('#": 7984,
      "Ġloc": 7985,
      "ĠÌĥ": 7986,
      "à¦Ńà¦¤": 7987,
      "Ġchrist": 7988,
      "used": 7989,
      "Ġà¦Ĺà¦¡à¦«": 7990,
      "Ġstore": 7991,
      "à¦·à¦ķà¦²": 7992,
      "à¦ľà¦¤à¦²": 7993,
      "Ġdou": 7994,
      "à¦°à¦¤à¦ķà¦°": 7995,
      "Ġà¦¸à¦ĩà¦¤": 7996,
      "Ġà¦ħà¦¨à¦¤": 7997,
      "Ġpot": 7998,
      "Ġà¦Ĩà¦¨à¦ľ": 7999,
      "Ġdog": 8000,
      "Ġspan": 8001,
      "rie": 8002,
      "}#": 8003,
      "Ġnam": 8004,
      "rah": 8005,
      "Ġstarted": 8006,
      "Ġwelcome": 8007,
      "Ġ???????": 8008,
      "hom": 8009,
      "à¦¨à¦Ľà¦¡": 8010,
      "rob": 8011,
      "Ġà§§à§¯à§¬à§«": 8012,
      "Ġà¦Ĺà¦«à¦°à¦Ĺ": 8013,
      "Ġà§§à§¨à§§": 8014,
      "à¦ļà¦²à¦ļ": 8015,
      "ugu": 8016,
      "à¦Ĺà¦°à¦¦": 8017,
      "Ġà¦Ĩà¦ĵà¦²": 8018,
      "Ġjanabd": 8019,
      "à¦®à¦¨à¦ķ": 8020,
      "à¦Ĺà¦ľà¦¨à¦ķ": 8021,
      "à¦Ľà¦²à¦¤": 8022,
      "à§°à¦£à¦¤": 8023,
      "à¥ĩà¤Ĥ": 8024,
      "à¦Łà¦ľà¦¨": 8025,
      "à¦Ńà¦Ĺ": 8026,
      "uri": 8027,
      "inger": 8028,
      "Ġà¦°à¦£à¦ķ": 8029,
      "×Ļ": 8030,
      "Ġinvest": 8031,
      "Ġà¦¬à¦īà¦ķ": 8032,
      "Ġà¤ļ": 8033,
      "ema": 8034,
      "à¦®à¦Ĺà¦£": 8035,
      "Ġ59": 8036,
      "à¦īà¦ŀ": 8037,
      "Ġà¦ķà¦ĵ": 8038,
      "Ġà¦Ĩà¦®à¦¬": 8039,
      "ashi": 8040,
      "Ġtub": 8041,
      "Ġà¦ķà¦°à¦®": 8042,
      "Ġnear": 8043,
      "peat": 8044,
      "à¦¤à¦¨à¦¶": 8045,
      "nov": 8046,
      "itive": 8047,
      "à¦ĵà¦¥": 8048,
      "igation": 8049,
      "Ġ71": 8050,
      "Ġà¦¶à¦¹à¦°à¦ķ": 8051,
      "Ġà¦Ĩà¦ļà¦°à¦¨": 8052,
      "Ġgul": 8053,
      "db": 8054,
      "à¦¥à¦¦à¦£": 8055,
      "à¦¹à¦ł": 8056,
      "Ġcredit": 8057,
      "Ġcoxsbazarnews": 8058,
      "à§ĢâĢĻà¥¤": 8059,
      "à¦¹à¦¶": 8060,
      "Ġiss": 8061,
      "wan": 8062,
      "iframe": 8063,
      "Ġbag": 8064,
      "dhury": 8065,
      "Ġmother": 8066,
      "Ġaustral": 8067,
      "ec": 8068,
      "à¦ĸà¦ļ": 8069,
      "Ġcrime": 8070,
      "Ġquote": 8071,
      "Ġà¦Łà¦°à¦¨": 8072,
      "à¦Łà¦¨à¦ķ": 8073,
      "Ġgreen": 8074,
      "Ġdone": 8075,
      "Ġpain": 8076,
      "Ġbookmark": 8077,
      "hel": 8078,
      ".)-": 8079,
      "Ġà¦¹à¦²à¦«à¦¨": 8080,
      "Ġsent": 8081,
      "Ġà¦ļà¦°à¦£": 8082,
      "Ġà¦¸à¦¹à¦ľà¦Ń": 8083,
      "ibr": 8084,
      "Ġunt": 8085,
      "Ġda": 8086,
      "ÙĪÙħ": 8087,
      "Ġdef": 8088,
      "publish": 8089,
      "à¯Ī": 8090,
      "Ġà¦¦à¦°à¦Ĺ": 8091,
      "Ġchang": 8092,
      "Ġpra": 8093,
      "à¦¨à¦¤à¦²": 8094,
      "Ġà¦¨à¦¬à¦Ĺà¦ł": 8095,
      "à¦ĩà¦¥": 8096,
      "à¦¬à¦Ľà¦°à¦ĩ": 8097,
      "Ġà¦®à¦¨à¦¯": 8098,
      "Ġ');": 8099,
      "Ġà§¨à§ªà§¦": 8100,
      "Ġkumar": 8101,
      "à¦·à¦£à¦Ń": 8102,
      "ĠâĤ¬": 8103,
      "á¹": 8104,
      "Ġlocal": 8105,
      "bre": 8106,
      "ĠØ·": 8107,
      "Ġà¦¸à¦¬à¦²": 8108,
      "Ġservices": 8109,
      "Ġnay": 8110,
      "Ġlooking": 8111,
      "Ġà¦¸à¦¹à¦®à¦¤": 8112,
      "à¦¨à¦§": 8113,
      "Ġprofile": 8114,
      "à¦¶à¦ļà¦¨": 8115,
      "Ġwait": 8116,
      "Ġà¦Ńà¦¸": 8117,
      "à¦°à¦¬à¦ķ": 8118,
      "Ġgov": 8119,
      "Ġsen": 8120,
      "Ġà§©à§¬à§¦": 8121,
      "Ġcourse": 8122,
      "zd": 8123,
      "ÙĬØ©": 8124,
      "Ġà¦Ĩà¦¹à§°à¦£": 8125,
      "Ġdistrict": 8126,
      "oni": 8127,
      "urb": 8128,
      "à¦Ĺà¦ļ": 8129,
      "à¦īà¦¨à¦Ł": 8130,
      "à¦Łà¦¸à¦¨": 8131,
      "lac": 8132,
      "Ġà¦ıà¦®à¦Ł": 8133,
      "Ġmaking": 8134,
      "gi": 8135,
      "Ġarticleà¦°": 8136,
      "à¦¬à¦°à¦¨": 8137,
      "Ġprev": 8138,
      "Ġray": 8139,
      "Ġrain": 8140,
      "Ġcamera": 8141,
      "istry": 8142,
      "à¦¨à¦ĵà¦Ń": 8143,
      "bas": 8144,
      "à¦Ĥ.": 8145,
      "Ġjapan": 8146,
      "à¦¹à¦ĵ": 8147,
      "Ġà§§à§©à§¨": 8148,
      "Ġsky": 8149,
      "à¦ľà¦ķà¦¨": 8150,
      "Ġà§§à§¯à§«à§ª": 8151,
      "Ġà¦īà¦ªà¦ª": 8152,
      "à§ĩ!!": 8153,
      "à¦¶à¦£": 8154,
      "Ġtravel": 8155,
      "à¦¿à¥¤'": 8156,
      "Ġ-âĢľ": 8157,
      "Ġach": 8158,
      "Ġstrong": 8159,
      "à¥¤-": 8160,
      "bor": 8161,
      "duct": 8162,
      "Ġinstall": 8163,
      "Ġpartic": 8164,
      "Ġsor": 8165,
      "Ġà¦®à¦°à¦¶": 8166,
      "ived": 8167,
      "à¦¹à¦°à¦¨": 8168,
      "120": 8169,
      "blank": 8170,
      "Ġdirect": 8171,
      "ority": 8172,
      "ĠÙ±ÙĦ": 8173,
      "Ġvotes": 8174,
      "à¦²à¦¨à¦ķà¦°": 8175,
      "Ġà§¨à§¦à§ªà§§": 8176,
      "ler": 8177,
      "Ġ}*/": 8178,
      "à§¨à§¦à§¦à§¦": 8179,
      "Ġà¦¶à¦²": 8180,
      "Ġreser": 8181,
      "Ġà¦Ĺà¦²à¦«": 8182,
      "Ġcanada": 8183,
      "Ġà¦ªà¦ļà¦¨": 8184,
      "à¦¿)-": 8185,
      "Ġmeans": 8186,
      "à¦Ĩà¦«à¦Ĺ": 8187,
      "Ġà¦¹à¦ĩà¦ļà¦ĩ": 8188,
      "à¦ļà¦²à¦Ĺ": 8189,
      "Ġcopyright": 8190,
      "star": 8191,
      "****************": 8192,
      "Ġfactory": 8193,
      "msbd": 8194,
      "Ġcertain": 8195,
      "Ġbill": 8196,
      "à¦¡à¦¤": 8197,
      "Ġcontact": 8198,
      "kk": 8199,
      "cat": 8200,
      "ters": 8201,
      "ĠØ§ÙĦØ¹": 8202,
      "Ġident": 8203,
      "Ġnote": 8204,
      "Ġ360": 8205,
      "Ġà§¨à§¦à§¨à§¨": 8206,
      "Ġinsurance": 8207,
      "Ġmm": 8208,
      "Ġà¦ľà¦¨à¦¶": 8209,
      "Ġâĺ": 8210,
      "Ġhost": 8211,
      "ano": 8212,
      "kho": 8213,
      "Ġdra": 8214,
      "ared": 8215,
      "Ġsob": 8216,
      "ival": 8217,
      "Ġbanglanewspaper": 8218,
      "has": 8219,
      "Ġprotidin": 8220,
      "Ġprim": 8221,
      "Ġside": 8222,
      "ĠØ£ÙĨ": 8223,
      "Ġanim": 8224,
      "Ġmatch": 8225,
      "\\-": 8226,
      "à¦²à¦¸à¦¨": 8227,
      "orm": 8228,
      "Ġà¦Ĺà¦²à¦¦": 8229,
      "Ġà§§à§¯à§¬à§ª": 8230,
      "Ġpun": 8231,
      "Ġà¦Ĩà¦ĩà¦¸à¦²": 8232,
      "pal": 8233,
      "?!": 8234,
      "Ġà¦ıà¦ķà¦§": 8235,
      "adu": 8236,
      "Ġ69": 8237,
      "Ġà¦ıà¦¸à¦ıà¦®à¦ĩ": 8238,
      "Ġseo": 8239,
      "ament": 8240,
      "Ġlar": 8241,
      "Ġxvideos": 8242,
      "à¦¹à¦¨à¦¤": 8243,
      "à¦¡à¦¦": 8244,
      "à¦ķà¦Łà¦°": 8245,
      "à¦¨à¦ĺ": 8246,
      "001": 8247,
      "à¦¾à¥¤à¥¤": 8248,
      "ech": 8249,
      "à¦£à¦ĩ": 8250,
      "loy": 8251,
      "à¤Ī": 8252,
      "à¦§à¦¬à¦¦": 8253,
      "à¦ıà¦ĩà¦¡": 8254,
      "Ġball": 8255,
      "à¦¼à§ĭ,": 8256,
      "à¦¬à¦°à¦Ĺ": 8257,
      "ÑģÑĤ": 8258,
      "à¦¤à¦¨à¦¬": 8259,
      "apers": 8260,
      "à¦ıà¦®à¦Ĩà¦ĩ": 8261,
      "Ġà§¨à§§à§¦": 8262,
      "à¦¸à¦®à¦¤": 8263,
      "à¦īà¦ªà¦¨": 8264,
      "dim": 8265,
      "tu": 8266,
      "Ġà¦Ľà¦«": 8267,
      "year": 8268,
      "ĠÑ": 8269,
      "±Û": 8270,
      "Ġlevel": 8271,
      "ĠØ§ÙĦØ¯": 8272,
      "Ġwoman": 8273,
      "Ġà¦¡à¦®": 8274,
      "ershomoy": 8275,
      "à¦¡à¦ĩ": 8276,
      "Ġcryptoc": 8277,
      "Ġpharmacy": 8278,
      "à¦¥à¦ĵ": 8279,
      "Ġà¦ıà¦ķà¦ĺ": 8280,
      "à¦¶à¦¨à¦ĵ": 8281,
      "Ġaway": 8282,
      "Ġà¦ĺà¦°à¦®": 8283,
      "Ġcover": 8284,
      "Ġlondon": 8285,
      "olution": 8286,
      "Ġsuck": 8287,
      "à¦¿à¦Ĥ)": 8288,
      "inarticle": 8289,
      "Ġmysmsbd": 8290,
      "à¦ĩà¦®à¦°": 8291,
      "à¦Ŀà¦ªà¦¥": 8292,
      "sung": 8293,
      "Ġci": 8294,
      "Ġà¥¤âĢĿ": 8295,
      "à¦²à¦®à¦°": 8296,
      "ites": 8297,
      "à¦ĩà¦¨à¦ļ": 8298,
      "gd": 8299,
      "Ġeast": 8300,
      "Ġsaw": 8301,
      "à§İà¦¸à¦ķà¦ķ": 8302,
      "Ġà¦Ĩà¦ľà¦Ĺà¦°": 8303,
      "à¦¯à¦Ĺà¦£": 8304,
      "Ġdhakatimes": 8305,
      "à¦¤à¦¡": 8306,
      "à¦¨à¦¸à¦ĩ": 8307,
      "sd": 8308,
      "à¦£à¦¸à¦¹": 8309,
      "Ġimportant": 8310,
      "à¦¬à¦Ĺà¦¤": 8311,
      "Ġà¦ħà¦ªà¦ķ": 8312,
      "à¦¶à¦§à¦°": 8313,
      "à¦ıà¦¨à¦¡": 8314,
      "Ġindust": 8315,
      "Ġcircle": 8316,
      "Ġcancel": 8317,
      "tags": 8318,
      "Ġà¦¬à¦°à¦¦": 8319,
      "char": 8320,
      "Ġeasy": 8321,
      "à¦īà¦ıà¦ĩà¦ļà¦ĵ": 8322,
      "ĠÐ²": 8323,
      "à¦²à¦¤à¦¬": 8324,
      "Ġwonder": 8325,
      "ĠØ§ÙĦØª": 8326,
      "Ġmicrosoft": 8327,
      "related": 8328,
      "Ġhomesms": 8329,
      "à¦¿?âĢĿ": 8330,
      "à¦²à¦°à¦¦": 8331,
      "Ġà¦Łà¦¬": 8332,
      "Ġà¦®à¦¬": 8333,
      "à¦Ĩà¦°à¦ıà¦²": 8334,
      "Ġmass": 8335,
      "room": 8336,
      "à¦Ńà§İà¦¸": 8337,
      "ender": 8338,
      "Ġà¦Ľà¦Łà¦«à¦Ł": 8339,
      "Ġà§§à§ªà§«": 8340,
      "Ġà§ĭ": 8341,
      "Ġpostnext": 8342,
      "Ġà§§à§¨à§¨": 8343,
      "ida": 8344,
      "Ġà§§à§¨à§Ń": 8345,
      "à¦¾à¦¿": 8346,
      "Ġà¦ļà¦£": 8347,
      "vg": 8348,
      "Ġà§«à§¦à§¦à§¦": 8349,
      "Ġyet": 8350,
      "Ġà¦Ĩà§°à¦ķ": 8351,
      "ided": 8352,
      "à¦ĩà¦īà¦¸": 8353,
      "ÙĪØ¯": 8354,
      "Ġsociety": 8355,
      "Ġà¦ľà¦²à¦ľ": 8356,
      "Ġ$.": 8357,
      "king": 8358,
      "oke": 8359,
      "Ġà¦Ĩà¦°à¦¡": 8360,
      "Ġsingh": 8361,
      "à¥¤''": 8362,
      "à¦ĩà¦¨à¦Ĺ": 8363,
      "Ġpropert": 8364,
      "Ġà¦ħà¦¨à¦¬à¦°à¦¤": 8365,
      "Ġà¦®à¦ķà¦°": 8366,
      "Ġà¦ľà¦²à¦¦": 8367,
      "Ġeisamay": 8368,
      "Ġheight": 8369,
      "à§Ģ),": 8370,
      "illed": 8371,
      "Ġallow": 8372,
      "option": 8373,
      "à¦ĩà¦¸à¦¹": 8374,
      "à¦¦à¦¸à¦ĩ": 8375,
      "ahoo": 8376,
      "Ġcur": 8377,
      "Ġntv": 8378,
      "à¦¯à¦¸à¦ļ": 8379,
      "hr": 8380,
      "à¦ľà¦¨à¦¸": 8381,
      "Ġcryptocurrency": 8382,
      "Ġà¦ħà¦ĺà¦Łà¦¨": 8383,
      "Ġmath": 8384,
      "Ġà¦¡à¦²à¦«": 8385,
      "Ġà¦¶à¦¬à¦¨à¦®": 8386,
      "aterial": 8387,
      "Ġpad": 8388,
      "à¦¾....": 8389,
      "%';": 8390,
      "max": 8391,
      "Ġless": 8392,
      "Ġgrow": 8393,
      "Ġreviewed": 8394,
      "Ġà¦ķà¦¤à¦ĸ": 8395,
      "arend": 8396,
      ".à¥¤": 8397,
      "Ġcaption": 8398,
      "à¦ķà¦ªà¦ķ": 8399,
      "angle": 8400,
      "Ġbanani": 8401,
      "Ġcm": 8402,
      "Ġissue": 8403,
      "à¦łà¦Ł": 8404,
      "à¦ĩà¦«à¦īà¦¦": 8405,
      "toggle": 8406,
      "Ġà¦ıà¦°à¦Ĩà¦Ĺ": 8407,
      "Ġpolitics": 8408,
      "dc": 8409,
      "coxsbazarnews": 8410,
      "most": 8411,
      "Ġheart": 8412,
      "Ġà¤°": 8413,
      "cialis": 8414,
      "insertafter": 8415,
      "Ġà¦®à¦¨à¦ª": 8416,
      "ources": 8417,
      "estyle": 8418,
      "à¦ĸà¦¨à¦¤": 8419,
      "obt": 8420,
      "essore": 8421,
      "ique": 8422,
      "kal": 8423,
      "ottom": 8424,
      "Ġà¦īà¦ªà¦¸à¦ļ": 8425,
      "ension": 8426,
      "Ġà¦¸à¦¹à¦®à¦°": 8427,
      "gg": 8428,
      "Ġeveryone": 8429,
      "à¦°à¦¬à¦ļ": 8430,
      "Ġdetails": 8431,
      "Ġwife": 8432,
      "%;": 8433,
      "à§¯à§¯à§¯": 8434,
      "Ġà¦Ľà¦¹": 8435,
      "à¦¼à¦¿âĢĻ": 8436,
      "Ġà¦¸à¦¬à¦¦": 8437,
      "Ġà§§à§¨à§ª": 8438,
      "\":\"\",\"": 8439,
      "Ġsug": 8440,
      "Ġjohn": 8441,
      "à¦ĵà¦Ľ": 8442,
      "à¦¹à¦°à¦ķ": 8443,
      "vitra": 8444,
      "Ġà§§à§¨à§¬": 8445,
      "Ġamad": 8446,
      "Ġà¦ļà¦Łà¦ķ": 8447,
      "Ġpurb": 8448,
      "à¦²à¦ķà¦¬": 8449,
      "Ġgra": 8450,
      "à¦ļà¦ľà¦¨à¦ķ": 8451,
      "sport": 8452,
      "Ġà¦«à¦¡": 8453,
      "Ġupdates": 8454,
      "Ġà¦¸à¦īà¦¦": 8455,
      "Ġfront": 8456,
      "à¦¤à¦ķà¦¦": 8457,
      "à¦¬à¦ļà¦¨": 8458,
      "soon": 8459,
      "Ġtan": 8460,
      "Ġà¦¹à¦¤à¦Ń": 8461,
      "auto": 8462,
      "vement": 8463,
      "adian": 8464,
      "Ġà¦Ĩà¦ľà¦®à¦²": 8465,
      "Ġà¦ķà¦ĩà¦²": 8466,
      "à¦¨à¦ħà¦¨": 8467,
      "Ġepis": 8468,
      "priyo": 8469,
      "tt": 8470,
      "scribe": 8471,
      "à¦ĵà¦¹à¦°": 8472,
      "Ġà¦ķà¦¦à¦®à¦¤à¦²": 8473,
      "padding": 8474,
      "Ġaction": 8475,
      "Ġfan": 8476,
      "à¦¶à¦ķà¦ķ": 8477,
      "à¦¾âĢĻ-": 8478,
      "aka": 8479,
      "serif": 8480,
      "eder": 8481,
      "Ġà¦¤à¦Ľà¦¨": 8482,
      "Ġpersonal": 8483,
      "Ġà¦ĩà¦¹à¦¸": 8484,
      "Ġà¦Ĩà¦ĩà¦¨à¦ķ": 8485,
      "Ġmast": 8486,
      "à¦ĩà¦¸à¦Ĺ": 8487,
      "à§°à¦Ł": 8488,
      "istration": 8489,
      "à¦²à¦¬à¦°": 8490,
      "Ġï´¿": 8491,
      "à¦°à¦ķà¦ķ": 8492,
      "Ġî": 8493,
      "ened": 8494,
      "Ġà¦ıà¦ķà¦¬à¦Ľà¦°": 8495,
      "à¦ļà¦²à¦¨": 8496,
      "put": 8497,
      "Ġusb": 8498,
      "Ġcreate": 8499,
      "Ġà¦¸à¦«à¦°à¦°à¦¤": 8500,
      "Ġbash": 8501,
      "à¦ĸà¦Ĺ": 8502,
      "ception": 8503,
      "Ġà¦°à¦¥à¦¯": 8504,
      "à¦Ĩà¦°à¦ıà¦«": 8505,
      "Ġhandle": 8506,
      "Ġà§§à§¯à§¬à§®": 8507,
      "Ġdepart": 8508,
      "Ġà¦ħà§±à¦¶": 8509,
      "Ġphys": 8510,
      "sal": 8511,
      "à¦¤à¦®à¦¯": 8512,
      "à¤ĸ": 8513,
      "Ġant": 8514,
      "à¦°à¦¬à¦¸": 8515,
      "à¦īà¦Ĺ": 8516,
      "à¦·à¦£à¦®": 8517,
      "Ø§Ø¬": 8518,
      "à¦ķà¦ľà¦®à¦ķ": 8519,
      "Ġvalo": 8520,
      "Ġpresident": 8521,
      "hing": 8522,
      "à¦¬à¦¶à¦°": 8523,
      "Ġ85": 8524,
      "Ġmanagement": 8525,
      "à¦¬à¦ªà¦ķ": 8526,
      "Ġforex": 8527,
      "Ġà¦ĩà¦£": 8528,
      "123": 8529,
      "à¦°à¦īà¦ĩà¦¨": 8530,
      "à¦ªà¦Łà¦¨": 8531,
      "Ġà¦īà¦ªà¦¶à¦®": 8532,
      "Ġpric": 8533,
      "Ġà§§à§Ńà§«": 8534,
      "à¦ıà¦®à¦ķ": 8535,
      "à¦«à¦°à¦®": 8536,
      "Ġcomplete": 8537,
      "Ġdislike": 8538,
      "'re": 8539,
      "à¦ıà¦ĩà¦ļà¦Ł": 8540,
      "à§ĭâĢĻà¥¤": 8541,
      "tm": 8542,
      "à¦¼à¦¾à¦ģ": 8543,
      "spe": 8544,
      "cw": 8545,
      "repeat": 8546,
      "Ġdan": 8547,
      "azine": 8548,
      "Ġsamsung": 8549,
      "Ġchild": 8550,
      "Ġà§§à§¯à§¬à§§": 8551,
      "Ġkha": 8552,
      "Ġalam": 8553,
      ",âĢĻ": 8554,
      "Ġà¦Ĩà§±": 8555,
      "Ĥ¬": 8556,
      "à¦Ĩà¦¹à¦®": 8557,
      "Ġibn": 8558,
      "Ġoh": 8559,
      "Ġhindi": 8560,
      "Ġà¦¬à¦Ĺà¦²": 8561,
      "bed": 8562,
      "à¦ľà¦¨à¦ĵ": 8563,
      "Ġfuture": 8564,
      "à¦¶à¦¶": 8565,
      "à´µà´¸": 8566,
      "vq": 8567,
      "config": 8568,
      "Ġ2006": 8569,
      "Ġfight": 8570,
      "crim": 8571,
      "à¦®à¦®à¦¨": 8572,
      "Ġà¦ıà¦ĩà¦ļà¦ª": 8573,
      "Ġtempl": 8574,
      "Ġfollowing": 8575,
      "ÙĦÙĩ": 8576,
      "Ġfriends": 8577,
      "à¦ĩà¦°à¦¯": 8578,
      "position": 8579,
      "à§ĩà¥¤''": 8580,
      "Ġà¦ħà¦¨à¦°": 8581,
      "Ġrece": 8582,
      "]],": 8583,
      "ford": 8584,
      "à¦¦à¦¸à¦®": 8585,
      "Ġloans": 8586,
      "à¦ªà¦ĸ": 8587,
      "Ġsan": 8588,
      "fect": 8589,
      "à¦°à¦¹à¦Ł": 8590,
      "à¦ķà¦ĺà¦°": 8591,
      "Ġà¦ıà¦ĩà¦Ĺ": 8592,
      "Ġà¦¤à¦Ľà¦¨à¦Ľ": 8593,
      "Ġtran": 8594,
      "Ġtai": 8595,
      "Ġà¦¦à¦ĸà¦²à¦ķ": 8596,
      "à¦¬à¦ĺ": 8597,
      "Ġchow": 8598,
      "Ġkatha": 8599,
      "Ġguide": 8600,
      "à¦£à¦ł": 8601,
      "Ġà¦ĺà¦Łà¦ķ": 8602,
      "à¦ķà¦Ĺà¦£": 8603,
      "à¦ıà¦«à¦Ĩà¦ĩ": 8604,
      "Ġprescription": 8605,
      "Ġ///": 8606,
      "Ġarticleà¦¨": 8607,
      "Ġtur": 8608,
      "mob": 8609,
      "à§±à¦¨à§°": 8610,
      "ÙħØ§": 8611,
      "à¦ıà¦¨à¦Ł": 8612,
      "onth": 8613,
      "Ġfunny": 8614,
      "Ġ6000": 8615,
      "à¦ľà¦¨à¦ª": 8616,
      "Ġà¦ľà¦²à¦ķ": 8617,
      "ky": 8618,
      "clusive": 8619,
      "Ġconsider": 8620,
      "Ġà¦ħà¦«à¦¸": 8621,
      "Ġà¦īà¦¶": 8622,
      "water": 8623,
      "Ġcommunity": 8624,
      "à¦¦à¦¨à¦ĵ": 8625,
      "à¦Ĺà¦£à¦¤à¦¨": 8626,
      "Ġ98": 8627,
      "Ġvisits": 8628,
      "à¦¸à¦°à¦¨": 8629,
      "Ġtun": 8630,
      "iler": 8631,
      "fs": 8632,
      "ruct": 8633,
      "Ġsle": 8634,
      "Ġà¦ļà¦°à¦ķ": 8635,
      "Ġsqu": 8636,
      "gas": 8637,
      "Ġupon": 8638,
      "isal": 8639,
      "à¦ľà¦¨à¦Ĺà¦£": 8640,
      "Ġà¦®à¦¨à¦Ĺà¦¡": 8641,
      "à¦ķà¦Łà¦¸": 8642,
      "otal": 8643,
      "Ġblue": 8644,
      "hz": 8645,
      "mus": 8646,
      "how": 8647,
      "Ġarr": 8648,
      "à¦ĩà¦¬à¦¨": 8649,
      "Ġbeautiful": 8650,
      ";&#": 8651,
      "à¦°à¦¹à¦£à¦®": 8652,
      "Ġpast": 8653,
      "Ġà¦ĭà¦£à¦ĸ": 8654,
      "Ġà¦īà¦²à¦Ļ": 8655,
      "Ġber": 8656,
      "Ġà¦ªà¦¥à¦¶": 8657,
      "à¦°à¦²à¦¸à¦Ń": 8658,
      "Ġtrade": 8659,
      "Ġà¦ªà¦¦à¦¯": 8660,
      "Ġà¦ķà¦¨à¦¡à¦®": 8661,
      "Ã°": 8662,
      "à§Ģà¥¤âĢĻ": 8663,
      "Ġxd": 8664,
      "lin": 8665,
      "Ġtheme": 8666,
      "Ġdescription": 8667,
      "Ġmedic": 8668,
      "Ġà¦ıà¦ķà¦¹": 8669,
      "enewsbd": 8670,
      "Ġdoctor": 8671,
      "Ġcalled": 8672,
      "à¦ªà¦¦à¦ķ": 8673,
      "faq": 8674,
      "à¦ħà¦¯": 8675,
      "Ġà¦īà¦ªà¦°à¦ĩ": 8676,
      "à§ģ/": 8677,
      "à¦¸à¦¦à¦ķ": 8678,
      "Ġmatter": 8679,
      "Ġà§§à§¯à§©à§¦": 8680,
      "Ġà¦Ŀà¦¨": 8681,
      "à¦¦à¦ĵà¦¯": 8682,
      "Ġà¦ħà¦¸à¦®à¦¯": 8683,
      "Ġà¦¦à¦¶à¦ľà¦¨": 8684,
      "Ġbollywood": 8685,
      "ĠcÃ¶": 8686,
      "Ġmohammad": 8687,
      "Ġcell": 8688,
      "Ġimp": 8689,
      "à¦¼\"": 8690,
      "Ġà¦¬à¦¨à¦Ĺ": 8691,
      "iti": 8692,
      "à¦¯à¦¶à¦¸": 8693,
      "Ġyobt": 8694,
      "Ġà¦ħà¦«à¦²": 8695,
      "Ġjoy": 8696,
      "à¦¾?âĢĿ": 8697,
      "Ġkhobor": 8698,
      "à§°à¦ª": 8699,
      "à´¥": 8700,
      "à¦¿âĢĿà¥¤": 8701,
      "Ġpostprevious": 8702,
      "à¦łà¦°": 8703,
      "à¦ľà¦¨à¦ķà¦Ń": 8704,
      "Ġà¦ħà¦¤à¦Ł": 8705,
      "à²¨": 8706,
      "Ġà¦ĵà¦ªà¦°à¦ĵ": 8707,
      "Ġà§§à§ªà§¨": 8708,
      "Ġà¦ĩà¦ľà¦°": 8709,
      "Ġà¦¦à¦²à¦¬": 8710,
      "ÙĨØ§": 8711,
      "à§¬à§¦à§¦": 8712,
      "Ġà¦ıà¦°à¦ĵ": 8713,
      "Ġtopic": 8714,
      "replace": 8715,
      "à¦®à¦¤à¦ķ": 8716,
      "Ġliter": 8717,
      "what": 8718,
      "Ġà¦¶à¦¤à¦¤à¦®": 8719,
      "adesh": 8720,
      "à¦¯à¦ªà¦Ł": 8721,
      "sans": 8722,
      "à¦°à¦ķà¦°à¦£": 8723,
      "Ġpract": 8724,
      "Ġnok": 8725,
      "Ġmoder": 8726,
      "à¦¿à¥¤\"": 8727,
      "Ġà¦ıà¦ĩà¦¦": 8728,
      "à¦ĩà¦ķà¦Ł": 8729,
      "à¦¨à¦ķà¦²": 8730,
      "indian": 8731,
      "à¦ªà¦¦à¦Ĺ": 8732,
      "pital": 8733,
      "Ġà§§à§¯à§«à§¬": 8734,
      "Ġà¦¹à¦Łà¦¸": 8735,
      "Ġadded": 8736,
      "']": 8737,
      "jon": 8738,
      "Ġparb": 8739,
      "à¦¯à¦°à¦¸": 8740,
      "Ġchildren": 8741,
      "Ġpab": 8742,
      "Ġà§§à§¨à§¯": 8743,
      "Ġdream": 8744,
      "Ġà¦¶à¦°à¦£à¦ĸ": 8745,
      "Ġsound": 8746,
      "Ġà§§à§©à§¬": 8747,
      "ably": 8748,
      "à¦¨à¦§à¦°": 8749,
      "700": 8750,
      "à¦·à¦¸à¦¹": 8751,
      "Ġà¦ıà¦ıà¦«à¦¸": 8752,
      "à¦§à¦¹": 8753,
      "ample": 8754,
      "Ġmor": 8755,
      "Ġà¦ħà¦¤à¦¨": 8756,
      "Ġà¦ħà¦¸à¦¹à¦¨": 8757,
      "bind": 8758,
      "Ġsus": 8759,
      "Ġ101": 8760,
      "aff": 8761,
      "Ġamong": 8762,
      "ajax": 8763,
      "à¦¿à¥¤à¥¤": 8764,
      "Ġ//$('.": 8765,
      "full": 8766,
      "Ġwr": 8767,
      "Ġà¦ĺà¦°à¦¬à¦¨": 8768,
      "à§¨à§¦à§¦à§¬": 8769,
      "à¦¤à¦§": 8770,
      "à¦ĩà¦«à¦Ł": 8771,
      "ivid": 8772,
      "Ġdut": 8773,
      "à¦¼à§ĭà¥¤": 8774,
      "à¦¯à¦ľà¦¨à¦ķà¦Ń": 8775,
      "Ġay": 8776,
      "Ġsut": 8777,
      "Ġdoi": 8778,
      "Ġà§§à§¯à§«à§®": 8779,
      "à¦ıà¦ķà¦¬": 8780,
      "Ġà¦ĵà¦¤": 8781,
      "Ġà¦ıà¦¡à¦ĵà¦¯": 8782,
      "ished": 8783,
      "mary": 8784,
      "Ġtreat": 8785,
      "Ġà¦ħà¦¸à¦Ń": 8786,
      "Ġà¦ıà¦¨à¦ª": 8787,
      "Ġincre": 8788,
      "à¦¤à¦ĸ": 8789,
      "amsung": 8790,
      "Ġà§¬à§«à§¦": 8791,
      "ula": 8792,
      "Ġarmy": 8793,
      "books": 8794,
      "à¦Ĺà¦Ńà¦Ļ": 8795,
      "Ġfour": 8796,
      "Ġà§§à§¬à§«": 8797,
      "uddin": 8798,
      "Ġà¦°à¦ļà¦¯": 8799,
      "à¦¸à¦¨à¦¬": 8800,
      "Ġà¦¬à¦²à¦°": 8801,
      "Ġà¦Ĩà¦¦à¦¬": 8802,
      "pi": 8803,
      "Ġà¦Łà¦Ł": 8804,
      "Ġpath": 8805,
      "ology": 8806,
      "Ġast": 8807,
      "150": 8808,
      "Ġà¦¤à¦¬à¦²": 8809,
      "space": 8810,
      "^à¦¾": 8811,
      "à¦¼à¦¿à§³": 8812,
      "Ġtum": 8813,
      "Ġcand": 8814,
      "mud": 8815,
      "vd": 8816,
      "Ġkort": 8817,
      "vm": 8818,
      "Ġà¦ªà¦¸": 8819,
      "à¦¶à¦¨à¦¸à¦¹": 8820,
      "ey": 8821,
      "Ġà´®": 8822,
      "ÌĦ": 8823,
      "Ġcollection": 8824,
      "Ġlabels": 8825,
      "Ġobs": 8826,
      "à¦¯à¦¬à¦¶à¦¤": 8827,
      "cha": 8828,
      "à¦¯à¦ªà¦ķ": 8829,
      "Ġhowever": 8830,
      "Ġrecipe": 8831,
      "Ġà¦ıà¦®à¦ıà¦²": 8832,
      "à¦¸à¦¹à¦¯": 8833,
      "ysis": 8834,
      "Ġmc": 8835,
      "à¦ĩà¦²à¦¨": 8836,
      "Ġbenef": 8837,
      "à¦ļà¦ĵ": 8838,
      "Ġuttar": 8839,
      "à¦ĩà¦®à¦²": 8840,
      "Ġanyone": 8841,
      "Ġslide": 8842,
      "à§°à¦ľ": 8843,
      "Ġeurope": 8844,
      "axy": 8845,
      "Â·": 8846,
      "Ġà¦¤à¦°à¦¬": 8847,
      "Ø°Ø§": 8848,
      "Ġà¦¸à¦°à¦£": 8849,
      "à§§à§¨à§¦": 8850,
      "à¦¿à§ģ": 8851,
      "Ġà¦®à¦¤à¦Ń": 8852,
      "Ãª": 8853,
      "Ġà§¨à§©à§¦": 8854,
      "Ġdol": 8855,
      "Ġà¦ıà¦²à¦ıà¦¨à¦ľ": 8856,
      "outh": 8857,
      "samsung": 8858,
      "à¦°à¦ĸà¦°": 8859,
      "728": 8860,
      "à¦¾!!": 8861,
      "Ġà´ª": 8862,
      "plat": 8863,
      "à¦Ĭà¦¦": 8864,
      "error": 8865,
      "Ġexcell": 8866,
      "Ġà¦ħà¦¹à¦¨": 8867,
      "à¦°à¦®à¦°": 8868,
      "Ġgy": 8869,
      "à¦Łà¦°à¦¬": 8870,
      "à¦ķà¦ªà¦¥": 8871,
      "cia": 8872,
      "à¦Łà¦°à¦°": 8873,
      "Ġden": 8874,
      "raj": 8875,
      "Ġdet": 8876,
      "Ġwords": 8877,
      "Ġà¦Ĩà¦ĩà¦ıà¦¸à¦ª": 8878,
      "à§¦à§¦à§¦à§¦": 8879,
      "Ġà¦ľà¦¨à¦¬à¦¹": 8880,
      "Ġà¦¹à¦ĩà¦¨": 8881,
      "à¦¥à¦ķà¦¤": 8882,
      "Ġsofa": 8883,
      "Ġtru": 8884,
      "Ġà§§à§«à§©": 8885,
      "Ġà¦ĭà¦¦": 8886,
      "à¦°à¦ªà¦¥": 8887,
      "!!!!!!!!!!!!!!!!": 8888,
      "Ġà§«à§«à§¦": 8889,
      "Ġà²": 8890,
      "ĠÐ½": 8891,
      "Ġtouch": 8892,
      "ĠØ§ÙĦØŃ": 8893,
      "bir": 8894,
      "Ġà¦®à¦¶à¦ķ": 8895,
      "Ġkotha": 8896,
      "btn": 8897,
      "Ġinstitute": 8898,
      "ians": 8899,
      "à¦ħà¦¬à¦°": 8900,
      "Ġself": 8901,
      "à¦ªà¦ľà¦²": 8902,
      "Ġenc": 8903,
      "ÙĢÙĢ": 8904,
      "Ġonce": 8905,
      "Ġrat": 8906,
      "Ġmat": 8907,
      "lap": 8908,
      "Ġà§§à§©à§Ń": 8909,
      "Ġà¦ıà¦®à¦ıà¦®": 8910,
      "à¦¸à¦ŀ": 8911,
      "Ġà¦Ĩà¦Ĺà¦¬à¦¢": 8912,
      "athi": 8913,
      "Ġà¦ĭà¦£à¦Ĺ": 8914,
      "à¦¾&": 8915,
      "Ġà¦¯à¦¤à¦Ĺ": 8916,
      "Ġwall": 8917,
      "Ġamadershomoy": 8918,
      "à¦¬à¦īà¦¦": 8919,
      "agoj": 8920,
      "Ġà§°à¦ĸ": 8921,
      "Ġà§§à§¯à§ªà§¯": 8922,
      "Ġcad": 8923,
      "Ġ67": 8924,
      "undhara": 8925,
      "Ġtang": 8926,
      "ero": 8927,
      "adh": 8928,
      "Ġnarrated": 8929,
      "stat": 8930,
      "Ġchattogram": 8931,
      "zh": 8932,
      "Ġcondition": 8933,
      "Äį": 8934,
      "à¦¶à¦ªà¦¤": 8935,
      "Ġgar": 8936,
      "nect": 8937,
      "à¦ıà¦ķà¦ĩ": 8938,
      "arendra": 8939,
      "gether": 8940,
      "Ã¤": 8941,
      "à¦²à¦ķà¦®": 8942,
      "Ġ88": 8943,
      "Ġvilla": 8944,
      "Ġà¦Ĩà¦²à¦®à¦¡": 8945,
      "chim": 8946,
      "Ġmuhammad": 8947,
      "Ġjah": 8948,
      "Ġ).": 8949,
      "met": 8950,
      "Ġthoughts": 8951,
      "à¦ľà¦¨à¦¬": 8952,
      "Ġà§§à§©à§®": 8953,
      "Ġnak": 8954,
      "à¶": 8955,
      "blockquote": 8956,
      "'ve": 8957,
      "Ġmessage": 8958,
      "Ġà¦¸à¦¹à¦ľà¦¤à¦°": 8959,
      "ÙİÙ°": 8960,
      "Ġ89": 8961,
      "ended": 8962,
      "Ġpet": 8963,
[...]
